<unk>	0
<s>	0
</s>	0
<pad>	0
▁t	-0
he	-1
▁a	-2
in	-3
▁the	-4
▁w	-5
▁s	-6
▁o	-7
re	-8
nd	-9
▁h	-10
er	-11
ou	-12
is	-13
▁b	-14
at	-15
ed	-16
▁m	-17
▁f	-18
it	-19
▁c	-20
en	-21
▁and	-22
on	-23
▁of	-24
▁to	-25
ing	-26
or	-27
▁d	-28
es	-29
▁th	-30
an	-31
ll	-32
ar	-33
▁p	-34
as	-35
▁in	-36
▁he	-37
▁l	-38
▁n	-39
om	-40
▁ha	-41
le	-42
▁be	-43
▁g	-44
▁I	-45
ic	-46
ot	-47
▁wh	-48
▁e	-49
▁“	-50
ow	-51
ut	-52
im	-53
id	-54
▁y	-55
se	-56
ve	-57
st	-58
ly	-59
▁re	-60
▁that	-61
▁T	-62
▁on	-63
ld	-64
ent	-65
ce	-66
▁you	-67
▁was	-68
▁his	-69
gh	-70
ith	-71
ion	-72
ay	-73
▁with	-74
al	-75
et	-76
▁it	-77
▁u	-78
ir	-79
ver	-80
ad	-81
ro	-82
▁as	-83
▁is	-84
ur	-85
▁for	-86
▁not	-87
▁st	-88
▁A	-89
ght	-90
▁we	-91
ri	-92
▁sa	-93
▁had	-94
ch	-95
her	-96
▁an	-97
ct	-98
▁The	-99
ill	-100
▁at	-101
▁him	-102
ain	-103
▁M	-104
▁se	-105
▁sh	-106
oo	-107
am	-108
ich	-109
▁H	-110
▁her	-111
ter	-112
▁me	-113
ould	-114
all	-115
ke	-116
▁S	-117
ra	-118
if	-119
ess	-120
.”	-121
▁which	-122
red	-123
▁de	-124
il	-125
us	-126
▁so	-127
▁fr	-128
▁have	-129
▁all	-130
▁P	-131
ore	-132
▁su	-133
▁my	-134
▁C	-135
▁said	-136
pe	-137
▁B	-138
▁but	-139
▁by	-140
▁con	-141
ard	-142
▁this	-143
th	-144
▁from	-145
ck	-146
▁who	-147
▁or	-148
ight	-149
ome	-150
qu	-151
▁W	-152
ul	-153
▁k	-154
ge	-155
▁r	-156
▁do	-157
ble	-158
ant	-159
▁v	-160
▁whe	-161
▁she	-162
and	-163
▁ex	-164
res	-165
ust	-166
ous	-167
▁man	-168
pp	-169
,”	-170
▁are	-171
▁one	-172
ation	-173
▁they	-174
te	-175
ers	-176
ist	-177
est	-178
▁ne	-179
sel	-180
▁up	-181
▁were	-182
nt	-183
▁fe	-184
▁al	-185
ound	-186
▁ch	-187
os	-188
▁He	-189
▁li	-190
ol	-191
em	-192
very	-193
ast	-194
▁will	-195
our	-196
out	-197
▁no	-198
▁them	-199
ind	-200
▁G	-201
ong	-202
ate	-203
▁F	-204
ood	-205
art	-206
▁wor	-207
ap	-208
▁there	-209
ie	-210
ak	-211
▁N	-212
▁com	-213
▁kn	-214
un	-215
one	-216
▁D	-217
▁ar	-218
▁le	-219
um	-220
?”	-221
ort	-222
self	-223
la	-224
ost	-225
▁ab	-226
▁their	-227
ig	-228
ame	-229
ther	-230
▁go	-231
▁And	-232
ven	-233
ect	-234
▁your	-235
op	-236
▁j	-237
▁been	-238
▁when	-239
▁out	-240
▁would	-241
▁ag	-242
▁L	-243
ough	-244
ook	-245
ive	-246
▁int	-247
▁what	-248
ide	-249
au	-250
hed	-251
▁un	-252
▁O	-253
ity	-254
ine	-255
reat	-256
ose	-257
▁pro	-258
▁ro	-259
own	-260
▁sp	-261
▁Th	-262
▁E	-263
▁any	-264
urn	-265
▁tr	-266
ell	-267
▁am	-268
▁R	-269
ep	-270
ure	-271
▁more	-272
itt	-273
▁qu	-274
▁fa	-275
ount	-276
ved	-277
ice	-278
▁other	-279
od	-280
li	-281
ass	-282
hing	-283
▁if	-284
▁into	-285
▁can	-286
nder	-287
ber	-288
ance	-289
▁then	-290
able	-291
▁has	-292
ake	-293
▁pr	-294
▁tim	-295
ue	-296
▁some	-297
pt	-298
ci	-299
!”	-300
▁af	-301
▁im	-302
▁V	-303
ag	-304
ry	-305
▁tw	-306
ire	-307
▁us	-308
▁could	-309
▁dis	-310
ove	-311
▁ad	-312
▁know	-313
ars	-314
▁hand	-315
cc	-316
ite	-317
▁did	-318
▁now	-319
ree	-320
▁J	-321
ab	-322
▁like	-323
el	-324
other	-325
ought	-326
way	-327
▁en	-328
ress	-329
▁see	-330
ade	-331
ence	-332
fore	-333
▁only	-334
▁say	-335
ang	-336
▁again	-337
▁br	-338
ather	-339
▁It	-340
ies	-341
ving	-342
are	-343
▁very	-344
wn	-345
lo	-346
▁look	-347
▁than	-348
hat	-349
▁over	-350
ment	-351
▁time	-352
tain	-353
ated	-354
▁But	-355
ack	-356
ink	-357
▁about	-358
ud	-359
▁too	-360
▁should	-361
ish	-362
ier	-363
ile	-364
▁day	-365
ked	-366
▁po	-367
▁off	-368
▁rep	-369
▁‘	-370
ond	-371
--	-372
per	-373
ary	-374
ach	-375
▁cl	-376
▁our	-377
▁must	-378
ally	-379
▁per	-380
▁gr	-381
age	-382
ered	-383
▁rem	-384
ves	-385
ren	-386
▁himself	-387
▁may	-388
ac	-389
▁fir	-390
..	-391
ff	-392
▁every	-393
▁Y	-394
ings	-395
right	-396
ions	-397
me	-398
▁ey	-399
▁great	-400
ward	-401
▁two	-402
▁under	-403
ittle	-404
▁long	-405
▁sm	-406
▁thr	-407
ife	-408
ful	-409
▁pe	-410
▁before	-411
led	-412
ans	-413
▁des	-414
▁how	-415
▁good	-416
▁pre	-417
ced	-418
ness	-419
▁little	-420
▁down	-421
▁str	-422
oll	-423
ath	-424
ious	-425
▁old	-426
ull	-427
ty	-428
ince	-429
hen	-430
si	-431
▁bl	-432
ise	-433
▁count	-434
ject	-435
▁beg	-436
▁these	-437
▁after	-438
▁seem	-439
uch	-440
▁upon	-441
▁spe	-442
▁first	-443
old	-444
▁even	-445
▁_	-446
▁thought	-447
▁arm	-448
▁such	-449
▁comp	-450
▁men	-451
▁made	-452
ave	-453
ft	-454
rie	-455
ign	-456
▁pl	-457
▁bec	-458
▁ra	-459
▁where	-460
ried	-461
ng	-462
▁part	-463
▁shall	-464
▁own	-465
▁way	-466
▁pass	-467
ark	-468
ild	-469
▁went	-470
▁its	-471
ouse	-472
rew	-473
▁just	-474
▁fl	-475
▁In	-476
▁came	-477
▁ob	-478
ning	-479
ds	-480
▁work	-481
▁let	-482
▁head	-483
ened	-484
ted	-485
▁ent	-486
▁eyes	-487
ip	-488
▁res	-489
ick	-490
ne	-491
▁turn	-492
▁come	-493
▁gl	-494
▁ret	-495
▁without	-496
▁sc	-497
▁pla	-498
▁back	-499
▁much	-500
▁still	-501
▁imp	-502
▁cont	-503
▁think	-504
ces	-505
ons	-506
we	-507
iz	-508
▁acc	-509
ors	-510
▁bet	-511
omet	-512
▁(	-513
read	-514
▁those	-515
▁same	-516
▁op	-517
▁exp	-518
▁ind	-519
▁here	-520
▁well	-521
so	-522
ord	-523
▁through	-524
ha	-525
▁ap	-526
▁away	-527
▁might	-528
less	-529
ied	-530
▁She	-531
ase	-532
iv	-533
▁never	-534
▁house	-535
▁bo	-536
row	-537
ER	-538
ss	-539
▁dist	-540
▁Then	-541
ily	-542
▁1	-543
▁St	-544
▁father	-545
▁comm	-546
▁life	-547
ean	-548
▁cons	-549
▁pos	-550
ause	-551
▁car	-552
▁Pr	-553
▁young	-554
▁pres	-555
thing	-556
aking	-557
▁somet	-558
▁most	-559
▁happ	-560
les	-561
▁call	-562
cess	-563
riend	-564
orm	-565
▁lo	-566
fe	-567
▁This	-568
▁being	-569
▁nothing	-570
pect	-571
▁last	-572
▁Ch	-573
ared	-574
▁saw	-575
hy	-576
▁ye	-577
oment	-578
▁moment	-579
man	-580
ale	-581
here	-582
▁ser	-583
air	-584
hes	-585
▁friend	-586
▁make	-587
▁wr	-588
▁room	-589
ory	-590
▁wat	-591
▁app	-592
▁There	-593
▁door	-594
ener	-595
▁ord	-596
arm	-597
lied	-598
▁att	-599
▁night	-600
▁left	-601
▁form	-602
▁tell	-603
▁took	-604
▁seemed	-605
▁la	-606
▁another	-607
▁end	-608
atter	-609
ertain	-610
▁vo	-611
▁face	-612
.’	-613
▁bel	-614
▁ter	-615
ations	-616
cy	-617
▁em	-618
▁right	-619
iss	-620
▁ke	-621
▁mar	-622
▁rec	-623
▁though	-624
▁K	-625
▁light	-626
ret	-627
▁te	-628
▁Pro	-629
ished	-630
vent	-631
▁appe	-632
▁once	-633
▁found	-634
▁U	-635
▁get	-636
int	-637
▁return	-638
▁take	-639
ru	-640
▁read	-641
▁You	-642
uten	-643
ult	-644
▁heard	-645
av	-646
ever	-647
▁co	-648
ction	-649
ner	-650
▁They	-651
ling	-652
ari	-653
amp	-654
ently	-655
igh	-656
ople	-657
▁child	-658
ollow	-659
oth	-660
HA	-661
▁yet	-662
berg	-663
ict	-664
▁At	-665
▁while	-666
ither	-667
▁When	-668
ition	-669
cl	-670
fort	-671
wards	-672
ix	-673
utenberg	-674
▁replied	-675
▁asked	-676
▁wom	-677
TER	-678
rib	-679
▁three	-680
▁looked	-681
ub	-682
▁Mr	-683
lt	-684
ierre	-685
den	-686
▁pers	-687
▁sec	-688
the	-689
ont	-690
▁inst	-691
og	-692
alk	-693
▁ple	-694
▁people	-695
▁sw	-696
ank	-697
▁whole	-698
▁heart	-699
ian	-700
▁hands	-701
▁ear	-702
▁Pierre	-703
▁add	-704
▁began	-705
▁place	-706
▁wa	-707
▁want	-708
▁fell	-709
▁set	-710
▁mind	-711
▁whom	-712
ates	-713
▁CHA	-714
The	-715
▁As	-716
▁inf	-717
▁something	-718
▁round	-719
▁sl	-720
ew	-721
▁Al	-722
sw	-723
PTER	-724
▁CHAPTER	-725
▁cor	-726
▁gra	-727
▁supp	-728
▁[	-729
lf	-730
ange	-731
ways	-732
▁side	-733
▁follow	-734
▁feel	-735
▁love	-736
▁Gutenberg	-737
ower	-738
▁wind	-739
ens	-740
ched	-741
▁seen	-742
aught	-743
▁put	-744
ited	-745
▁many	-746
cept	-747
▁"	-748
▁sil	-749
▁reg	-750
▁answ	-751
▁rest	-752
▁gi	-753
▁gener	-754
You	-755
▁hor	-756
▁cr	-757
▁mor	-758
▁ac	-759
▁dra	-760
not	-761
▁sur	-762
▁ass	-763
▁underst	-764
▁give	-765
ows	-766
▁What	-767
▁also	-768
lic	-769
▁Val	-770
▁gu	-771
▁war	-772
▁Project	-773
ained	-774
und	-775
▁Fr	-776
uck	-777
▁sou	-778
ged	-779
▁cour	-780
oy	-781
▁new	-782
▁sub	-783
▁each	-784
▁always	-785
rist	-786
sible	-787
ired	-788
▁ins	-789
What	-790
▁felt	-791
▁conf	-792
ho	-793
▁against	-794
▁So	-795
oke	-796
▁sat	-797
most	-798
ail	-799
cei	-800
▁We	-801
▁cap	-802
▁soon	-803
▁inte	-804
▁ref	-805
▁things	-806
▁nat	-807
ined	-808
iness	-809
act	-810
get	-811
▁If	-812
▁ever	-813
ating	-814
ised	-815
ls	-816
fect	-817
▁dif	-818
aken	-819
▁sle	-820
▁ev	-821
ting	-822
▁voice	-823
▁having	-824
ief	-825
ody	-826
▁Prince	-827
▁ho	-828
▁find	-829
▁On	-830
ace	-831
ical	-832
pped	-833
ute	-834
▁near	-835
ense	-836
vers	-837
▁son	-838
▁words	-839
ield	-840
▁name	-841
Yes	-842
▁dear	-843
oub	-844
▁beh	-845
anc	-846
▁told	-847
ial	-848
▁tre	-849
▁world	-850
▁mother	-851
▁His	-852
▁going	-853
▁full	-854
▁thing	-855
▁certain	-856
ying	-857
ple	-858
▁don	-859
ene	-860
▁pur	-861
▁turned	-862
▁because	-863
▁far	-864
ual	-865
▁done	-866
▁To	-867
▁occ	-868
rench	-869
ween	-870
▁inter	-871
aps	-872
▁fo	-873
ern	-874
▁quite	-875
▁cle	-876
up	-877
ides	-878
▁death	-879
tle	-880
ister	-881
▁God	-882
▁both	-883
▁mo	-884
▁mon	-885
▁pleas	-886
▁tra	-887
▁fall	-888
osed	-889
▁hour	-890
▁vis	-891
ph	-892
▁That	-893
▁hum	-894
▁cried	-895
eth	-896
mb	-897
▁myself	-898
▁ship	-899
▁between	-900
▁No	-901
And	-902
ery	-903
ung	-904
▁For	-905
ross	-906
▁adv	-907
uth	-908
aring	-909
▁called	-910
▁does	-911
▁ide	-912
▁present	-913
▁knew	-914
▁morning	-915
aint	-916
oud	-917
selves	-918
▁nor	-919
▁inc	-920
aut	-921
oun	-922
▁word	-923
▁che	-924
its	-925
▁bed	-926
arge	-927
rest	-928
▁disc	-929
▁French	-930
▁cannot	-931
ps	-932
▁open	-933
▁ele	-934
xt	-935
,’	-936
uc	-937
ressed	-938
aven	-939
▁contin	-940
▁kind	-941
ug	-942
▁order	-943
ued	-944
arius	-945
ille	-946
▁rel	-947
lack	-948
▁fore	-949
▁Mad	-950
ole	-951
▁Mor	-952
ures	-953
▁point	-954
▁hel	-955
▁dead	-956
ason	-957
▁dr	-958
▁years	-959
ás	-960
▁sort	-961
nded	-962
▁gave	-963
dden	-964
▁act	-965
ured	-966
▁exc	-967
ering	-968
▁ste	-969
▁stand	-970
ular	-971
▁Marius	-972
▁sk	-973
▁almost	-974
az	-975
▁woman	-976
▁quest	-977
▁towards	-978
▁understand	-979
ins	-980
ks	-981
▁half	-982
▁bar	-983
▁bre	-984
▁Mon	-985
It	-986
▁es	-987
▁few	-988
▁care	-989
owed	-990
▁hard	-991
▁fam	-992
▁An	-993
▁mean	-994
▁matter	-995
ention	-996
▁among	-997
▁sent	-998
▁home	-999
▁sudden	-1000
▁Be	-1001
▁gir	-1002
ready	-1003
▁passed	-1004
▁bro	-1005
▁got	-1006
als	-1007
▁air	-1008
▁imm	-1009
▁poor	-1010
ásha	-1011
▁dark	-1012
▁anything	-1013
TM	-1014
▁stood	-1015
ceived	-1016
▁Nat	-1017
▁soul	-1018
▁hon	-1019
▁four	-1020
II	-1021
▁alone	-1022
▁cur	-1023
▁thy	-1024
▁behind	-1025
HE	-1026
Well	-1027
▁sun	-1028
▁true	-1029
▁already	-1030
▁GutenbergTM	-1031
▁person	-1032
▁herself	-1033
▁speak	-1034
▁offic	-1035
,—	-1036
▁better	-1037
ats	-1038
▁sir	-1039
...	-1040
ream	-1041
▁lay	-1042
▁aw	-1043
▁small	-1044
▁suff	-1045
tered	-1046
▁art	-1047
ached	-1048
▁dire	-1049
▁arms	-1050
Oh	-1051
:—	-1052
▁sound	-1053
▁*	-1054
▁since	-1055
▁taken	-1056
na	-1057
ctor	-1058
ets	-1059
▁thus	-1060
▁dec	-1061
▁el	-1062
▁eff	-1063
▁Jean	-1064
▁others	-1065
▁bat	-1066
▁Natásha	-1067
▁sim	-1068
ron	-1069
▁law	-1070
▁best	-1071
▁days	-1072
▁serv	-1073
▁hear	-1074
ible	-1075
▁letter	-1076
▁belie	-1077
▁prin	-1078
ey	-1079
used	-1080
▁All	-1081
▁black	-1082
▁dep	-1083
óv	-1084
▁wall	-1085
sh	-1086
▁sing	-1087
▁sea	-1088
men	-1089
irt	-1090
▁sold	-1091
haps	-1092
ten	-1093
▁white	-1094
▁help	-1095
▁inv	-1096
▁lad	-1097
ately	-1098
▁Monte	-1099
▁Andrew	-1100
ents	-1101
▁talk	-1102
ants	-1103
▁longer	-1104
▁fur	-1105
aster	-1106
risto	-1107
▁whose	-1108
▁sign	-1109
▁fire	-1110
▁Cristo	-1111
lock	-1112
▁mis	-1113
▁sleep	-1114
▁cop	-1115
▁red	-1116
aid	-1117
00	-1118
▁min	-1119
▁ph	-1120
ains	-1121
ments	-1122
▁heaven	-1123
▁water	-1124
gth	-1125
ully	-1126
jean	-1127
▁fear	-1128
▁everything	-1129
▁power	-1130
▁Valjean	-1131
ov	-1132
ably	-1133
▁ask	-1134
▁keep	-1135
▁along	-1136
tte	-1137
▁Ar	-1138
ms	-1139
ized	-1140
▁beaut	-1141
▁hold	-1142
▁Ville	-1143
rel	-1144
iting	-1145
uring	-1146
illed	-1147
▁wife	-1148
▁ground	-1149
ès	-1150
▁Rost	-1151
▁Villefort	-1152
▁command	-1153
▁use	-1154
▁doub	-1155
▁X	-1156
▁thir	-1157
No	-1158
▁Em	-1159
▁inde	-1160
But	-1161
▁brought	-1162
▁second	-1163
pr	-1164
▁Now	-1165
▁till	-1166
He	-1167
aughter	-1168
aris	-1169
▁gent	-1170
▁less	-1171
pl	-1172
▁army	-1173
that	-1174
akes	-1175
ety	-1176
▁ir	-1177
▁general	-1178
▁however	-1179
▁det	-1180
▁reason	-1181
▁Wh	-1182
▁express	-1183
▁wish	-1184
edi	-1185
anger	-1186
▁high	-1187
▁country	-1188
▁With	-1189
▁whale	-1190
▁cond	-1191
▁whether	-1192
▁saying	-1193
▁pol	-1194
ceed	-1195
fully	-1196
une	-1197
ken	-1198
▁run	-1199
▁step	-1200
by	-1201
orrow	-1202
▁list	-1203
ater	-1204
▁king	-1205
unt	-1206
▁real	-1207
▁fact	-1208
ution	-1209
ash	-1210
▁prom	-1211
laim	-1212
▁hus	-1213
▁themselves	-1214
▁opp	-1215
▁given	-1216
▁need	-1217
▁looking	-1218
▁aff	-1219
riage	-1220
osette	-1221
ract	-1222
rent	-1223
▁chief	-1224
irc	-1225
land	-1226
▁abs	-1227
▁del	-1228
▁ill	-1229
▁arri	-1230
▁sure	-1231
day	-1232
▁ang	-1233
ock	-1234
iled	-1235
▁dro	-1236
▁adm	-1237
▁ext	-1238
▁obs	-1239
gether	-1240
▁leave	-1241
▁evening	-1242
▁together	-1243
▁returned	-1244
----	-1245
▁human	-1246
▁Cosette	-1247
▁One	-1248
▁unt	-1249
▁gentle	-1250
oney	-1251
▁enough	-1252
undred	-1253
▁rather	-1254
tem	-1255
▁bes	-1256
▁How	-1257
▁fin	-1258
▁enem	-1259
▁appro	-1260
▁large	-1261
▁Rostóv	-1262
▁question	-1263
▁suddenly	-1264
cious	-1265
▁answered	-1266
rible	-1267
ison	-1268
che	-1269
imes	-1270
▁draw	-1271
▁sight	-1272
▁My	-1273
▁dest	-1274
ided	-1275
ught	-1276
ude	-1277
▁bus	-1278
▁feet	-1279
▁table	-1280
▁num	-1281
iew	-1282
▁gone	-1283
▁hundred	-1284
lars	-1285
▁par	-1286
▁course	-1287
▁deep	-1288
ts	-1289
▁girl	-1290
ousand	-1291
ching	-1292
▁thou	-1293
▁cal	-1294
ident	-1295
▁mid	-1296
▁appear	-1297
ny	-1298
▁why	-1299
ities	-1300
▁ri	-1301
owing	-1302
de	-1303
anglars	-1304
▁entered	-1305
du	-1306
▁next	-1307
▁circ	-1308
▁thousand	-1309
ances	-1310
▁blood	-1311
▁sister	-1312
▁gold	-1313
▁Danglars	-1314
roy	-1315
▁char	-1316
▁close	-1317
ility	-1318
▁bra	-1319
▁Paris	-1320
▁live	-1321
▁body	-1322
▁land	-1323
arn	-1324
▁earth	-1325
▁lost	-1326
▁1.	-1327
▁remem	-1328
▁around	-1329
én	-1330
ussi	-1331
▁lau	-1332
▁hope	-1333
▁brother	-1334
fic	-1335
▁div	-1336
▁pri	-1337
▁case	-1338
▁diffe	-1339
▁spoke	-1340
▁times	-1341
ement	-1342
cul	-1343
ool	-1344
▁either	-1345
▁Count	-1346
▁really	-1347
▁free	-1348
▁stre	-1349
bert	-1350
▁front	-1351
▁smile	-1352
▁.	-1353
▁ut	-1354
▁strange	-1355
▁foot	-1356
▁move	-1357
▁opened	-1358
ane	-1359
oc	-1360
▁within	-1361
ax	-1362
▁strong	-1363
ime	-1364
▁expect	-1365
▁dev	-1366
▁road	-1367
▁horse	-1368
▁THE	-1369
▁met	-1370
▁swe	-1371
▁2	-1372
itted	-1373
▁idea	-1374
▁perhaps	-1375
EN	-1376
▁wo	-1377
▁interest	-1378
be	-1379
ider	-1380
▁eye	-1381
▁requ	-1382
▁works	-1383
▁daughter	-1384
▁doubt	-1385
▁bur	-1386
▁joy	-1387
▁prov	-1388
nding	-1389
▁ed	-1390
▁ran	-1391
▁believe	-1392
▁leg	-1393
▁continued	-1394
▁above	-1395
▁bene	-1396
▁spr	-1397
overed	-1398
▁least	-1399
That	-1400
▁hur	-1401
▁expl	-1402
▁fight	-1403
▁money	-1404
▁necess	-1405
ased	-1406
▁begin	-1407
▁possible	-1408
▁short	-1409
iers	-1410
▁dri	-1411
_,	-1412
▁yourself	-1413
itting	-1414
▁six	-1415
▁become	-1416
▁mist	-1417
▁state	-1418
▁battle	-1419
ape	-1420
▁Nap	-1421
ising	-1422
ually	-1423
▁held	-1424
▁happy	-1425
erv	-1426
▁eas	-1427
▁clear	-1428
enty	-1429
ounded	-1430
▁remained	-1431
▁indeed	-1432
ee	-1433
arch	-1434
▁tou	-1435
▁fort	-1436
▁manner	-1437
peror	-1438
▁stra	-1439
▁Russi	-1440
ages	-1441
▁enemy	-1442
▁sn	-1443
▁shout	-1444
▁Madame	-1445
ific	-1446
ians	-1447
ror	-1448
peri	-1449
▁added	-1450
▁itself	-1451
ati	-1452
ert	-1453
ards	-1454
▁gre	-1455
to	-1456
▁became	-1457
Ah	-1458
ia	-1459
▁breat	-1460
▁start	-1461
let	-1462
fter	-1463
▁wood	-1464
ric	-1465
▁“‘	-1466
▁nature	-1467
sess	-1468
▁therefore	-1469
▁five	-1470
you	-1471
airs	-1472
▁hist	-1473
iter	-1474
ushed	-1475
▁coming	-1476
ois	-1477
▁ca	-1478
▁else	-1479
sses	-1480
oleon	-1481
▁Albert	-1482
▁Ah	-1483
▁play	-1484
▁tri	-1485
Th	-1486
mm	-1487
ines	-1488
▁col	-1489
▁ve	-1490
▁view	-1491
▁window	-1492
▁children	-1493
▁ru	-1494
▁Eli	-1495
otion	-1496
▁means	-1497
▁until	-1498
band	-1499
▁esc	-1500
▁mad	-1501
▁prof	-1502
▁says	-1503
▁pap	-1504
▁Dant	-1505
▁meet	-1506
▁quick	-1507
▁compan	-1508
▁received	-1509
▁Morrel	-1510
▁field	-1511
▁Napoleon	-1512
▁prop	-1513
▁trans	-1514
▁possess	-1515
ec	-1516
aving	-1517
▁equ	-1518
▁Mos	-1519
lysses	-1520
br	-1521
▁Eliz	-1522
▁rose	-1523
of	-1524
▁exist	-1525
▁friends	-1526
▁Gree	-1527
ils	-1528
use	-1529
▁hair	-1530
▁dem	-1531
iful	-1532
▁able	-1533
▁god	-1534
▁truth	-1535
▁Rue	-1536
anced	-1537
▁family	-1538
tern	-1539
cer	-1540
▁cou	-1541
▁often	-1542
▁ce	-1543
abeth	-1544
▁Mary	-1545
▁cold	-1546
▁elect	-1547
oss	-1548
▁subject	-1549
▁conv	-1550
▁cut	-1551
▁lead	-1552
▁husband	-1553
▁Elizabeth	-1554
▁grand	-1555
▁creat	-1556
▁appeared	-1557
▁mer	-1558
▁spir	-1559
▁Ulysses	-1560
alked	-1561
iling	-1562
cell	-1563
king	-1564
▁Mosc	-1565
▁copy	-1566
▁repe	-1567
▁Q	-1568
."	-1569
sk	-1570
arp	-1571
▁Dantès	-1572
▁bad	-1573
▁bring	-1574
▁shad	-1575
▁Emperor	-1576
▁Not	-1577
ev	-1578
▁Moscow	-1579
rig	-1580
▁fellow	-1581
▁Gre	-1582
▁instant	-1583
?’	-1584
ster	-1585
der	-1586
que	-1587
▁pain	-1588
for	-1589
outh	-1590
▁forth	-1591
▁direct	-1592
vern	-1593
▁bir	-1594
▁answer	-1595
▁partic	-1596
▁sto	-1597
▁crow	-1598
▁walk	-1599
▁women	-1600
▁terrible	-1601
ledge	-1602
▁gard	-1603
▁pay	-1604
▁yes	-1605
where	-1606
▁taking	-1607
alth	-1608
crib	-1609
▁ten	-1610
▁stud	-1611
▁respect	-1612
head	-1613
▁imag	-1614
▁making	-1615
▁feeling	-1616
▁low	-1617
▁sad	-1618
▁master	-1619
▁gaz	-1620
▁cross	-1621
▁unc	-1622
▁known	-1623
▁ready	-1624
gg	-1625
▁18	-1626
▁prep	-1627
▁stren	-1628
ury	-1629
▁desp	-1630
▁followed	-1631
orn	-1632
anged	-1633
▁quar	-1634
▁tem	-1635
▁consider	-1636
form	-1637
▁force	-1638
AR	-1639
omp	-1640
room	-1641
▁plain	-1642
▁bu	-1643
▁inqu	-1644
but	-1645
▁fix	-1646
My	-1647
▁town	-1648
▁perfect	-1649
▁comple	-1650
iar	-1651
▁mil	-1652
▁past	-1653
lem	-1654
▁sever	-1655
▁remain	-1656
ogn	-1657
▁flo	-1658
▁fair	-1659
erm	-1660
iet	-1661
ead	-1662
ening	-1663
▁surpr	-1664
▁jo	-1665
rupt	-1666
▁seems	-1667
▁during	-1668
ney	-1669
▁drew	-1670
ush	-1671
▁Do	-1672
aw	-1673
▁mur	-1674
▁vi	-1675
▁Yes	-1676
rence	-1677
ublic	-1678
▁disp	-1679
resh	-1680
▁excell	-1681
vel	-1682
ronic	-1683
▁incl	-1684
entine	-1685
▁visit	-1686
orses	-1687
▁const	-1688
▁eng	-1689
▁object	-1690
▁stay	-1691
▁prison	-1692
IN	-1693
cri	-1694
body	-1695
▁pray	-1696
▁cause	-1697
▁sometimes	-1698
▁dream	-1699
▁squ	-1700
itude	-1701
▁reached	-1702
olas	-1703
vert	-1704
▁used	-1705
bs	-1706
▁Un	-1707
▁sit	-1708
ining	-1709
▁Pl	-1710
▁evid	-1711
▁mount	-1712
▁fle	-1713
▁kept	-1714
▁different	-1715
▁gods	-1716
▁placed	-1717
bed	-1718
ott	-1719
▁cat	-1720
▁diffic	-1721
▁expression	-1722
isf	-1723
over	-1724
iously	-1725
▁Eng	-1726
icholas	-1727
▁OF	-1728
▁electronic	-1729
▁horses	-1730
▁beautiful	-1731
▁cry	-1732
▁emb	-1733
▁cent	-1734
▁post	-1735
ask	-1736
▁di	-1737
ices	-1738
▁tor	-1739
▁phil	-1740
dle	-1741
ues	-1742
ump	-1743
▁fine	-1744
illes	-1745
▁hero	-1746
ollect	-1747
▁impos	-1748
▁raised	-1749
),	-1750
▁Let	-1751
▁acqu	-1752
▁mere	-1753
ops	-1754
▁book	-1755
ze	-1756
▁terms	-1757
ib	-1758
▁Jove	-1759
Why	-1760
iment	-1761
▁agre	-1762
▁soci	-1763
laimed	-1764
▁These	-1765
ym	-1766
▁age	-1767
▁mod	-1768
▁une	-1769
▁Valentine	-1770
▁From	-1771
osop	-1772
ceive	-1773
ouble	-1774
ative	-1775
▁month	-1776
▁Nicholas	-1777
ancs	-1778
▁twenty	-1779
lect	-1780
ize	-1781
▁gall	-1782
▁stri	-1783
▁attack	-1784
▁captain	-1785
_.	-1786
How	-1787
▁wonder	-1788
▁Is	-1789
▁wis	-1790
▁After	-1791
lled	-1792
▁State	-1793
▁francs	-1794
▁pleasure	-1795
ES	-1796
nds	-1797
utes	-1798
▁die	-1799
inted	-1800
▁immedi	-1801
▁except	-1802
▁recogn	-1803
▁convers	-1804
▁cast	-1805
▁forg	-1806
▁line	-1807
▁business	-1808
ieur	-1809
▁prob	-1810
▁learn	-1811
▁strength	-1812
▁silence	-1813
ires	-1814
▁laugh	-1815
▁several	-1816
appe	-1817
like	-1818
▁cra	-1819
▁Prin	-1820
wh	-1821
ones	-1822
ural	-1823
▁bit	-1824
▁mus	-1825
▁philosop	-1826
gr	-1827
▁tro	-1828
▁fright	-1829
ots	-1830
▁glo	-1831
▁contr	-1832
▁3	-1833
▁heav	-1834
▁De	-1835
▁fif	-1836
▁number	-1837
ON	-1838
pid	-1839
▁Sh	-1840
▁tried	-1841
▁account	-1842
▁following	-1843
▁thee	-1844
▁mouth	-1845
onsieur	-1846
▁carriage	-1847
▁eat	-1848
énard	-1849
anz	-1850
inct	-1851
▁boy	-1852
▁justice	-1853
!’	-1854
▁third	-1855
ote	-1856
▁youth	-1857
side	-1858
▁obser	-1859
▁doctor	-1860
▁officer	-1861
▁soldiers	-1862
▁Princess	-1863
▁Pe	-1864
▁crowd	-1865
▁happened	-1866
▁Thénard	-1867
▁pale	-1868
ches	-1869
▁affect	-1870
▁secret	-1871
▁laid	-1872
▁accord	-1873
▁hardly	-1874
▁charact	-1875
▁Her	-1876
▁carried	-1877
ift	-1878
▁doing	-1879
▁hast	-1880
▁drink	-1881
▁event	-1882
▁exclaimed	-1883
▁peace	-1884
._	-1885
▁opin	-1886
lish	-1887
▁struck	-1888
bit	-1889
▁led	-1890
iding	-1891
▁hung	-1892
▁import	-1893
▁comes	-1894
▁seeing	-1895
▁standing	-1896
elle	-1897
▁fast	-1898
ination	-1899
erous	-1900
▁Franz	-1901
aged	-1902
▁happiness	-1903
▁effect	-1904
▁further	-1905
▁turning	-1906
IS	-1907
umb	-1908
▁common	-1909
We	-1910
▁iron	-1911
▁garden	-1912
▁sitting	-1913
oon	-1914
▁proper	-1915
▁position	-1916
If	-1917
amed	-1918
▁danger	-1919
▁pie	-1920
ingly	-1921
▁break	-1922
▁dog	-1923
owers	-1924
▁certainly	-1925
▁city	-1926
▁knowledge	-1927
▁ought	-1928
▁remember	-1929
▁prince	-1930
▁particular	-1931
clock	-1932
▁Well	-1933
▁vict	-1934
▁stopped	-1935
ger	-1936
▁inn	-1937
▁forward	-1938
fer	-1939
ission	-1940
▁impossible	-1941
mes	-1942
what	-1943
▁beneath	-1944
oly	-1945
▁By	-1946
▁carry	-1947
▁dread	-1948
▁dress	-1949
ina	-1950
▁fre	-1951
▁lim	-1952
▁calm	-1953
▁distrib	-1954
▁Oh	-1955
▁burn	-1956
▁attention	-1957
aj	-1958
▁’	-1959
though	-1960
▁across	-1961
▁speaking	-1962
▁evidently	-1963
uff	-1964
▁sus	-1965
ters	-1966
▁Mrs	-1967
▁main	-1968
▁living	-1969
iced	-1970
▁fav	-1971
▁prot	-1972
uous	-1973
▁Ben	-1974
▁purs	-1975
▁Thus	-1976
▁bright	-1977
▁neither	-1978
▁Lu	-1979
ency	-1980
▁fat	-1981
▁fig	-1982
▁regard	-1983
ales	-1984
▁beside	-1985
▁street	-1986
úz	-1987
▁mag	-1988
icked	-1989
▁host	-1990
▁year	-1991
▁guard	-1992
▁ast	-1993
▁rev	-1994
tempt	-1995
▁Saint	-1996
ames	-1997
▁ball	-1998
▁tears	-1999
▁satisf	-2000
▁hat	-2001
▁news	-2002
▁worth	-2003
itation	-2004
▁anyone	-2005
bour	-2006
▁Kut	-2007
▁Found	-2008
▁evil	-2009
▁produ	-2010
▁5	-2011
▁av	-2012
There	-2013
arent	-2014
▁wanted	-2015
itions	-2016
▁delight	-2017
Do	-2018
úzov	-2019
▁Foundation	-2020
asion	-2021
▁steps	-2022
uted	-2023
▁len	-2024
▁corner	-2025
sib	-2026
▁Kutúzov	-2027
▁Thénardier	-2028
▁sail	-2029
▁conc	-2030
▁desce	-2031
▁suppose	-2032
▁jud	-2033
▁auth	-2034
▁viol	-2035
▁dut	-2036
▁perm	-2037
▁Why	-2038
▁def	-2039
▁bound	-2040
▁knows	-2041
ality	-2042
pping	-2043
▁lips	-2044
▁quiet	-2045
▁remark	-2046
▁bear	-2047
...”	-2048
▁arr	-2049
▁mat	-2050
▁anim	-2051
——	-2052
olute	-2053
▁Miss	-2054
▁din	-2055
▁hours	-2056
▁drawing	-2057
▁emp	-2058
▁port	-2059
▁former	-2060
▁rapid	-2061
ivid	-2062
▁Ach	-2063
▁fan	-2064
ges	-2065
ras	-2066
▁arrived	-2067
AN	-2068
▁vain	-2069
▁moved	-2070
▁watch	-2071
bo	-2072
ging	-2073
rage	-2074
▁rich	-2075
▁summ	-2076
▁wild	-2077
▁glass	-2078
▁sweet	-2079
▁effort	-2080
▁silent	-2081
▁inform	-2082
▁mention	-2083
▁character	-2084
usion	-2085
▁boat	-2086
▁story	-2087
▁enc	-2088
▁Ahab	-2089
▁prev	-2090
▁slow	-2091
▁occur	-2092
▁wished	-2093
ius	-2094
▁est	-2095
▁eight	-2096
▁later	-2097
▁necessary	-2098
▁Nor	-2099
▁wine	-2100
erc	-2101
▁lie	-2102
▁coun	-2103
▁entire	-2104
▁princi	-2105
▁4	-2106
▁agree	-2107
▁length	-2108
kn	-2109
▁grie	-2110
▁pret	-2111
▁charm	-2112
▁closed	-2113
▁princess	-2114
ler	-2115
▁scar	-2116
itten	-2117
▁conce	-2118
ony	-2119
uct	-2120
raid	-2121
▁band	-2122
▁glad	-2123
▁purp	-2124
▁succ	-2125
▁change	-2126
umed	-2127
▁occup	-2128
just	-2129
▁pock	-2130
▁Sc	-2131
▁Te	-2132
▁mem	-2133
▁harm	-2134
▁lady	-2135
▁fixed	-2136
▁govern	-2137
semb	-2138
▁whis	-2139
▁trees	-2140
,"	-2141
▁Or	-2142
▁self	-2143
val	-2144
▁Here	-2145
▁show	-2146
▁single	-2147
▁thoughts	-2148
▁beginning	-2149
▁immediately	-2150
ley	-2151
▁minutes	-2152
emois	-2153
vere	-2154
▁gun	-2155
▁late	-2156
emoiselle	-2157
▁makes	-2158
:--	-2159
▁sol	-2160
▁Hol	-2161
▁experi	-2162
▁tone	-2163
▁Russian	-2164
▁countess	-2165
cing	-2166
▁paper	-2167
▁opinion	-2168
tend	-2169
▁killed	-2170
ob	-2171
▁Cap	-2172
▁spo	-2173
▁thick	-2174
▁afraid	-2175
yr	-2176
hov	-2177
▁reply	-2178
▁disappe	-2179
▁fut	-2180
▁loud	-2181
▁paid	-2182
▁virt	-2183
▁honor	-2184
▁pen	-2185
OR	-2186
khov	-2187
▁blue	-2188
inary	-2189
▁fate	-2190
▁straight	-2191
▁soft	-2192
▁conversation	-2193
cks	-2194
ours	-2195
apter	-2196
▁fing	-2197
tained	-2198
▁circum	-2199
▁proceed	-2200
raph	-2201
yond	-2202
▁complete	-2203
net	-2204
▁val	-2205
▁green	-2206
retched	-2207
▁fly	-2208
ilt	-2209
light	-2210
▁sense	-2211
asp	-2212
▁suit	-2213
▁Of	-2214
Then	-2215
▁Pet	-2216
▁try	-2217
▁Some	-2218
▁vill	-2219
▁neigh	-2220
▁demand	-2221
▁spirit	-2222
▁presence	-2223
▁thinking	-2224
anks	-2225
▁kill	-2226
▁tremb	-2227
▁author	-2228
under	-2229
▁below	-2230
▁gloom	-2231
▁slight	-2232
▁sorrow	-2233
▁talking	-2234
▁distance	-2235
▁understood	-2236
ustom	-2237
▁future	-2238
▁Who	-2239
▁accept	-2240
lies	-2241
▁repeated	-2242
▁anx	-2243
▁Plat	-2244
▁court	-2245
▁hig	-2246
avert	-2247
▁mine	-2248
▁Holmes	-2249
▁dinner	-2250
nya	-2251
ration	-2252
▁desire	-2253
▁darkness	-2254
IT	-2255
▁lived	-2256
▁loved	-2257
▁public	-2258
oose	-2259
▁mass	-2260
▁reach	-2261
▁breast	-2262
▁caught	-2263
▁troops	-2264
▁address	-2265
▁orders	-2266
ónya	-2267
▁lab	-2268
▁maid	-2269
▁warm	-2270
▁forget	-2271
▁English	-2272
▁occasion	-2273
▁Den	-2274
▁walked	-2275
ned	-2276
▁bow	-2277
▁fresh	-2278
▁threw	-2279
▁Javert	-2280
▁broken	-2281
▁history	-2282
oned	-2283
▁top	-2284
▁shore	-2285
In	-2286
sov	-2287
ored	-2288
cience	-2289
.]	-2290
ooh	-2291
▁box	-2292
▁intell	-2293
ics	-2294
ubb	-2295
▁sal	-2296
▁While	-2297
▁grave	-2298
olution	-2299
ón	-2300
▁won	-2301
antly	-2302
▁floor	-2303
▁breath	-2304
▁soldier	-2305
▁pat	-2306
ND	-2307
cient	-2308
▁wait	-2309
lig	-2310
eness	-2311
itary	-2312
▁laws	-2313
▁Every	-2314
▁meant	-2315
▁Hector	-2316
▁nearly	-2317
▁destroy	-2318
bb	-2319
▁Troy	-2320
▁Bor	-2321
▁Cad	-2322
▁Dar	-2323
ented	-2324
▁weak	-2325
▁beyond	-2326
▁seized	-2327
aled	-2328
▁big	-2329
▁cre	-2330
▁none	-2331
ísov	-2332
▁sho	-2333
▁comb	-2334
▁belong	-2335
▁Ne	-2336
....	-2337
▁kiss	-2338
loy	-2339
par	-2340
▁deal	-2341
▁Am	-2342
ancing	-2343
▁action	-2344
▁report	-2345
▁waiting	-2346
ume	-2347
ries	-2348
▁ago	-2349
▁Darcy	-2350
ically	-2351
morrow	-2352
▁chance	-2353
▁fortune	-2354
▁purpose	-2355
▁service	-2356
atever	-2357
▁States	-2358
▁escape	-2359
▁quickly	-2360
▁success	-2361
▁Le	-2362
▁Sp	-2363
▁Sónya	-2364
--------	-2365
▁instead	-2366
▁natural	-2367
ager	-2368
▁peas	-2369
▁rul	-2370
▁filled	-2371
▁ann	-2372
ek	-2373
peci	-2374
▁spot	-2375
▁trad	-2376
▁heavy	-2377
▁oppos	-2378
ism	-2379
ected	-2380
▁camp	-2381
▁although	-2382
med	-2383
▁enter	-2384
erousse	-2385
▁sla	-2386
ortal	-2387
▁wrong	-2388
▁Christ	-2389
night	-2390
▁Dor	-2391
▁wit	-2392
▁grew	-2393
▁please	-2394
▁Denísov	-2395
▁shouted	-2396
leep	-2397
▁society	-2398
ists	-2399
▁den	-2400
▁nar	-2401
▁sky	-2402
▁written	-2403
els	-2404
ified	-2405
▁hill	-2406
▁depart	-2407
▁Achilles	-2408
▁Caderousse	-2409
▁appearance	-2410
ises	-2411
ives	-2412
amber	-2413
▁stone	-2414
▁wound	-2415
vna	-2416
▁En	-2417
anch	-2418
▁hop	-2419
ively	-2420
known	-2421
▁pretty	-2422
uel	-2423
▁vol	-2424
▁individ	-2425
▁approach	-2426
▁stranger	-2427
arer	-2428
achus	-2429
lling	-2430
▁easy	-2431
▁utter	-2432
idence	-2433
▁motion	-2434
▁Mademoiselle	-2435
OO	-2436
▁Se	-2437
▁coat	-2438
▁exam	-2439
▁mut	-2440
▁Alice	-2441
▁circumst	-2442
hood	-2443
▁forest	-2444
ET	-2445
▁forgot	-2446
isted	-2447
▁jour	-2448
▁latter	-2449
▁agreement	-2450
▁Ed	-2451
iant	-2452
▁usual	-2453
▁glance	-2454
▁describ	-2455
▁copyright	-2456
▁middle	-2457
▁wounded	-2458
▁movement	-2459
▁individual	-2460
▁mill	-2461
▁alarm	-2462
ady	-2463
angu	-2464
▁firm	-2465
▁study	-2466
urg	-2467
lace	-2468
▁plan	-2469
▁Van	-2470
▁pal	-2471
▁duty	-2472
▁marry	-2473
▁merely	-2474
▁toward	-2475
▁gentleman	-2476
cked	-2477
omer	-2478
▁ign	-2479
▁Where	-2480
▁prevent	-2481
asure	-2482
▁clot	-2483
▁pocket	-2484
eds	-2485
ees	-2486
▁fal	-2487
▁employ	-2488
▁Chapter	-2489
ah	-2490
pit	-2491
ouses	-2492
culiar	-2493
gor	-2494
▁Tro	-2495
▁mark	-2496
ection	-2497
▁allow	-2498
▁spread	-2499
▁officers	-2500
co	-2501
cerf	-2502
▁neck	-2503
▁train	-2504
wo	-2505
aff	-2506
idge	-2507
▁simple	-2508
▁direction	-2509
non	-2510
ugg	-2511
▁gro	-2512
▁blind	-2513
▁peculiar	-2514
▁Que	-2515
▁bold	-2516
▁race	-2517
▁Morcerf	-2518
▁greater	-2519
▁marriage	-2520
dom	-2521
▁King	-2522
▁shut	-2523
▁noble	-2524
▁attempt	-2525
▁und	-2526
jo	-2527
This	-2528
ision	-2529
▁cost	-2530
▁silver	-2531
▁covered	-2532
▁noticed	-2533
ding	-2534
▁Fau	-2535
▁trave	-2536
pecially	-2537
▁outside	-2538
▁perform	-2539
anging	-2540
▁Plato	-2541
▁formed	-2542
▁probably	-2543
aped	-2544
▁lif	-2545
▁running	-2546
teen	-2547
▁pull	-2548
▁seven	-2549
▁courage	-2550
OU	-2551
▁brave	-2552
▁deser	-2553
▁getting	-2554
pend	-2555
▁van	-2556
▁aston	-2557
▁giving	-2558
▁includ	-2559
▁meaning	-2560
▁lean	-2561
▁smoke	-2562
ously	-2563
▁died	-2564
▁save	-2565
▁lower	-2566
▁treat	-2567
▁beauty	-2568
▁result	-2569
Now	-2570
ades	-2571
▁conn	-2572
▁infl	-2573
▁walls	-2574
▁slowly	-2575
Come	-2576
cely	-2577
▁pit	-2578
▁leaving	-2579
verse	-2580
▁educ	-2581
▁fier	-2582
▁da	-2583
reme	-2584
▁simp	-2585
▁wide	-2586
▁apart	-2587
▁France	-2588
▁fallen	-2589
othy	-2590
urch	-2591
▁send	-2592
▁broad	-2593
▁early	-2594
▁passing	-2595
▁pa	-2596
▁Bar	-2597
▁maj	-2598
▁bank	-2599
▁pity	-2600
▁asleep	-2601
▁afterwards	-2602
now	-2603
ague	-2604
▁Troj	-2605
▁exact	-2606
▁Dorothy	-2607
Book	-2608
▁por	-2609
▁becom	-2610
▁passage	-2611
urs	-2612
ring	-2613
▁suc	-2614
▁succeed	-2615
▁expected	-2616
ests	-2617
▁pun	-2618
▁var	-2619
▁cart	-2620
erable	-2621
▁absolute	-2622
ys	-2623
▁Mar	-2624
▁months	-2625
RE	-2626
ólo	-2627
ishop	-2628
▁bott	-2629
▁incre	-2630
▁comfort	-2631
▁married	-2632
uit	-2633
▁prec	-2634
OM	-2635
go	-2636
aded	-2637
aval	-2638
▁grow	-2639
hale	-2640
▁furn	-2641
▁advant	-2642
▁listened	-2643
ici	-2644
▁cab	-2645
▁rid	-2646
▁Arch	-2647
▁Pooh	-2648
▁angry	-2649
▁greatest	-2650
SE	-2651
ories	-2652
▁trying	-2653
inal	-2654
▁defe	-2655
tended	-2656
▁shoulders	-2657
▁especially	-2658
▁police	-2659
▁smiled	-2660
▁despair	-2661
▁important	-2662
▁deg	-2663
▁que	-2664
ences	-2665
▁dust	-2666
▁trouble	-2667
uge	-2668
▁med	-2669
▁chair	-2670
▁concl	-2671
▁holding	-2672
TI	-2673
ma	-2674
▁stat	-2675
▁lying	-2676
▁separ	-2677
▁servant	-2678
ski	-2679
itated	-2680
▁burst	-2681
ertainly	-2682
▁collect	-2683
▁quarter	-2684
▁retreat	-2685
000	-2686
▁Ag	-2687
▁mel	-2688
▁smiling	-2689
ners	-2690
oured	-2691
▁bell	-2692
ishing	-2693
▁polit	-2694
▁barric	-2695
▁orig	-2696
▁ideas	-2697
▁surprise	-2698
III	-2699
aire	-2700
▁determ	-2701
▁commander	-2702
▁fee	-2703
▁party	-2704
ompan	-2705
osing	-2706
▁Rome	-2707
▁super	-2708
▁according	-2709
▁seat	-2710
▁notice	-2711
▁whatever	-2712
▁civ	-2713
▁cand	-2714
▁ancient	-2715
Not	-2716
rect	-2717
sequ	-2718
▁arg	-2719
▁river	-2720
▁easily	-2721
▁figure	-2722
▁possib	-2723
To	-2724
aly	-2725
uly	-2726
ship	-2727
▁heads	-2728
▁Bennet	-2729
▁perfectly	-2730
UL	-2731
eks	-2732
ike	-2733
▁Tr	-2734
▁note	-2735
▁piece	-2736
▁United	-2737
mond	-2738
pper	-2739
▁clo	-2740
cript	-2741
▁liber	-2742
▁rage	-2743
▁spite	-2744
▁regiment	-2745
axim	-2746
▁empt	-2747
▁gate	-2748
irtier	-2749
▁grief	-2750
▁houses	-2751
do	-2752
held	-2753
▁Just	-2754
▁hunt	-2755
icense	-2756
▁sides	-2757
▁everyone	-2758
ior	-2759
▁dw	-2760
▁tree	-2761
▁eBook	-2762
▁unknown	-2763
▁difficult	-2764
joy	-2765
▁sy	-2766
▁divine	-2767
▁allowed	-2768
▁persons	-2769
▁excellency	-2770
bor	-2771
wor	-2772
▁Ph	-2773
wise	-2774
▁fro	-2775
▁phy	-2776
▁pract	-2777
▁journey	-2778
▁reflect	-2779
▁disappeared	-2780
ais	-2781
uss	-2782
▁ves	-2783
▁eager	-2784
▁Noirtier	-2785
oh	-2786
ays	-2787
yal	-2788
▁La	-2789
▁situ	-2790
▁lives	-2791
cial	-2792
happ	-2793
▁Yet	-2794
inite	-2795
▁Mont	-2796
▁flew	-2797
▁priv	-2798
▁faith	-2799
▁rising	-2800
▁receive	-2801
▁serious	-2802
▁support	-2803
▁contrary	-2804
Is	-2805
ton	-2806
▁surr	-2807
ólokhov	-2808
▁pleased	-2809
ingu	-2810
ouis	-2811
▁blow	-2812
▁lies	-2813
▁poet	-2814
▁bread	-2815
▁sharp	-2816
▁charge	-2817
▁tender	-2818
▁feelings	-2819
▁twel	-2820
seless	-2821
▁teeth	-2822
▁golden	-2823
▁Dólokhov	-2824
pic	-2825
▁Such	-2826
▁commun	-2827
ails	-2828
ashed	-2829
▁exec	-2830
▁scene	-2831
▁health	-2832
▁company	-2833
▁interrupt	-2834
esty	-2835
▁har	-2836
▁island	-2837
▁spring	-2838
▁vessel	-2839
OOK	-2840
ald	-2841
▁thin	-2842
▁music	-2843
▁stern	-2844
▁dressed	-2845
ien	-2846
ator	-2847
▁win	-2848
▁Homer	-2849
▁oblig	-2850
ishment	-2851
gy	-2852
iod	-2853
bered	-2854
▁appears	-2855
ming	-2856
▁hide	-2857
ushing	-2858
,000	-2859
rate	-2860
▁hot	-2861
ander	-2862
enced	-2863
ested	-2864
▁stro	-2865
▁Whale	-2866
▁class	-2867
iterary	-2868
▁crew	-2869
▁false	-2870
▁shadow	-2871
▁virtue	-2872
▁promise	-2873
—“	-2874
▁bent	-2875
▁food	-2876
▁spect	-2877
ham	-2878
They	-2879
ases	-2880
lsing	-2881
▁sake	-2882
▁bless	-2883
▁Helsing	-2884
rid	-2885
▁er	-2886
come	-2887
play	-2888
ulty	-2889
▁Per	-2890
▁smo	-2891
agraph	-2892
▁enjoy	-2893
▁bottom	-2894
▁showed	-2895
▁opposite	-2896
▁paragraph	-2897
fast	-2898
gged	-2899
lemn	-2900
▁sch	-2901
▁tall	-2902
fortun	-2903
ingley	-2904
▁proud	-2905
▁shook	-2906
▁yield	-2907
▁minute	-2908
▁solemn	-2909
▁terror	-2910
▁thunder	-2911
org	-2912
rea	-2913
▁snow	-2914
▁events	-2915
▁Captain	-2916
▁touched	-2917
arily	-2918
ilian	-2919
▁safe	-2920
pected	-2921
▁Bingley	-2922
▁Monsieur	-2923
▁questions	-2924
how	-2925
▁Ly	-2926
▁dim	-2927
▁fun	-2928
idered	-2929
▁imper	-2930
▁langu	-2931
▁noise	-2932
▁sword	-2933
▁histor	-2934
cr	-2935
▁XV	-2936
athan	-2937
▁imagine	-2938
▁accompan	-2939
kh	-2940
ís	-2941
pon	-2942
rill	-2943
▁started	-2944
ustration	-2945
▁distingu	-2946
▁entirely	-2947
tled	-2948
ument	-2949
▁murm	-2950
▁habit	-2951
▁Br	-2952
race	-2953
▁sli	-2954
▁Merc	-2955
▁legs	-2956
▁drawn	-2957
▁ignor	-2958
ception	-2959
▁conscious	-2960
ye	-2961
aste	-2962
▁eld	-2963
ortun	-2964
▁obey	-2965
▁pict	-2966
▁yell	-2967
▁ships	-2968
▁gentlemen	-2969
▁ears	-2970
▁pointed	-2971
▁finished	-2972
▁difficulty	-2973
▁See	-2974
arked	-2975
▁conqu	-2976
▁trust	-2977
▁twelve	-2978
▁various	-2979
So	-2980
oted	-2981
roche	-2982
▁gazed	-2983
▁access	-2984
▁stream	-2985
▁ourselves	-2986
yl	-2987
hel	-2988
▁knees	-2989
▁Andrea	-2990
▁assist	-2991
▁changed	-2992
▁concern	-2993
olog	-2994
▁Gav	-2995
▁aim	-2996
▁ble	-2997
▁beat	-2998
ounced	-2999
▁broke	-3000
▁letters	-3001
▁visible	-3002
▁dreadful	-3003
▁shoulder	-3004
dd	-3005
kes	-3006
ouds	-3007
▁pac	-3008
▁Jane	-3009
▁rise	-3010
▁sacri	-3011
▁seated	-3012
▁Gavroche	-3013
▁observed	-3014
▁affection	-3015
▁dart	-3016
▁path	-3017
▁sens	-3018
▁drove	-3019
ference	-3020
theless	-3021
▁forced	-3022
▁knowing	-3023
▁scarcely	-3024
rop	-3025
ruct	-3026
▁gen	-3027
▁hid	-3028
▁wol	-3029
▁dare	-3030
▁tail	-3031
▁Edmond	-3032
rer	-3033
ples	-3034
▁Min	-3035
tering	-3036
▁barricade	-3037
▁Lord	-3038
▁bore	-3039
▁vast	-3040
▁famil	-3041
▁storm	-3042
lin	-3043
oup	-3044
rem	-3045
ilar	-3046
▁Made	-3047
▁amid	-3048
▁bare	-3049
▁ring	-3050
levent	-3051
▁fifty	-3052
▁royal	-3053
▁caused	-3054
▁myster	-3055
iny	-3056
onel	-3057
▁ant	-3058
▁cook	-3059
▁press	-3060
▁listen	-3061
▁suffici	-3062
▁6	-3063
THE	-3064
zen	-3065
lovna	-3066
retch	-3067
▁unhapp	-3068
▁creature	-3069
oved	-3070
emark	-3071
▁Anna	-3072
▁capt	-3073
▁miss	-3074
father	-3075
▁indic	-3076
▁recei	-3077
▁moving	-3078
▁display	-3079
▁abb	-3080
▁moon	-3081
▁write	-3082
▁Gregor	-3083
▁beheld	-3084
▁church	-3085
CT	-3086
iff	-3087
ray	-3088
▁ur	-3089
▁tow	-3090
uting	-3091
▁Beau	-3092
ternal	-3093
▁board	-3094
▁decided	-3095
▁learned	-3096
▁education	-3097
atic	-3098
pered	-3099
▁Lond	-3100
▁cloud	-3101
▁faces	-3102
▁affair	-3103
▁honour	-3104
▁places	-3105
▁contain	-3106
▁existence	-3107
?"	-3108
éd	-3109
▁Qu	-3110
▁Lucy	-3111
▁lose	-3112
▁shud	-3113
iction	-3114
▁Fauche	-3115
▁village	-3116
▁trembling	-3117
anqu	-3118
▁avo	-3119
leine	-3120
▁fool	-3121
▁Borís	-3122
▁intro	-3123
▁worse	-3124
▁inquired	-3125
▁Madeleine	-3126
▁advantage	-3127
▁presented	-3128
▁frightened	-3129
▁Fauchelevent	-3130
uls	-3131
burg	-3132
▁aside	-3133
ability	-3134
▁Archive	-3135
▁chamber	-3136
▁Dr	-3137
Good	-3138
aves	-3139
aling	-3140
olved	-3141
▁Literary	-3142
ghed	-3143
▁stop	-3144
▁wrote	-3145
▁ladies	-3146
▁simply	-3147
CE	-3148
▁loc	-3149
ament	-3150
▁didn	-3151
▁Their	-3152
▁fault	-3153
▁clothes	-3154
▁conduct	-3155
▁disg	-3156
▁ming	-3157
ashion	-3158
▁flight	-3159
▁repres	-3160
▁thrown	-3161
Ill	-3162
Who	-3163
▁rock	-3164
▁rode	-3165
▁vent	-3166
▁wise	-3167
▁girls	-3168
▁influ	-3169
▁touch	-3170
▁London	-3171
▁attend	-3172
▁spoken	-3173
▁confess	-3174
▁walking	-3175
▁profound	-3176
while	-3177
▁coff	-3178
▁goes	-3179
▁weep	-3180
▁admir	-3181
▁alive	-3182
▁superi	-3183
▁unable	-3184
▁approached	-3185
bl	-3186
Let	-3187
she	-3188
umn	-3189
aked	-3190
▁rushed	-3191
▁voices	-3192
▁streets	-3193
cure	-3194
▁Mart	-3195
▁dism	-3196
▁magn	-3197
▁begun	-3198
▁obtain	-3199
▁period	-3200
▁However	-3201
▁ordered	-3202
▁servants	-3203
▁Pé	-3204
arsh	-3205
▁parts	-3206
▁gloomy	-3207
▁military	-3208
▁occurred	-3209
▁perceived	-3210
Illustration	-3211
?—	-3212
▁Sun	-3213
▁strugg	-3214
▁opening	-3215
▁passion	-3216
▁uttered	-3217
▁forgotten	-3218
amb	-3219
app	-3220
ieu	-3221
set	-3222
ulf	-3223
▁IN	-3224
▁Bou	-3225
▁sac	-3226
▁sen	-3227
▁Aust	-3228
▁BOOK	-3229
▁aband	-3230
▁likely	-3231
▁unless	-3232
▁windows	-3233
▁condition	-3234
▁awa	-3235
▁inh	-3236
▁Your	-3237
▁bird	-3238
▁ende	-3239
▁phys	-3240
lemachus	-3241
▁writing	-3242
aximilian	-3243
▁distinct	-3244
▁intellig	-3245
ING	-3246
▁fancy	-3247
▁offer	-3248
▁require	-3249
▁occupied	-3250
iles	-3251
▁Jon	-3252
izing	-3253
▁equal	-3254
▁Greece	-3255
▁engaged	-3256
▁opportun	-3257
▁property	-3258
▁philosophy	-3259
▁remembered	-3260
▁sple	-3261
▁Bishop	-3262
▁handsome	-3263
LE	-3264
af	-3265
cle	-3266
lex	-3267
▁crown	-3268
▁suffer	-3269
▁talked	-3270
▁advanced	-3271
tya	-3272
▁Gu	-3273
▁hes	-3274
▁ver	-3275
▁harp	-3276
▁shot	-3277
▁sick	-3278
▁compl	-3279
▁clouds	-3280
▁besides	-3281
▁hurried	-3282
gs	-3283
gin	-3284
▁Re	-3285
hest	-3286
soci	-3287
▁Vas	-3288
▁cho	-3289
▁More	-3290
▁Will	-3291
▁abbé	-3292
▁cheer	-3293
▁grace	-3294
▁swift	-3295
attered	-3296
▁remarked	-3297
▁Go	-3298
▁fla	-3299
▁entr	-3300
▁extra	-3301
▁papers	-3302
▁sacred	-3303
▁mentioned	-3304
▁neg	-3305
▁hall	-3306
▁seek	-3307
▁Peters	-3308
▁memory	-3309
▁explain	-3310
▁impress	-3311
▁considered	-3312
ios	-3313
atsby	-3314
▁sons	-3315
▁empty	-3316
▁enorm	-3317
▁horror	-3318
▁recall	-3319
▁resemb	-3320
▁superior	-3321
Where	-3322
chief	-3323
terday	-3324
▁lines	-3325
▁advance	-3326
▁donations	-3327
▁bod	-3328
▁midst	-3329
▁associ	-3330
▁inquir	-3331
▁wealth	-3332
▁prepared	-3333
▁satisfied	-3334
▁trademark	-3335
ech	-3336
uses	-3337
▁sym	-3338
▁pure	-3339
▁Pétya	-3340
▁counten	-3341
▁circumstances	-3342
ka	-3343
án	-3344
ín	-3345
acy	-3346
rif	-3347
aker	-3348
édès	-3349
▁ris	-3350
▁civil	-3351
▁dying	-3352
▁looks	-3353
▁glanced	-3354
.,	-3355
vi	-3356
con	-3357
olk	-3358
cian	-3359
▁Bes	-3360
▁Com	-3361
▁Tom	-3362
▁fet	-3363
▁jump	-3364
▁speed	-3365
▁warri	-3366
▁preser	-3367
▁thirty	-3368
▁discovered	-3369
——”	-3370
▁deck	-3371
▁mour	-3372
▁ones	-3373
▁chest	-3374
▁devil	-3375
▁takes	-3376
▁splend	-3377
▁affairs	-3378
▁rapidly	-3379
▁wretched	-3380
▁surprised	-3381
▁government	-3382
ex	-3383
pse	-3384
▁[1	-3385
antic	-3386
▁rain	-3387
▁Stubb	-3388
▁gives	-3389
ancholy	-3390
▁Gatsby	-3391
▁parent	-3392
▁charming	-3393
ae	-3394
▁der	-3395
▁gar	-3396
ruction	-3397
▁Father	-3398
▁endeav	-3399
▁mighty	-3400
▁sought	-3401
▁resumed	-3402
▁prisoner	-3403
AL	-3404
jol	-3405
▁fish	-3406
ndered	-3407
▁prove	-3408
▁bitter	-3409
▁higher	-3410
▁reading	-3411
ED	-3412
IL	-3413
no	-3414
nde	-3415
▁XX	-3416
▁pet	-3417
▁tyr	-3418
champ	-3419
▁Come	-3420
▁Vasí	-3421
▁pier	-3422
▁star	-3423
orious	-3424
▁similar	-3425
▁laughing	-3426
▁recollect	-3427
▁Ex	-3428
▁Two	-3429
istol	-3430
▁consequ	-3431
▁Telemachus	-3432
▁et	-3433
▁unf	-3434
▁Only	-3435
▁unex	-3436
▁glory	-3437
▁distant	-3438
▁suitors	-3439
▁acquaint	-3440
▁breakfast	-3441
▁companion	-3442
mer	-3443
unk	-3444
eque	-3445
upid	-3446
equeg	-3447
gress	-3448
▁brow	-3449
▁join	-3450
ormand	-3451
▁shame	-3452
▁height	-3453
▁fashion	-3454
▁obliged	-3455
▁Maximilian	-3456
▁philosopher	-3457
vey	-3458
▁wed	-3459
iform	-3460
▁stir	-3461
▁space	-3462
▁behold	-3463
▁fields	-3464
▁served	-3465
▁waited	-3466
▁clearly	-3467
▁introdu	-3468
▁melancholy	-3469
zz	-3470
▁Gr	-3471
▁coll	-3472
action	-3473
▁innoc	-3474
▁powers	-3475
▁sprang	-3476
▁possession	-3477
gel	-3478
pond	-3479
▁aid	-3480
▁alt	-3481
▁dam	-3482
▁uni	-3483
aming	-3484
▁thro	-3485
jolras	-3486
▁decla	-3487
▁design	-3488
▁laughed	-3489
po	-3490
pir	-3491
▁Cl	-3492
▁Fl	-3493
umph	-3494
▁dom	-3495
▁gain	-3496
▁examp	-3497
▁vague	-3498
▁double	-3499
▁uniform	-3500
▁generally	-3501
▁Petersburg	-3502
!—	-3503
▁Me	-3504
cies	-3505
▁Sil	-3506
▁pati	-3507
▁forms	-3508
▁matters	-3509
▁offered	-3510
▁witness	-3511
▁expressed	-3512
zy	-3513
▁ash	-3514
▁fold	-3515
▁sugg	-3516
▁Louis	-3517
▁crime	-3518
▁shock	-3519
▁uneas	-3520
▁bridge	-3521
▁happen	-3522
▁paused	-3523
▁produced	-3524
▁excellent	-3525
When	-3526
athe	-3527
long	-3528
▁mir	-3529
▁nose	-3530
▁build	-3531
▁freed	-3532
▁knock	-3533
▁repro	-3534
▁mysterious	-3535
▁recognized	-3536
ée	-3537
ran	-3538
ether	-3539
▁roof	-3540
racted	-3541
vering	-3542
▁supper	-3543
▁threat	-3544
▁Enjolras	-3545
▁Mercédès	-3546
▁Sm	-3547
▁id	-3548
▁May	-3549
▁amb	-3550
▁cow	-3551
▁earn	-3552
▁degree	-3553
▁yellow	-3554
▁evident	-3555
▁extreme	-3556
▁flowers	-3557
▁unhappy	-3558
▁Tz	-3559
kind	-3560
this	-3561
▁key	-3562
▁Cour	-3563
▁reve	-3564
▁tong	-3565
▁share	-3566
▁spent	-3567
osition	-3568
▁explan	-3569
rac	-3570
irst	-3571
oped	-3572
▁sor	-3573
▁week	-3574
▁Greeks	-3575
▁moments	-3576
▁enormous	-3577
▁permission	-3578
nce	-3579
ohn	-3580
anted	-3581
▁Even	-3582
▁nine	-3583
eneral	-3584
▁slain	-3585
▁search	-3586
▁whales	-3587
▁Beauchamp	-3588
bre	-3589
▁pi	-3590
crow	-3591
uded	-3592
▁AND	-3593
▁Tzŭ	-3594
▁cit	-3595
▁fill	-3596
▁Never	-3597
▁encoun	-3598
▁pistol	-3599
▁discuss	-3600
▁pressed	-3601
▁addressed	-3602
▁interrupted	-3603
ept	-3604
ulous	-3605
itable	-3606
▁Greek	-3607
▁depth	-3608
▁favor	-3609
▁pride	-3610
▁Vasíli	-3611
▁nearer	-3612
▁burning	-3613
▁meeting	-3614
▁remains	-3615
▁triumph	-3616
▁promised	-3617
▁countenance	-3618
St	-3619
aud	-3620
cil	-3621
str	-3622
onap	-3623
▁Man	-3624
inced	-3625
inous	-3626
▁beast	-3627
▁proof	-3628
▁mortal	-3629
▁curious	-3630
▁someone	-3631
▁everybody	-3632
Here	-3633
▁Car	-3634
▁due	-3635
illen	-3636
▁accom	-3637
▁falling	-3638
▁hearing	-3639
▁immense	-3640
▁information	-3641
OL	-3642
ao	-3643
my	-3644
nat	-3645
ital	-3646
inated	-3647
▁Gillen	-3648
▁Trojan	-3649
▁science	-3650
▁required	-3651
▁singular	-3652
▁listening	-3653
TH	-3654
She	-3655
▁du	-3656
look	-3657
will	-3658
▁mix	-3659
▁sav	-3660
ardon	-3661
▁Alex	-3662
▁fond	-3663
▁saved	-3664
▁thank	-3665
▁contem	-3666
▁narrow	-3667
▁Gillenormand	-3668
▁Z	-3669
▁Ap	-3670
acle	-3671
▁Ger	-3672
▁pop	-3673
▁sin	-3674
▁cell	-3675
▁emer	-3676
▁coach	-3677
▁names	-3678
▁distur	-3679
▁dropped	-3680
▁carefully	-3681
▁yesterday	-3682
▁particularly	-3683
▁adj	-3684
▁march	-3685
▁watched	-3686
▁Queequeg	-3687
ify	-3688
Your	-3689
▁pra	-3690
board	-3691
usted	-3692
▁meth	-3693
▁clean	-3694
▁worthy	-3695
▁ge	-3696
▁aud	-3697
▁John	-3698
▁lord	-3699
▁bowed	-3700
▁grasp	-3701
▁liberty	-3702
▁removed	-3703
All	-3704
rom	-3705
arse	-3706
arest	-3707
▁baron	-3708
▁delic	-3709
▁faint	-3710
▁frequ	-3711
▁comply	-3712
▁inside	-3713
▁settled	-3714
▁station	-3715
▁language	-3716
▁grandfather	-3717
áv	-3718
teau	-3719
▁Jul	-3720
imate	-3721
▁fart	-3722
▁rule	-3723
arecrow	-3724
▁kissed	-3725
▁shadows	-3726
▁forehead	-3727
CH	-3728
bers	-3729
enth	-3730
keep	-3731
▁Lady	-3732
▁asce	-3733
antine	-3734
▁drive	-3735
▁inhab	-3736
▁sorry	-3737
▁finger	-3738
▁lifted	-3739
▁tomorrow	-3740
▁watching	-3741
ww	-3742
—”	-3743
oman	-3744
▁Long	-3745
▁song	-3746
ainted	-3747
▁hurry	-3748
▁believed	-3749
él	-3750
gar	-3751
sar	-3752
enge	-3753
rain	-3754
astic	-3755
▁grown	-3756
▁Though	-3757
▁curios	-3758
▁custom	-3759
▁temper	-3760
▁fingers	-3761
▁possessed	-3762
sy	-3763
▁gh	-3764
ites	-3765
▁Pig	-3766
▁foe	-3767
▁Sper	-3768
▁luck	-3769
▁rejo	-3770
▁forty	-3771
▁misery	-3772
▁stupid	-3773
▁wishes	-3774
▁Scarecrow	-3775
▁miserable	-3776
▁situation	-3777
**	-3778
cean	-3779
▁181	-3780
▁cup	-3781
▁sum	-3782
▁voy	-3783
▁cred	-3784
▁throw	-3785
▁pleasant	-3786
▁supposed	-3787
▁experience	-3788
▁opportunity	-3789
isc	-3790
▁ow	-3791
▁Don	-3792
essor	-3793
▁grass	-3794
▁haste	-3795
▁waves	-3796
▁modern	-3797
▁weight	-3798
oms	-3799
rope	-3800
▁fra	-3801
▁inj	-3802
▁Anat	-3803
▁feat	-3804
▁Still	-3805
▁persu	-3806
▁exactly	-3807
▁growing	-3808
▁fit	-3809
▁fury	-3810
▁roll	-3811
▁brain	-3812
▁judge	-3813
▁License	-3814
▁absence	-3815
▁arrival	-3816
▁previous	-3817
com	-3818
itz	-3819
illy	-3820
reet	-3821
▁ruin	-3822
▁relig	-3823
▁troub	-3824
▁asking	-3825
▁states	-3826
atherine	-3827
▁Anatole	-3828
▁useless	-3829
▁lod	-3830
asing	-3831
▁Coll	-3832
▁huge	-3833
▁loss	-3834
▁preced	-3835
▁unjust	-3836
▁greatly	-3837
▁quietly	-3838
▁Certainly	-3839
áy	-3840
fty	-3841
por	-3842
▁Con	-3843
▁dawn	-3844
▁deli	-3845
▁mess	-3846
▁sand	-3847
▁circle	-3848
▁office	-3849
▁peasant	-3850
▁experienced	-3851
ino	-3852
erva	-3853
oura	-3854
▁Châ	-3855
▁Our	-3856
▁sew	-3857
▁Char	-3858
▁comr	-3859
▁pick	-3860
▁souls	-3861
▁leaves	-3862
▁spirits	-3863
▁unexpected	-3864
.)	-3865
using	-3866
▁wore	-3867
▁method	-3868
▁apparent	-3869
▁curiosity	-3870
1.	-3871
bray	-3872
dess	-3873
itch	-3874
▁uns	-3875
▁grat	-3876
▁Silver	-3877
▁ceased	-3878
▁condem	-3879
▁fierce	-3880
▁century	-3881
▁somewhat	-3882
On	-3883
mp	-3884
alt	-3885
▁Col	-3886
▁Rep	-3887
▁sink	-3888
▁Besides	-3889
▁Minerva	-3890
▁telling	-3891
▁instinct	-3892
▁neighbor	-3893
▁described	-3894
▁including	-3895
▁influence	-3896
arr	-3897
ker	-3898
▁Ad	-3899
cher	-3900
iety	-3901
with	-3902
▁Had	-3903
field	-3904
▁Mina	-3905
▁bull	-3906
▁Somet	-3907
▁books	-3908
▁group	-3909
▁Piglet	-3910
▁engage	-3911
▁heroes	-3912
▁Nothing	-3913
▁example	-3914
▁Catherine	-3915
▁whispered	-3916
ux	-3917
▁XI	-3918
▁hy	-3919
case	-3920
hold	-3921
urse	-3922
▁feared	-3923
▁speech	-3924
▁thrust	-3925
▁accompl	-3926
▁victory	-3927
▁horrible	-3928
▁necessity	-3929
RO	-3930
▁II	-3931
atch	-3932
▁dry	-3933
▁guns	-3934
▁pack	-3935
▁doors	-3936
▁guess	-3937
▁stock	-3938
▁Before	-3939
▁mingled	-3940
▁private	-3941
▁instantly	-3942
arb	-3943
law	-3944
▁Eu	-3945
▁deb	-3946
▁Socr	-3947
▁Very	-3948
▁Wood	-3949
▁sigh	-3950
▁Great	-3951
▁using	-3952
▁concer	-3953
▁mankind	-3954
▁difference	-3955
acc	-3956
ope	-3957
uce	-3958
▁gay	-3959
asons	-3960
ounds	-3961
▁wolf	-3962
▁Having	-3963
▁cannon	-3964
▁special	-3965
▁succeeded	-3966
ids	-3967
irm	-3968
▁dogs	-3969
stairs	-3970
▁Debray	-3971
▁shield	-3972
▁fighting	-3973
▁principle	-3974
▁understanding	-3975
lly	-3976
▁Ab	-3977
▁born	-3978
▁shown	-3979
ustomed	-3980
▁agreed	-3981
▁becomes	-3982
▁crossed	-3983
▁freedom	-3984
▁familiar	-3985
UT	-3986
oop	-3987
▁TO	-3988
▁Can	-3989
ables	-3990
▁amaz	-3991
▁impro	-3992
▁anxious	-3993
▁provide	-3994
▁suffering	-3995
▁explanation	-3996
ENT	-3997
ams	-3998
ule	-3999
clus	-4000
▁lar	-4001
▁mot	-4002
▁fail	-4003
▁citiz	-4004
▁slept	-4005
▁hollow	-4006
▁priest	-4007
▁farther	-4008
▁keeping	-4009
▁monster	-4010
▁entering	-4011
▁extraord	-4012
▁intended	-4013
01	-4014
▁batt	-4015
▁lamp	-4016
▁birds	-4017
▁reign	-4018
▁twice	-4019
▁arrest	-4020
▁putting	-4021
▁convinced	-4022
▁Thr	-4023
▁rad	-4024
olkón	-4025
▁West	-4026
▁tomb	-4027
▁birth	-4028
▁boats	-4029
▁flies	-4030
▁hopes	-4031
▁stars	-4032
▁favour	-4033
▁tranqu	-4034
▁lighted	-4035
▁monarch	-4036
▁descended	-4037
▁completely	-4038
▁motionless	-4039
RI	-4040
rees	-4041
▁fatal	-4042
▁indif	-4043
▁advice	-4044
▁assemb	-4045
▁calcul	-4046
▁impati	-4047
▁pieces	-4048
▁pulled	-4049
▁suspic	-4050
▁convent	-4051
▁excited	-4052
▁process	-4053
▁concealed	-4054
▁prisoners	-4055
▁8	-4056
OME	-4057
ias	-4058
ivity	-4059
ernand	-4060
▁adjut	-4061
▁brill	-4062
▁cloak	-4063
▁ranks	-4064
▁clever	-4065
▁reality	-4066
▁communic	-4067
▁discover	-4068
▁suffered	-4069
▁determined	-4070
▁considerable	-4071
▁Rob	-4072
▁Prof	-4073
ickham	-4074
▁chari	-4075
▁estab	-4076
▁hence	-4077
▁liked	-4078
▁German	-4079
▁combat	-4080
▁Fantine	-4081
▁counsel	-4082
▁mistake	-4083
▁protect	-4084
▁entrance	-4085
▁mistaken	-4086
----------------	-4087
9.	-4088
Al	-4089
▁Pat	-4090
▁tax	-4091
there	-4092
▁rare	-4093
arbuck	-4094
▁aware	-4095
▁minds	-4096
▁rooms	-4097
▁honest	-4098
▁marked	-4099
▁wicked	-4100
▁escaped	-4101
gutenberg	-4102
▁directed	-4103
▁concerning	-4104
Go	-4105
UR	-4106
port	-4107
isher	-4108
ospit	-4109
rehen	-4110
▁task	-4111
▁ideal	-4112
▁advent	-4113
▁hearts	-4114
▁surrounded	-4115
mon	-4116
▁LI	-4117
rors	-4118
▁scr	-4119
ailed	-4120
▁shoes	-4121
▁taste	-4122
▁withd	-4123
▁yours	-4124
▁madame	-4125
▁pushed	-4126
▁Château	-4127
▁Are	-4128
▁sty	-4129
cknow	-4130
▁cous	-4131
▁mast	-4132
fortune	-4133
▁reader	-4134
▁regret	-4135
▁finally	-4136
▁violent	-4137
▁Socrates	-4138
▁directly	-4139
▁explained	-4140
▁wonderful	-4141
▁extraordinary	-4142
azz	-4143
yrac	-4144
▁III	-4145
▁rob	-4146
▁hate	-4147
▁pron	-4148
▁anger	-4149
▁lofty	-4150
▁match	-4151
▁spear	-4152
▁choose	-4153
▁stands	-4154
cription	-4155
▁Collins	-4156
▁Wickham	-4157
▁assured	-4158
▁goddess	-4159
▁highest	-4160
▁regular	-4161
▁progress	-4162
As	-4163
▁Ge	-4164
house	-4165
▁gest	-4166
▁admit	-4167
▁acknow	-4168
▁scream	-4169
▁murmured	-4170
▁absolutely	-4171
dia	-4172
anti	-4173
▁lot	-4174
ounce	-4175
▁Good	-4176
▁ways	-4177
▁feast	-4178
▁interp	-4179
▁prefer	-4180
▁winter	-4181
▁hastily	-4182
▁singing	-4183
▁Professor	-4184
Are	-4185
can	-4186
olt	-4187
rap	-4188
ère	-4189
coat	-4190
▁dull	-4191
▁ease	-4192
▁myst	-4193
▁symp	-4194
utions	-4195
▁delay	-4196
▁staff	-4197
▁points	-4198
▁sounds	-4199
▁General	-4200
▁parents	-4201
▁unfortun	-4202
▁approaching	-4203
AD	-4204
noon	-4205
ture	-4206
▁Lion	-4207
▁sire	-4208
▁miles	-4209
▁stair	-4210
▁flying	-4211
▁interv	-4212
▁Starbuck	-4213
▁departure	-4214
▁accustomed	-4215
▁7	-4216
▁rum	-4217
▁tum	-4218
dered	-4219
▁hole	-4220
▁pair	-4221
▁claim	-4222
▁truly	-4223
▁proved	-4224
▁tongue	-4225
olkónski	-4226
▁England	-4227
▁arrange	-4228
▁splendid	-4229
▁confidence	-4230
eys	-4231
▁invol	-4232
▁Europe	-4233
▁infant	-4234
▁precise	-4235
▁destroyed	-4236
dig	-4237
face	-4238
▁Was	-4239
aches	-4240
▁appo	-4241
▁aunt	-4242
▁diss	-4243
▁gaze	-4244
▁Bonap	-4245
▁venge	-4246
▁attent	-4247
▁famous	-4248
▁hither	-4249
▁Fernand	-4250
▁conceal	-4251
▁emotion	-4252
▁sleeping	-4253
▁authority	-4254
▁everywhere	-4255
fl	-4256
ki	-4257
For	-4258
cio	-4259
oul	-4260
rand	-4261
venge	-4262
▁dish	-4263
iments	-4264
▁groan	-4265
▁today	-4266
▁turns	-4267
▁sovere	-4268
▁square	-4269
▁throat	-4270
▁whence	-4271
▁wedding	-4272
▁arranged	-4273
▁mountain	-4274
▁rendered	-4275
▁neighbour	-4276
▁misfortune	-4277
agg	-4278
het	-4279
leg	-4280
▁IV	-4281
aisy	-4282
estor	-4283
▁pros	-4284
▁whir	-4285
rified	-4286
▁rough	-4287
justice	-4288
▁defect	-4289
▁school	-4290
▁summer	-4291
▁profess	-4292
▁addition	-4293
▁laughter	-4294
▁conscience	-4295
orge	-4296
▁Páv	-4297
▁Tur	-4298
ucket	-4299
which	-4300
▁carp	-4301
▁rear	-4302
▁blame	-4303
▁fever	-4304
▁raise	-4305
▁desper	-4306
▁forces	-4307
▁earnest	-4308
▁Jonathan	-4309
▁regarded	-4310
▁associated	-4311
AP	-4312
agr	-4313
Have	-4314
▁sees	-4315
▁shirt	-4316
▁hospit	-4317
▁picked	-4318
▁rolled	-4319
▁voyage	-4320
▁stepped	-4321
▁accepted	-4322
▁carrying	-4323
chen	-4324
uish	-4325
▁gle	-4326
▁vig	-4327
feyrac	-4328
▁dwell	-4329
▁fully	-4330
▁smell	-4331
▁genius	-4332
▁afternoon	-4333
▁accompanied	-4334
hem	-4335
▁Fe	-4336
▁Ty	-4337
olly	-4338
rase	-4339
gment	-4340
▁chim	-4341
▁ener	-4342
▁fled	-4343
lessly	-4344
urally	-4345
▁avoid	-4346
▁calls	-4347
▁queen	-4348
▁wisdom	-4349
▁Woodman	-4350
▁project	-4351
▁demanded	-4352
▁deserted	-4353
▁infinite	-4354
▁otherwise	-4355
▁acquaintance	-4356
3.	-4357
▁Sw	-4358
▁“_	-4359
arte	-4360
ords	-4361
▁Thy	-4362
▁bul	-4363
▁elb	-4364
▁ess	-4365
stand	-4366
▁Like	-4367
▁vari	-4368
▁worn	-4369
▁elder	-4370
▁shade	-4371
▁tired	-4372
athered	-4373
▁credit	-4374
▁invent	-4375
▁efforts	-4376
▁confused	-4377
▁Courfeyrac	-4378
esh	-4379
reg	-4380
▁Ant	-4381
▁Did	-4382
▁exha	-4383
▁grad	-4384
▁Those	-4385
▁penet	-4386
▁whist	-4387
ational	-4388
▁deeply	-4389
▁request	-4390
▁contempl	-4391
▁entertain	-4392
▁recognize	-4393
▁relations	-4394
Ex	-4395
asc	-4396
att	-4397
aws	-4398
▁Aj	-4399
iece	-4400
line	-4401
road	-4402
eding	-4403
▁Hark	-4404
▁heat	-4405
▁medi	-4406
▁mult	-4407
▁catch	-4408
▁skies	-4409
▁wheel	-4410
lection	-4411
▁amount	-4412
▁pardon	-4413
▁undert	-4414
▁waters	-4415
▁constit	-4416
▁content	-4417
▁possibly	-4418
▁resolved	-4419
▁shouting	-4420
▁sufficient	-4421
▁continually	-4422
At	-4423
ault	-4424
quod	-4425
rehe	-4426
avalc	-4427
▁Each	-4428
▁exch	-4429
▁rate	-4430
▁cover	-4431
▁lance	-4432
▁named	-4433
▁ocean	-4434
▁lovely	-4435
▁refund	-4436
▁fifteen	-4437
▁shining	-4438
▁official	-4439
▁intention	-4440
02	-4441
US	-4442
,--	-4443
._--	-4444
rows	-4445
▁Pol	-4446
▁www	-4447
ators	-4448
▁glit	-4449
▁shed	-4450
▁frown	-4451
▁Pequod	-4452
▁copies	-4453
▁gazing	-4454
▁handed	-4455
▁hidden	-4456
▁social	-4457
▁useful	-4458
▁actions	-4459
▁travell	-4460
▁gathered	-4461
▁peasants	-4462
▁signific	-4463
hus	-4464
raw	-4465
unch	-4466
chant	-4467
▁dign	-4468
▁wand	-4469
▁Daisy	-4470
▁Lydia	-4471
▁spark	-4472
▁upper	-4473
▁wings	-4474
▁Russia	-4475
▁univers	-4476
▁whisper	-4477
ky	-4478
▁je	-4479
thur	-4480
▁clim	-4481
▁pill	-4482
alities	-4483
▁column	-4484
▁freely	-4485
▁Grecian	-4486
▁somewhere	-4487
▁i	-4488
ait	-4489
ène	-4490
▁[_	-4491
rose	-4492
▁ere	-4493
▁iss	-4494
▁rub	-4495
ading	-4496
ndeed	-4497
▁True	-4498
▁nice	-4499
▁weap	-4500
▁facts	-4501
▁horiz	-4502
▁shape	-4503
▁cheeks	-4504
▁strang	-4505
▁victim	-4506
▁equally	-4507
▁leaning	-4508
▁prepare	-4509
▁weather	-4510
avalcanti	-4511
▁treasure	-4512
▁om	-4513
they	-4514
ottle	-4515
▁Have	-4516
▁insp	-4517
▁wond	-4518
▁major	-4519
▁stick	-4520
▁subst	-4521
▁coffin	-4522
▁severe	-4523
▁finding	-4524
▁warrior	-4525
▁generous	-4526
▁ordinary	-4527
▁touching	-4528
▁Bolkónski	-4529
▁dangerous	-4530
▁injustice	-4531
ode	-4532
ris	-4533
fice	-4534
▁Ali	-4535
▁Ber	-4536
▁ben	-4537
▁sway	-4538
▁aloud	-4539
▁dance	-4540
▁guests	-4541
▁resist	-4542
▁retired	-4543
▁millions	-4544
▁Alexander	-4545
▁lightning	-4546
▁returning	-4547
▁Cavalcanti	-4548
Very	-4549
▁bal	-4550
▁lit	-4551
▁bill	-4552
▁oper	-4553
▁tear	-4554
ensive	-4555
ondret	-4556
ulated	-4557
▁First	-4558
▁cabin	-4559
▁cries	-4560
▁straw	-4561
▁Heaven	-4562
▁fortun	-4563
▁numbers	-4564
▁magnific	-4565
▁provided	-4566
▁stronger	-4567
▁astonishment	-4568
▁mal	-4569
ugust	-4570
▁crim	-4571
▁game	-4572
▁lest	-4573
▁wear	-4574
isions	-4575
▁benef	-4576
▁dared	-4577
▁flame	-4578
▁ghost	-4579
▁wants	-4580
▁assure	-4581
▁poison	-4582
▁stairs	-4583
▁Jondret	-4584
▁entreat	-4585
▁immortal	-4586
▁original	-4587
▁sacrifice	-4588
5.	-4589
Be	-4590
herd	-4591
omme	-4592
uing	-4593
▁ren	-4594
ature	-4595
ighed	-4596
▁Coss	-4597
▁date	-4598
▁Again	-4599
▁mourn	-4600
tending	-4601
▁played	-4602
▁secure	-4603
▁thirst	-4604
▁bearing	-4605
▁nations	-4606
2.	-4607
ann	-4608
igs	-4609
omy	-4610
orse	-4611
oses	-4612
▁Gla	-4613
▁New	-4614
asted	-4615
orted	-4616
rated	-4617
▁Bert	-4618
▁drop	-4619
▁gray	-4620
▁knife	-4621
▁Arthur	-4622
▁buried	-4623
▁centre	-4624
▁cousin	-4625
▁tumult	-4626
▁wholly	-4627
Monsieur	-4628
▁Cossack	-4629
▁inspect	-4630
▁leading	-4631
▁attached	-4632
▁personal	-4633
▁intellect	-4634
OMEO	-4635
▁ens	-4636
▁ing	-4637
élène	-4638
▁Once	-4639
roclus	-4640
▁ROMEO	-4641
▁gently	-4642
▁savage	-4643
▁calling	-4644
▁desired	-4645
▁argument	-4646
▁pointing	-4647
).	-4648
hand	-4649
ilty	-4650
then	-4651
▁bor	-4652
▁Ajax	-4653
▁rope	-4654
▁check	-4655
▁pause	-4656
▁prize	-4657
▁sheep	-4658
▁animal	-4659
▁phrase	-4660
▁refuse	-4661
▁transl	-4662
▁Perhaps	-4663
▁kindness	-4664
▁muttered	-4665
▁brilliant	-4666
▁sovereign	-4667
▁importance	-4668
."]	-4669
gan	-4670
iam	-4671
work	-4672
▁Rab	-4673
▁vic	-4674
▁During	-4675
▁aspect	-4676
▁castle	-4677
▁disapp	-4678
▁driven	-4679
▁eating	-4680
▁joined	-4681
▁origin	-4682
▁stones	-4683
▁surely	-4684
▁creatures	-4685
▁interesting	-4686
ett	-4687
eur	-4688
ips	-4689
tis	-4690
aign	-4691
▁tea	-4692
▁wel	-4693
opher	-4694
orous	-4695
uccio	-4696
▁edge	-4697
▁helm	-4698
uments	-4699
▁boots	-4700
▁exceed	-4701
▁native	-4702
▁correct	-4703
▁inhabit	-4704
▁sympath	-4705
▁delighted	-4706
▁increased	-4707
▁destruction	-4708
Wh	-4709
ít	-4710
omed	-4711
▁bos	-4712
▁card	-4713
▁diam	-4714
▁fulf	-4715
▁Robin	-4716
▁lover	-4717
▁style	-4718
▁toler	-4719
▁Hélène	-4720
▁remind	-4721
▁picture	-4722
▁playing	-4723
▁working	-4724
▁adjutant	-4725
▁powerful	-4726
▁Patroclus	-4727
▁concerned	-4728
▁acquainted	-4729
▁distributing	-4730
sey	-4731
▁Oz	-4732
eral	-4733
▁crit	-4734
▁lack	-4735
▁subm	-4736
anches	-4737
keeper	-4738
umbled	-4739
▁flood	-4740
▁weeks	-4741
ogether	-4742
▁gained	-4743
▁kindly	-4744
aughters	-4745
▁Martians	-4746
▁extended	-4747
▁committed	-4748
▁represent	-4749
6.	-4750
▁9	-4751
ival	-4752
udden	-4753
▁obst	-4754
▁built	-4755
▁Section	-4756
▁Bertuccio	-4757
▁contained	-4758
▁stretched	-4759
▁imagination	-4760
thy	-4761
▁VI	-4762
rily	-4763
▁Bal	-4764
iture	-4765
▁Pont	-4766
▁fame	-4767
▁grey	-4768
▁reck	-4769
▁rust	-4770
▁yard	-4771
▁timid	-4772
▁enthus	-4773
▁needed	-4774
▁prayer	-4775
▁wretch	-4776
▁Rostóvs	-4777
▁enemies	-4778
▁heavens	-4779
▁located	-4780
▁proport	-4781
▁raising	-4782
▁sisters	-4783
▁Republic	-4784
▁Jondrette	-4785
uf	-4786
Don	-4787
apt	-4788
min	-4789
was	-4790
▁Po	-4791
osen	-4792
rict	-4793
▁kit	-4794
▁wid	-4795
....”	-4796
▁bree	-4797
▁hurt	-4798
▁swim	-4799
▁Glauc	-4800
▁falls	-4801
▁grate	-4802
▁harpo	-4803
▁kings	-4804
▁purch	-4805
▁swell	-4806
respond	-4807
▁depths	-4808
▁fourth	-4809
▁ignorant	-4810
▁minister	-4811
▁daughters	-4812
4.	-4813
AM	-4814
De	-4815
rov	-4816
zed	-4817
cent	-4818
lope	-4819
▁saf	-4820
oting	-4821
oused	-4822
illery	-4823
▁arose	-4824
▁bride	-4825
▁fetch	-4826
▁Harker	-4827
▁dreams	-4828
▁jumped	-4829
▁strike	-4830
▁thanks	-4831
▁anxiety	-4832
▁colonel	-4833
▁descend	-4834
▁mounted	-4835
▁becoming	-4836
▁citizens	-4837
▁distress	-4838
▁dressing	-4839
▁confusion	-4840
▁impression	-4841
ium	-4842
ral	-4843
▁ax	-4844
book	-4845
rier	-4846
▁Maj	-4847
▁shr	-4848
gging	-4849
itive	-4850
▁plun	-4851
▁rush	-4852
▁cruel	-4853
▁exerc	-4854
▁waist	-4855
▁Mother	-4856
▁guilty	-4857
▁medium	-4858
▁seeking	-4859
▁employed	-4860
▁relation	-4861
▁remaining	-4862
▁companions	-4863
7.	-4864
._]	-4865
bid	-4866
▁RE	-4867
acity	-4868
acles	-4869
atión	-4870
owder	-4871
▁Bagr	-4872
▁Hill	-4873
▁cler	-4874
▁decl	-4875
▁Water	-4876
▁level	-4877
▁owner	-4878
▁uncle	-4879
▁wrath	-4880
▁Rabbit	-4881
▁candle	-4882
▁kitchen	-4883
▁branches	-4884
▁Bagratión	-4885
▁correspond	-4886
fs	-4887
who	-4888
ourge	-4889
place	-4890
vious	-4891
▁cott	-4892
lished	-4893
▁absor	-4894
▁cases	-4895
▁flesh	-4896
▁merry	-4897
▁moral	-4898
▁paces	-4899
▁skill	-4900
▁observ	-4901
▁render	-4902
eanwhile	-4903
▁Through	-4904
▁surface	-4905
▁accident	-4906
▁campaign	-4907
▁cheerful	-4908
▁whenever	-4909
▁permitted	-4910
▁staircase	-4911
;—	-4912
gu	-4913
Sir	-4914
lev	-4915
mble	-4916
▁Alp	-4917
▁ban	-4918
▁bla	-4919
▁arch	-4920
▁lock	-4921
▁pant	-4922
▁sour	-4923
▁Romeo	-4924
▁caval	-4925
▁coast	-4926
▁erect	-4927
▁ident	-4928
▁serve	-4929
▁sewer	-4930
▁worst	-4931
onsense	-4932
▁Street	-4933
▁applic	-4934
▁bottle	-4935
▁couple	-4936
▁eBooks	-4937
▁proble	-4938
▁sevent	-4939
onscious	-4940
▁eternal	-4941
▁hanging	-4942
▁features	-4943
▁innocent	-4944
▁frightful	-4945
▁Christopher	-4946
key	-4947
▁[2	-4948
▁Next	-4949
▁arts	-4950
▁thor	-4951
▁toss	-4952
▁bosom	-4953
▁frame	-4954
▁plans	-4955
▁sorts	-4956
▁swall	-4957
uddenly	-4958
▁sailor	-4959
▁compass	-4960
▁measure	-4961
▁gradually	-4962
▁mountains	-4963
▁political	-4964
▁vengeance	-4965
new	-4966
upp	-4967
▁Il	-4968
aria	-4969
quis	-4970
▁bid	-4971
▁pin	-4972
oping	-4973
▁busy	-4974
▁excl	-4975
▁heap	-4976
acious	-4977
▁Hence	-4978
▁Shall	-4979
▁bones	-4980
▁gates	-4981
▁afford	-4982
▁steeds	-4983
▁assumed	-4984
▁sailors	-4985
▁Pávlovna	-4986
▁conception	-4987
oli	-4988
▁TH	-4989
▁Yu	-4990
▁Pen	-4991
▁rib	-4992
▁glim	-4993
ashing	-4994
idable	-4995
▁value	-4996
▁George	-4997
▁chosen	-4998
▁fisher	-4999
▁gather	-5000
▁desires	-5001
▁hideous	-5002
▁pursued	-5003
▁Moreover	-5004
▁examined	-5005
▁naturally	-5006
▁revolution	-5007
▁unfortunate	-5008
aul	-5009
▁ta	-5010
unte	-5011
▁ate	-5012
▁log	-5013
▁oil	-5014
▁unp	-5015
▁Eury	-5016
▁beings	-5017
▁convey	-5018
▁wooden	-5019
▁capable	-5020
▁capital	-5021
▁details	-5022
▁eagerly	-5023
▁manners	-5024
▁painful	-5025
▁princip	-5026
▁produce	-5027
▁reasons	-5028
▁composed	-5029
▁mistress	-5030
▁Nevertheless	-5031
▁distinguished	-5032
IG	-5033
▁BE	-5034
▁OR	-5035
whel	-5036
▁cru	-5037
▁lan	-5038
▁sup	-5039
bourg	-5040
▁seas	-5041
▁wake	-5042
▁wept	-5043
▁Julie	-5044
▁indul	-5045
▁mater	-5046
▁batter	-5047
▁animals	-5048
▁convict	-5049
▁procure	-5050
▁shudder	-5051
▁Russians	-5052
▁thorough	-5053
▁protected	-5054
▁distribution	-5055
AS	-5056
AT	-5057
een	-5058
uzz	-5059
▁Wu	-5060
aced	-5061
iner	-5062
▁Ind	-5063
▁YOU	-5064
lease	-5065
urity	-5066
▁holy	-5067
▁link	-5068
▁wing	-5069
▁cours	-5070
▁fears	-5071
▁existed	-5072
▁actually	-5073
▁brothers	-5074
▁maintain	-5075
▁Meanwhile	-5076
▁astonished	-5077
dy	-5078
ese	-5079
ette	-5080
geon	-5081
itle	-5082
inder	-5083
isten	-5084
▁Ital	-5085
▁inex	-5086
▁mate	-5087
▁torn	-5088
ouring	-5089
pended	-5090
▁overt	-5091
▁spare	-5092
▁excuse	-5093
▁flames	-5094
kerchief	-5095
▁admitted	-5096
▁belonged	-5097
▁informed	-5098
▁physical	-5099
▁apartment	-5100
▁altogether	-5101
▁intelligence	-5102
▁satisfaction	-5103
Av	-5104
One	-5105
arks	-5106
▁bew	-5107
▁bou	-5108
estic	-5109
▁rank	-5110
▁shru	-5111
▁tale	-5112
▁drunk	-5113
▁infer	-5114
▁ridic	-5115
▁tempt	-5116
▁murder	-5117
▁observe	-5118
▁activity	-5119
▁involunt	-5120
▁trembled	-5121
▁artillery	-5122
▁friendship	-5123
▁reflection	-5124
AG	-5125
hip	-5126
tel	-5127
áty	-5128
▁NO	-5129
iest	-5130
ores	-5131
uced	-5132
▁mud	-5133
▁Tell	-5134
▁beha	-5135
▁lear	-5136
pelled	-5137
▁loose	-5138
▁reser	-5139
▁squad	-5140
▁contro	-5141
▁crying	-5142
▁flower	-5143
▁porter	-5144
▁safety	-5145
▁furious	-5146
▁quitted	-5147
ification	-5148
▁sentence	-5149
▁slightly	-5150
▁Sometimes	-5151
▁pleasures	-5152
Ch	-5153
▁Ro	-5154
ares	-5155
enes	-5156
▁Mag	-5157
▁pan	-5158
▁flat	-5159
▁pave	-5160
▁pipe	-5161
▁sank	-5162
▁skin	-5163
arrass	-5164
▁mercy	-5165
ulation	-5166
▁palace	-5167
▁paying	-5168
▁driving	-5169
▁gesture	-5170
▁contempt	-5171
▁instance	-5172
▁silently	-5173
▁struggle	-5174
▁abandoned	-5175
▁proceeded	-5176
!"	-5177
!_	-5178
ih	-5179
Bec	-5180
With	-5181
rien	-5182
▁qui	-5183
acher	-5184
iance	-5185
ishes	-5186
▁Thou	-5187
▁inev	-5188
ivered	-5189
▁weary	-5190
▁corpse	-5191
▁leaned	-5192
▁poetry	-5193
▁follows	-5194
▁refused	-5195
▁revenge	-5196
▁thither	-5197
▁Suddenly	-5198
▁declared	-5199
▁presents	-5200
▁connected	-5201
Ren	-5202
nal	-5203
pap	-5204
▁Mi	-5205
▁oh	-5206
▁Red	-5207
▁fer	-5208
▁hal	-5209
alous	-5210
igned	-5211
rived	-5212
umber	-5213
▁High	-5214
▁hell	-5215
▁nurse	-5216
▁rever	-5217
Because	-5218
▁thinks	-5219
▁figures	-5220
▁slaught	-5221
▁Countess	-5222
▁connection	-5223
▁principles	-5224
▁handkerchief	-5225
VE	-5226
Pro	-5227
amma	-5228
aunt	-5229
▁wet	-5230
iable	-5231
ology	-5232
▁mort	-5233
Renaud	-5234
▁Queen	-5235
▁ended	-5236
▁steel	-5237
ization	-5238
▁Austri	-5239
▁anywhere	-5240
▁comprehe	-5241
▁humanity	-5242
▁reproach	-5243
▁condemned	-5244
▁receiving	-5245
▁resolution	-5246
▁possibility	-5247
.’”	-5248
Mad	-5249
len	-5250
▁ty	-5251
kins	-5252
seen	-5253
zing	-5254
aries	-5255
▁Gard	-5256
▁Phil	-5257
▁lion	-5258
▁poem	-5259
licity	-5260
unning	-5261
▁Sperm	-5262
▁hills	-5263
▁abrupt	-5264
▁bodies	-5265
▁estate	-5266
▁plainly	-5267
▁Frenchman	-5268
▁agreeable	-5269
▁embarrass	-5270
▁assistance	-5271
▁nevertheless	-5272
8.	-5273
By	-5274
gl	-5275
▁Æ	-5276
isp	-5277
TION	-5278
ilst	-5279
▁pace	-5280
▁term	-5281
▁flung	-5282
▁illum	-5283
▁sport	-5284
▁assass	-5285
▁attrib	-5286
▁consid	-5287
▁Another	-5288
▁created	-5289
▁rolling	-5290
▁instruct	-5291
▁overwhel	-5292
▁doubtless	-5293
▁exception	-5294
▁execution	-5295
aeus	-5296
umes	-5297
agger	-5298
asket	-5299
ician	-5300
itate	-5301
átych	-5302
▁Pres	-5303
▁musk	-5304
asures	-5305
▁awful	-5306
▁block	-5307
▁hoped	-5308
▁Nestor	-5309
▁active	-5310
▁stared	-5311
▁ashamed	-5312
▁cavalry	-5313
▁chimney	-5314
▁diamond	-5315
▁foreign	-5316
▁vanished	-5317
▁interests	-5318
▁reflected	-5319
▁frequently	-5320
Of	-5321
bus	-5322
▁(_	-5323
ugén	-5324
▁PRO	-5325
▁shel	-5326
inging	-5327
ugénie	-5328
▁Italy	-5329
▁Penel	-5330
▁fleet	-5331
umbling	-5332
▁coward	-5333
▁extent	-5334
▁repeat	-5335
▁wheels	-5336
▁anguish	-5337
▁treated	-5338
▁bringing	-5339
▁coachman	-5340
▁generals	-5341
▁material	-5342
▁precious	-5343
wl	-5344
elt	-5345
eps	-5346
hic	-5347
mít	-5348
rief	-5349
▁Sim	-5350
▁jew	-5351
▁dazz	-5352
▁east	-5353
▁pall	-5354
▁vers	-5355
▁rocks	-5356
▁armies	-5357
▁arrive	-5358
▁betray	-5359
▁disord	-5360
▁redoub	-5361
▁blessed	-5362
▁glancing	-5363
▁addressing	-5364
▁apparently	-5365
fa	-5366
ayd	-5367
▁AN	-5368
ints	-5369
▁dil	-5370
▁lin	-5371
▁pot	-5372
▁woe	-5373
▁Look	-5374
▁sole	-5375
▁badly	-5376
▁cease	-5377
▁solid	-5378
▁firing	-5379
▁setting	-5380
▁weeping	-5381
▁younger	-5382
▁Alpátych	-5383
▁breathing	-5384
▁separated	-5385
▁remarkable	-5386
▁unconscious	-5387
Sh	-5388
ëv	-5389
hib	-5390
ieve	-5391
kháy	-5392
lebr	-5393
raced	-5394
▁nerv	-5395
▁tent	-5396
▁arise	-5397
▁signs	-5398
▁woods	-5399
▁Mikháy	-5400
▁hunger	-5401
▁manage	-5402
▁happens	-5403
▁willing	-5404
formation	-5405
▁striking	-5406
▁desperate	-5407
▁presently	-5408
loo	-5409
▁Tu	-5410
fall	-5411
well	-5412
▁Sir	-5413
▁bab	-5414
▁reb	-5415
aydée	-5416
▁elev	-5417
▁hamm	-5418
▁final	-5419
▁guide	-5420
▁waste	-5421
utation	-5422
▁belief	-5423
▁depend	-5424
▁strain	-5425
▁thread	-5426
▁uneasy	-5427
▁vision	-5428
▁curtain	-5429
▁lantern	-5430
▁wearing	-5431
▁attitude	-5432
▁breaking	-5433
▁commands	-5434
▁faithful	-5435
▁meantime	-5436
▁midnight	-5437
▁movements	-5438
▁Everything	-5439
▁conditions	-5440
0.	-5441
kin	-5442
▁Di	-5443
▁ec	-5444
arly	-5445
ibly	-5446
lier	-5447
omen	-5448
otte	-5449
▁...	-5450
▁Sat	-5451
▁nin	-5452
ental	-5453
loved	-5454
▁Mars	-5455
▁mood	-5456
▁shop	-5457
rienne	-5458
▁limbs	-5459
▁south	-5460
▁celebr	-5461
▁choice	-5462
▁colour	-5463
▁excess	-5464
▁Glaucon	-5465
▁Trojans	-5466
▁Bonaparte	-5467
▁exhausted	-5468
▁ignorance	-5469
▁previously	-5470
ads	-5471
rat	-5472
vol	-5473
chan	-5474
▁pil	-5475
alled	-5476
icing	-5477
▁June	-5478
▁deed	-5479
▁farm	-5480
▁meat	-5481
▁test	-5482
▁Marse	-5483
▁drank	-5484
▁flank	-5485
▁wrink	-5486
▁yards	-5487
itement	-5488
▁chiefs	-5489
▁rulers	-5490
▁stayed	-5491
▁Eugénie	-5492
▁Italian	-5493
▁chariot	-5494
▁baroness	-5495
▁building	-5496
▁continue	-5497
▁daylight	-5498
▁division	-5499
▁Mikháylovna	-5500
RAN	-5501
bye	-5502
his	-5503
rous	-5504
▁Pri	-5505
▁dig	-5506
▁ice	-5507
▁irr	-5508
▁shi	-5509
▁vex	-5510
▁Dmít	-5511
▁cord	-5512
▁mart	-5513
▁nodd	-5514
▁offe	-5515
▁prey	-5516
isible	-5517
▁eaten	-5518
▁feels	-5519
▁north	-5520
▁stuff	-5521
looking	-5522
▁purple	-5523
▁tyrant	-5524
▁worked	-5525
▁careful	-5526
▁horizon	-5527
▁managed	-5528
▁objects	-5529
▁formerly	-5530
▁harpoone	-5531
▁perceive	-5532
▁violence	-5533
▁Bourienne	-5534
▁qualities	-5535
▁conclusion	-5536
▁formidable	-5537
▁distinguish	-5538
▁inhabitants	-5539
▁magnificent	-5540
Mé	-5541
Did	-5542
dys	-5543
son	-5544
Look	-5545
icip	-5546
stem	-5547
▁aut	-5548
▁hol	-5549
▁shep	-5550
▁writ	-5551
▁angel	-5552
▁clock	-5553
▁crack	-5554
▁revol	-5555
▁bourge	-5556
▁failed	-5557
▁nation	-5558
▁praise	-5559
▁throne	-5560
▁council	-5561
▁fellows	-5562
▁mystery	-5563
▁usually	-5564
▁affected	-5565
▁upstairs	-5566
▁furniture	-5567
▁traveller	-5568
▁conviction	-5569
▁historians	-5570
3,	-5571
Re	-5572
ns	-5573
ache	-5574
opch	-5575
▁Cat	-5576
▁Des	-5577
▁Rev	-5578
▁Roy	-5579
▁Sep	-5580
▁wra	-5581
cians	-5582
oring	-5583
osure	-5584
▁Hans	-5585
▁keen	-5586
▁mach	-5587
▁text	-5588
▁wave	-5589
▁fires	-5590
▁renew	-5591
▁solic	-5592
▁stiff	-5593
▁swear	-5594
▁uncom	-5595
▁August	-5596
▁exists	-5597
▁footst	-5598
▁nodded	-5599
▁closely	-5600
▁consent	-5601
▁contrad	-5602
▁remarks	-5603
▁comrades	-5604
▁constant	-5605
▁excitement	-5606
▁proportion	-5607
▁&	-5608
▁]	-5609
ECT	-5610
cast	-5611
gent	-5612
omin	-5613
udes	-5614
▁Abb	-5615
▁VII	-5616
▁ard	-5617
▁gif	-5618
▁liv	-5619
onder	-5620
ulate	-5621
▁Mich	-5622
▁anch	-5623
▁knee	-5624
▁quit	-5625
▁veil	-5626
▁agony	-5627
▁avail	-5628
▁beard	-5629
▁manif	-5630
▁refer	-5631
▁shone	-5632
▁slave	-5633
▁branch	-5634
▁prepar	-5635
▁sooner	-5636
▁wounds	-5637
▁alarmed	-5638
▁dancing	-5639
▁devoted	-5640
▁dragged	-5641
▁forever	-5642
▁related	-5643
▁Rostopch	-5644
▁Waterloo	-5645
▁attacked	-5646
▁included	-5647
▁reaching	-5648
▁announced	-5649
▁consequence	-5650
yn	-5651
off	-5652
íts	-5653
▁Mo	-5654
eric	-5655
▁Vir	-5656
▁spl	-5657
ember	-5658
▁toil	-5659
▁bench	-5660
▁blows	-5661
▁democ	-5662
▁grant	-5663
▁stout	-5664
▁Guards	-5665
▁Seward	-5666
▁begins	-5667
▁causes	-5668
▁fought	-5669
▁utmost	-5670
▁fearful	-5671
▁neglect	-5672
▁nonsense	-5673
▁weakness	-5674
▁guardians	-5675
▁preceding	-5676
▁universal	-5677
▁circumstance	-5678
Un	-5679
Tis	-5680
▁El	-5681
vell	-5682
veni	-5683
Méran	-5684
aping	-5685
cause	-5686
rigny	-5687
▁abst	-5688
▁drag	-5689
▁subl	-5690
▁vale	-5691
liance	-5692
rences	-5693
▁Champ	-5694
▁artic	-5695
▁fruit	-5696
▁poets	-5697
▁trick	-5698
▁winds	-5699
▁absent	-5700
▁magist	-5701
▁comment	-5702
▁visitor	-5703
▁volunte	-5704
Certainly	-5705
▁goodness	-5706
▁heavenly	-5707
▁inclined	-5708
▁numerous	-5709
▁consciousness	-5710
An	-5711
ipp	-5712
zes	-5713
lict	-5714
sars	-5715
▁Men	-5716
▁City	-5717
▁Most	-5718
▁Nant	-5719
▁obsc	-5720
riages	-5721
tember	-5722
urance	-5723
▁Witch	-5724
▁armed	-5725
▁desir	-5726
▁needs	-5727
Avrigny	-5728
▁corrid	-5729
▁finish	-5730
▁helped	-5731
▁hungry	-5732
▁taught	-5733
▁abandon	-5734
▁dignity	-5735
▁galleys	-5736
▁wishing	-5737
▁deceived	-5738
▁subjects	-5739
▁September	-5740
▁appointed	-5741
▁expecting	-5742
▁Rostopchín	-5743
▁collection	-5744
▁description	-5745
,)	-5746
IET	-5747
alf	-5748
amm	-5749
úsh	-5750
asse	-5751
ollo	-5752
racy	-5753
ulse	-5754
▁JUL	-5755
▁Tin	-5756
▁bas	-5757
▁ric	-5758
▁East	-5759
▁sear	-5760
▁sell	-5761
▁Which	-5762
▁bears	-5763
▁chain	-5764
▁drops	-5765
▁fatig	-5766
▁fired	-5767
▁guest	-5768
▁burned	-5769
▁defend	-5770
▁locked	-5771
▁shouts	-5772
▁hostile	-5773
▁portion	-5774
▁shaking	-5775
▁absorbed	-5776
▁recalled	-5777
▁precisely	-5778
▁Marseilles	-5779
oe	-5780
ox	-5781
sc	-5782
pes	-5783
▁Bl	-5784
▁som	-5785
▁unm	-5786
chair	-5787
▁adop	-5788
▁cool	-5789
▁ours	-5790
▁rese	-5791
▁sofa	-5792
▁whit	-5793
levard	-5794
▁White	-5795
▁awake	-5796
▁sheet	-5797
▁sperm	-5798
▁trace	-5799
▁tramp	-5800
▁JULIET	-5801
▁halted	-5802
▁hatred	-5803
▁insult	-5804
▁intent	-5805
▁larger	-5806
▁posted	-5807
▁throng	-5808
▁destiny	-5809
▁showing	-5810
▁moreover	-5811
▁religion	-5812
▁throwing	-5813
▁bourgeois	-5814
▁immediate	-5815
ses	-5816
▁od	-5817
izzy	-5818
thac	-5819
▁mild	-5820
▁oath	-5821
▁seam	-5822
▁tore	-5823
leness	-5824
▁About	-5825
▁drown	-5826
▁linen	-5827
▁notes	-5828
▁Haydée	-5829
▁Island	-5830
▁consol	-5831
▁mechan	-5832
▁beloved	-5833
▁corrupt	-5834
▁quarters	-5835
▁Nantucket	-5836
▁invisible	-5837
▁pronounced	-5838
▁Má	-5839
▁iv	-5840
poch	-5841
▁HIS	-5842
▁etc	-5843
▁hut	-5844
istic	-5845
pleas	-5846
uries	-5847
▁ends	-5848
▁rang	-5849
▁risk	-5850
atched	-5851
▁clasp	-5852
▁flash	-5853
▁maids	-5854
▁porch	-5855
▁trial	-5856
▁attain	-5857
▁loudly	-5858
▁retire	-5859
▁amongst	-5860
▁foolish	-5861
▁harmony	-5862
▁kingdom	-5863
▁nervous	-5864
▁plunged	-5865
▁steward	-5866
▁utterly	-5867
▁glorious	-5868
▁gratitude	-5869
▁intellectual	-5870
.—	-5871
pro	-5872
urd	-5873
Take	-5874
irty	-5875
ived	-5876
laus	-5877
rive	-5878
▁tal	-5879
▁wag	-5880
agues	-5881
atory	-5882
rious	-5883
▁Sund	-5884
▁size	-5885
▁Baron	-5886
▁Madam	-5887
▁vehic	-5888
itating	-5889
▁banker	-5890
▁softly	-5891
▁disappo	-5892
▁disturb	-5893
▁mission	-5894
▁crossing	-5895
▁concluded	-5896
▁principal	-5897
sp	-5898
sed	-5899
▁Li	-5900
!...	-5901
wood	-5902
▁Mer	-5903
▁Ven	-5904
▁bag	-5905
▁env	-5906
▁fed	-5907
arted	-5908
inate	-5909
▁gown	-5910
▁grim	-5911
▁oars	-5912
▁sous	-5913
▁trif	-5914
hether	-5915
▁Ithac	-5916
▁brief	-5917
▁chase	-5918
▁hunts	-5919
▁stage	-5920
▁stoop	-5921
▁teach	-5922
▁Apollo	-5923
▁battal	-5924
▁duties	-5925
▁incess	-5926
▁indign	-5927
▁powder	-5928
▁Majesty	-5929
▁pierced	-5930
▁rushing	-5931
▁agitated	-5932
▁fastened	-5933
▁infantry	-5934
▁pavement	-5935
▁advancing	-5936
▁performed	-5937
▁suggested	-5938
▁distribute	-5939
▁considering	-5940
▁17	-5941
Will	-5942
llen	-5943
▁blo	-5944
▁tot	-5945
eries	-5946
eyore	-5947
▁Bour	-5948
▁Soon	-5949
▁VIII	-5950
▁flag	-5951
▁heed	-5952
▁jave	-5953
istrib	-5954
versed	-5955
▁urged	-5956
ounding	-5957
▁Americ	-5958
▁bought	-5959
▁jealous	-5960
▁radiant	-5961
▁replace	-5962
▁unpleas	-5963
▁governor	-5964
▁hastened	-5965
▁visitors	-5966
▁admiration	-5967
pin	-5968
rin	-5969
vet	-5970
five	-5971
rene	-5972
énsk	-5973
inity	-5974
▁cher	-5975
▁hang	-5976
▁proc	-5977
▁agent	-5978
▁angle	-5979
▁fanci	-5980
▁queer	-5981
▁feeble	-5982
▁leader	-5983
▁nobody	-5984
▁signal	-5985
▁system	-5986
▁travel	-5987
▁wouldn	-5988
▁bedroom	-5989
▁conquer	-5990
▁cunning	-5991
▁current	-5992
▁license	-5993
▁obscure	-5994
▁terrified	-5995
▁introduced	-5996
▁distributed	-5997
God	-5998
ael	-5999
uns	-6000
éev	-6001
Alas	-6002
liad	-6003
uits	-6004
ágin	-6005
▁Him	-6006
▁tap	-6007
ieved	-6008
▁Many	-6009
▁Till	-6010
▁dise	-6011
▁narr	-6012
▁wasn	-6013
▁epoch	-6014
▁loves	-6015
▁spend	-6016
▁brains	-6017
▁pursue	-6018
▁rested	-6019
▁heavily	-6020
▁hussars	-6021
▁popular	-6022
▁prayers	-6023
▁quality	-6024
▁galloped	-6025
▁sacrific	-6026
EM	-6027
IR	-6028
ai	-6029
—_	-6030
bly	-6031
rya	-6032
emed	-6033
when	-6034
▁rat	-6035
brary	-6036
otted	-6037
▁disd	-6038
▁west	-6039
▁XVIII	-6040
▁awoke	-6041
▁outer	-6042
▁shows	-6043
▁deadly	-6044
▁reward	-6045
▁squire	-6046
▁Colonel	-6047
▁attract	-6048
▁element	-6049
▁fancied	-6050
▁forgive	-6051
▁patient	-6052
▁problem	-6053
▁quarrel	-6054
▁distinctly	-6055
▁sufficiently	-6056
HI	-6057
abe	-6058
har	-6059
inc	-6060
oked	-6061
▁Dan	-6062
▁WAR	-6063
▁bay	-6064
▁isn	-6065
▁non	-6066
ashëv	-6067
blanc	-6068
enter	-6069
othed	-6070
overy	-6071
▁rosy	-6072
▁tied	-6073
eptune	-6074
▁apply	-6075
▁bands	-6076
▁devel	-6077
▁murde	-6078
▁shrie	-6079
▁Eeyore	-6080
▁dining	-6081
▁forbid	-6082
▁respon	-6083
▁million	-6084
▁whaling	-6085
▁delicate	-6086
▁drinking	-6087
▁friendly	-6088
▁inspector	-6089
▁slightest	-6090
▁interested	-6091
▁thoroughly	-6092
▁accomplished	-6093
▁consideration	-6094
▁ST	-6095
▁ep	-6096
ancy	-6097
ques	-6098
vest	-6099
▁Ara	-6100
▁cro	-6101
adise	-6102
▁doct	-6103
▁prud	-6104
▁sang	-6105
▁sust	-6106
▁corps	-6107
▁finds	-6108
▁loving	-6109
▁poured	-6110
▁stroke	-6111
▁writer	-6112
piration	-6113
▁divided	-6114
▁precaut	-6115
▁pursuit	-6116
▁recomme	-6117
▁staring	-6118
▁suggest	-6119
▁Balashëv	-6120
▁judgment	-6121
▁probable	-6122
▁troubled	-6123
[1	-6124
[2	-6125
ili	-6126
tic	-6127
▁Mu	-6128
lers	-6129
urre	-6130
▁183	-6131
▁Pal	-6132
▁cas	-6133
apsed	-6134
kward	-6135
▁Cont	-6136
▁Prov	-6137
▁flow	-6138
▁ride	-6139
ential	-6140
mother	-6141
▁Faria	-6142
▁ashes	-6143
▁irres	-6144
▁sadly	-6145
▁trous	-6146
▁couldn	-6147
▁prodig	-6148
▁relief	-6149
▁sighed	-6150
lessness	-6151
sibility	-6152
▁Leblanc	-6153
▁anybody	-6154
▁Penelope	-6155
▁disgrace	-6156
▁imagined	-6157
▁murderer	-6158
▁pictures	-6159
▁resolute	-6160
▁sympathy	-6161
▁household	-6162
▁intervals	-6163
AB	-6164
box	-6165
don	-6166
▁Ts	-6167
anth	-6168
odin	-6169
▁Luc	-6170
▁hyp	-6171
▁lat	-6172
▁butt	-6173
▁eleg	-6174
▁mead	-6175
▁unus	-6176
▁Roman	-6177
▁boast	-6178
▁brown	-6179
▁disch	-6180
▁flock	-6181
▁obedi	-6182
▁rules	-6183
▁spout	-6184
▁valet	-6185
Project	-6186
ourable	-6187
▁Ithaca	-6188
▁partly	-6189
▁season	-6190
▁select	-6191
▁source	-6192
▁strict	-6193
▁whilst	-6194
▁Neptune	-6195
▁invited	-6196
▁slipped	-6197
▁stories	-6198
▁contrast	-6199
▁grateful	-6200
▁separate	-6201
▁Christian	-6202
▁profession	-6203
_;	-6204
ded	-6205
gil	-6206
ymn	-6207
▁IX	-6208
etto	-6209
mend	-6210
▁odd	-6211
eless	-6212
ially	-6213
laced	-6214
▁Dick	-6215
▁bows	-6216
▁impr	-6217
▁Márya	-6218
▁Three	-6219
▁Would	-6220
▁borne	-6221
▁cloth	-6222
▁dozen	-6223
▁marsh	-6224
▁pains	-6225
▁purse	-6226
▁seize	-6227
▁vener	-6228
intment	-6229
natural	-6230
▁begged	-6231
▁daring	-6232
▁handle	-6233
▁invest	-6234
▁lights	-6235
▁nights	-6236
▁parted	-6237
▁angrily	-6238
▁awkward	-6239
▁majesty	-6240
▁corridor	-6241
▁preserve	-6242
▁indicated	-6243
rs	-6244
BER	-6245
aon	-6246
▁FOR	-6247
▁buy	-6248
odinó	-6249
▁ages	-6250
▁bade	-6251
▁brig	-6252
▁buck	-6253
▁memb	-6254
▁page	-6255
▁spec	-6256
▁tide	-6257
master	-6258
▁cheek	-6259
▁image	-6260
▁instr	-6261
▁landl	-6262
▁medic	-6263
▁sixty	-6264
▁desert	-6265
▁loaded	-6266
▁consult	-6267
▁convuls	-6268
▁honours	-6269
▁torment	-6270
▁virtues	-6271
▁creation	-6272
▁inferior	-6273
▁acknowled	-6274
tr	-6275
ESS	-6276
ITY	-6277
bar	-6278
hor	-6279
ands	-6280
ovel	-6281
▁CAP	-6282
▁Emp	-6283
▁Tot	-6284
▁lux	-6285
ernal	-6286
ulted	-6287
▁Span	-6288
▁gend	-6289
▁milk	-6290
▁Spart	-6291
▁naked	-6292
▁organ	-6293
▁plate	-6294
▁title	-6295
▁theory	-6296
▁weapon	-6297
▁crowded	-6298
▁knocked	-6299
▁library	-6300
▁natures	-6301
▁disturbed	-6302
▁strangers	-6303
▁thousands	-6304
▁engagement	-6305
▁philosophers	-6306
cto	-6307
rog	-6308
▁ox	-6309
alls	-6310
bits	-6311
leus	-6312
utch	-6313
▁Arg	-6314
▁Cle	-6315
▁Ter	-6316
▁cel	-6317
▁ded	-6318
▁vir	-6319
after	-6320
enger	-6321
▁Abbé	-6322
▁base	-6323
▁flee	-6324
▁pred	-6325
▁vall	-6326
ctober	-6327
▁Flask	-6328
▁Since	-6329
▁based	-6330
▁disci	-6331
▁error	-6332
▁harsh	-6333
▁inner	-6334
▁labor	-6335
▁peril	-6336
▁shake	-6337
▁swept	-6338
▁whirl	-6339
▁courty	-6340
▁dishon	-6341
▁eldest	-6342
▁folded	-6343
▁propri	-6344
▁funeral	-6345
▁Borodinó	-6346
▁practice	-6347
▁proposed	-6348
▁adventure	-6349
▁attracted	-6350
▁slaughter	-6351
▁displaying	-6352
▁glittering	-6353
▁disposition	-6354
▁involuntarily	-6355
hern	-6356
hole	-6357
yard	-6358
▁dun	-6359
emnon	-6360
ulars	-6361
▁Take	-6362
▁anti	-6363
▁caut	-6364
▁chin	-6365
▁jack	-6366
▁soil	-6367
▁sunk	-6368
▁trap	-6369
Father	-6370
isting	-6371
rievna	-6372
▁ahead	-6373
▁honey	-6374
▁mayor	-6375
▁tells	-6376
▁basket	-6377
▁detach	-6378
▁firmly	-6379
▁prompt	-6380
▁shades	-6381
attering	-6382
▁beating	-6383
▁sorrows	-6384
▁recovered	-6385
▁Dmítrievna	-6386
cip	-6387
ped	-6388
itty	-6389
osal	-6390
reek	-6391
▁Alc	-6392
▁Any	-6393
▁Old	-6394
▁fac	-6395
Never	-6396
amped	-6397
anges	-6398
irect	-6399
▁Vamp	-6400
▁aged	-6401
estial	-6402
ilight	-6403
▁Priam	-6404
▁price	-6405
▁tower	-6406
amation	-6407
amemnon	-6408
enelaus	-6409
fulness	-6410
▁breeze	-6411
▁extrem	-6412
▁ruined	-6413
▁smooth	-6414
▁deliber	-6415
▁painted	-6416
▁sincere	-6417
▁animated	-6418
▁compared	-6419
▁editions	-6420
▁overcome	-6421
▁starting	-6422
▁agitation	-6423
▁furnished	-6424
▁preserved	-6425
▁Revolution	-6426
▁observation	-6427
▁requirements	-6428
UM	-6429
arf	-6430
▁Han	-6431
▁Kar	-6432
▁gla	-6433
▁rom	-6434
▁unb	-6435
erted	-6436
▁Cors	-6437
▁chap	-6438
▁encl	-6439
▁halt	-6440
▁nois	-6441
▁prow	-6442
▁puzz	-6443
▁temp	-6444
olénsk	-6445
▁North	-6446
▁deeds	-6447
▁kinds	-6448
▁quant	-6449
▁tight	-6450
▁views	-6451
▁energy	-6452
▁riding	-6453
▁October	-6454
▁nearest	-6455
▁reports	-6456
▁armchair	-6457
▁arrested	-6458
▁conflict	-6459
▁monsieur	-6460
▁obtained	-6461
▁restored	-6462
▁carriages	-6463
▁courtyard	-6464
▁scattered	-6465
.1	-6466
UN	-6467
pet	-6468
sec	-6469
ENCE	-6470
ools	-6471
▁CON	-6472
▁dip	-6473
▁owe	-6474
▁row	-6475
ashes	-6476
inent	-6477
▁fain	-6478
▁vice	-6479
cribed	-6480
escrib	-6481
ferent	-6482
▁Thras	-6483
▁folly	-6484
▁gifts	-6485
▁stead	-6486
raction	-6487
▁Little	-6488
▁accent	-6489
▁disple	-6490
▁highly	-6491
▁senses	-6492
▁Michael	-6493
▁sublime	-6494
▁visited	-6495
▁welcome	-6496
▁whereas	-6497
▁Smolénsk	-6498
▁cloister	-6499
▁intimate	-6500
▁indescrib	-6501
▁Englishman	-6502
occ	-6503
uan	-6504
uke	-6505
▁Er	-6506
more	-6507
▁Cor	-6508
▁hit	-6509
Thank	-6510
atisf	-6511
lotte	-6512
orney	-6513
▁mant	-6514
▁sche	-6515
orable	-6516
verted	-6517
▁Helen	-6518
▁South	-6519
▁amuse	-6520
▁sails	-6521
▁thine	-6522
▁vault	-6523
Nothing	-6524
ulating	-6525
▁illust	-6526
▁lament	-6527
▁resign	-6528
▁sailed	-6529
▁applied	-6530
▁members	-6531
▁obvious	-6532
▁supreme	-6533
▁acquired	-6534
▁prospect	-6535
▁solitary	-6536
▁trousers	-6537
▁completed	-6538
▁throughout	-6539
”—	-6540
Can	-6541
oni	-6542
▁ic	-6543
Just	-6544
ULET	-6545
itor	-6546
text	-6547
▁Duc	-6548
▁Ren	-6549
▁Sch	-6550
▁mas	-6551
▁alas	-6552
▁nurs	-6553
▁unin	-6554
Indeed	-6555
▁carts	-6556
▁recon	-6557
▁scrut	-6558
▁incred	-6559
▁lovers	-6560
▁sombre	-6561
▁CAPULET	-6562
▁counter	-6563
▁sending	-6564
▁smoking	-6565
▁stretch	-6566
▁tremble	-6567
▁coursers	-6568
▁executed	-6569
▁independ	-6570
▁summoned	-6571
▁Agamemnon	-6572
▁amazement	-6573
▁seriously	-6574
▁descending	-6575
▁indifferent	-6576
▁particulars	-6577
▁indifference	-6578
3]	-6579
LA	-6580
eng	-6581
erl	-6582
kov	-6583
och	-6584
phe	-6585
aved	-6586
ford	-6587
iasm	-6588
shop	-6589
urst	-6590
▁180	-6591
▁Bel	-6592
▁vac	-6593
irmed	-6594
stead	-6595
úkhov	-6596
▁Poly	-6597
▁bond	-6598
▁ecst	-6599
▁fest	-6600
▁roar	-6601
00,000	-6602
rained	-6603
rehens	-6604
verend	-6605
▁alike	-6606
▁fifth	-6607
▁intim	-6608
▁phant	-6609
▁steep	-6610
▁vivid	-6611
▁admire	-6612
▁anchor	-6613
▁armour	-6614
▁marble	-6615
▁notary	-6616
▁Neither	-6617
▁chiefly	-6618
▁disdain	-6619
▁emerged	-6620
▁readily	-6621
▁suspect	-6622
▁Menelaus	-6623
▁attended	-6624
▁awaiting	-6625
▁describe	-6626
▁mournful	-6627
▁collected	-6628
▁prevented	-6629
▁providing	-6630
▁strangely	-6631
▁magistrate	-6632
▁reasonable	-6633
▁unpleasant	-6634
▁established	-6635
sing	-6636
▁Pha	-6637
▁Pre	-6638
▁Ste	-6639
▁gig	-6640
ilson	-6641
oress	-6642
ourse	-6643
piece	-6644
▁unre	-6645
▁Ilion	-6646
▁clerk	-6647
▁leads	-6648
▁mixed	-6649
▁ruler	-6650
inction	-6651
▁commit	-6652
▁detail	-6653
▁holder	-6654
▁losing	-6655
▁masses	-6656
▁settle	-6657
▁unlike	-6658
▁Thrasym	-6659
▁Without	-6660
▁bending	-6661
▁dearest	-6662
▁leagues	-6663
▁sounded	-6664
▁abruptly	-6665
▁bestowed	-6666
▁hitherto	-6667
▁reported	-6668
▁shepherd	-6669
▁twilight	-6670
▁consisted	-6671
▁extremely	-6672
▁hurriedly	-6673
▁shuddered	-6674
▁constantly	-6675
▁occasionally	-6676
▁recollection	-6677
5]	-6678
uv	-6679
▁É	-6680
See	-6681
col	-6682
gic	-6683
lla	-6684
tree	-6685
▁cla	-6686
▁fem	-6687
ilful	-6688
pring	-6689
▁Sher	-6690
▁lift	-6691
zúkhov	-6692
▁brand	-6693
▁heaps	-6694
▁sweep	-6695
▁Wilson	-6696
▁abroad	-6697
▁habits	-6698
▁hoarse	-6699
▁plenty	-6700
▁polite	-6701
▁shared	-6702
▁thresh	-6703
fortunes	-6704
▁amiable	-6705
▁breathe	-6706
▁copying	-6707
▁sentine	-6708
▁valiant	-6709
▁wanting	-6710
▁destined	-6711
▁disposed	-6712
▁district	-6713
▁politics	-6714
▁pressing	-6715
▁celestial	-6716
▁disappear	-6717
▁footsteps	-6718
▁violently	-6719
▁tenderness	-6720
ea	-6721
,—“	-6722
aks	-6723
edy	-6724
evi	-6725
inn	-6726
jud	-6727
ties	-6728
▁wip	-6729
ppino	-6730
▁aven	-6731
▁corn	-6732
▁webs	-6733
dyssey	-6734
uously	-6735
▁Black	-6736
▁brass	-6737
▁Sunday	-6738
▁absurd	-6739
▁altern	-6740
▁endure	-6741
▁series	-6742
▁status	-6743
▁anticip	-6744
▁concent	-6745
▁cottage	-6746
▁crushed	-6747
▁Gardiner	-6748
▁Sherlock	-6749
▁definite	-6750
▁opinions	-6751
▁elsewhere	-6752
▁inquiries	-6753
▁resembled	-6754
▁traversed	-6755
▁Providence	-6756
▁misfortunes	-6757
4]	-6758
6]	-6759
EL	-6760
▁§	-6761
awn	-6762
gue	-6763
oft	-6764
opy	-6765
osp	-6766
erer	-6767
four	-6768
shot	-6769
your	-6770
▁***	-6771
▁ner	-6772
▁sob	-6773
ATION	-6774
▁Berg	-6775
▁July	-6776
▁bord	-6777
igneur	-6778
ograph	-6779
▁Royal	-6780
▁balls	-6781
▁doesn	-6782
▁polic	-6783
▁wives	-6784
▁labour	-6785
▁perish	-6786
▁complex	-6787
▁cutting	-6788
▁embrace	-6789
▁returns	-6790
▁Bezúkhov	-6791
▁disorder	-6792
▁realized	-6793
▁encounter	-6794
▁meanwhile	-6795
▁threshold	-6796
▁historical	-6797
bon	-6798
unn	-6799
▁10	-6800
▁ug	-6801
▁fox	-6802
▁jaw	-6803
▁ske	-6804
▁tur	-6805
rides	-6806
viour	-6807
▁dram	-6808
▁jail	-6809
▁perf	-6810
▁rags	-6811
▁rout	-6812
▁wars	-6813
akened	-6814
erlitz	-6815
ington	-6816
strous	-6817
▁dimin	-6818
▁equip	-6819
▁haven	-6820
▁serge	-6821
▁toils	-6822
▁repose	-6823
▁thence	-6824
▁Peppino	-6825
▁audible	-6826
▁contact	-6827
▁harness	-6828
▁javelin	-6829
▁madness	-6830
▁replies	-6831
▁vessels	-6832
▁ascended	-6833
▁captured	-6834
▁confined	-6835
▁insisted	-6836
▁strongly	-6837
▁commanded	-6838
▁discovery	-6839
▁displayed	-6840
▁containing	-6841
▁delightful	-6842
▁punishment	-6843
▁encountered	-6844
▁represented	-6845
7]	-6846
8]	-6847
Per	-6848
rah	-6849
rois	-6850
wind	-6851
▁Bab	-6852
abeuf	-6853
bbing	-6854
ítski	-6855
▁Toto	-6856
▁clos	-6857
▁club	-6858
▁obli	-6859
▁pole	-6860
▁rays	-6861
▁silk	-6862
▁subs	-6863
▁warn	-6864
ifying	-6865
ourage	-6866
▁March	-6867
▁alter	-6868
▁cares	-6869
▁chose	-6870
▁dirty	-6871
▁elbow	-6872
▁greet	-6873
▁inval	-6874
▁liter	-6875
▁theat	-6876
▁Gretel	-6877
▁burden	-6878
▁cellar	-6879
▁fairly	-6880
▁haught	-6881
▁patron	-6882
▁portra	-6883
▁prayed	-6884
▁refuge	-6885
▁steady	-6886
▁leather	-6887
▁lightly	-6888
▁resting	-6889
▁disclaim	-6890
▁evidence	-6891
▁guardian	-6892
▁transport	-6893
▁accordance	-6894
▁increasing	-6895
▁ridiculous	-6896
▁thoughtful	-6897
sip	-6898
▁AG	-6899
iven	-6900
otes	-6901
▁Jac	-6902
▁PAR	-6903
▁aby	-6904
▁wre	-6905
Greek	-6906
mercy	-6907
wenty	-6908
▁ange	-6909
▁cult	-6910
▁fees	-6911
▁pour	-6912
▁boxes	-6913
▁disag	-6914
▁incon	-6915
▁insol	-6916
▁slang	-6917
▁torch	-6918
▁bestow	-6919
▁calmly	-6920
▁coarse	-6921
▁incomp	-6922
▁retain	-6923
▁string	-6924
▁glimpse	-6925
▁inquire	-6926
▁martial	-6927
▁learning	-6928
▁passions	-6929
▁withdraw	-6930
▁Charlotte	-6931
▁Austerlitz	-6932
▁celebrated	-6933
▁compliance	-6934
▁enthusiasm	-6935
▁volunteers	-6936
▁x	-6937
ERC	-6938
yes	-6939
JECT	-6940
URSE	-6941
UTEN	-6942
ldom	-6943
loqu	-6944
some	-6945
▁Oly	-6946
enses	-6947
uming	-6948
▁Full	-6949
▁cave	-6950
▁deny	-6951
▁glow	-6952
▁irre	-6953
▁onto	-6954
▁tend	-6955
alming	-6956
▁NURSE	-6957
▁disgu	-6958
▁flour	-6959
▁steam	-6960
▁assume	-6961
▁attach	-6962
▁driver	-6963
▁eleven	-6964
▁lively	-6965
▁online	-6966
▁reject	-6967
▁united	-6968
▁William	-6969
▁flushed	-6970
▁letting	-6971
▁limited	-6972
▁departed	-6973
▁external	-6974
▁merchant	-6975
▁restrain	-6976
▁sensible	-6977
▁admirable	-6978
▁assembled	-6979
▁tolerably	-6980
▁individuals	-6981
▁instructions	-6982
5,	-6983
ii	-6984
wr	-6985
lac	-6986
▁Cy	-6987
izes	-6988
peak	-6989
▁Hen	-6990
▁Phœ	-6991
▁fog	-6992
▁unl	-6993
▁wax	-6994
gthen	-6995
inese	-6996
ribly	-6997
▁doom	-6998
▁gore	-6999
▁hers	-7000
▁pile	-7001
▁rail	-7002
▁rubb	-7003
▁ruff	-7004
▁slee	-7005
▁wash	-7006
headed	-7007
manuel	-7008
▁Vampa	-7009
▁cerem	-7010
▁fiery	-7011
▁risen	-7012
▁stret	-7013
arnasse	-7014
ceiving	-7015
▁bewild	-7016
▁survey	-7017
seigneur	-7018
▁defence	-7019
▁parties	-7020
▁pockets	-7021
▁results	-7022
urrection	-7023
▁comparis	-7024
▁embraced	-7025
▁inspired	-7026
▁situated	-7027
rehensible	-7028
▁Pontmercy	-7029
▁contented	-7030
▁president	-7031
▁procureur	-7032
▁hesitation	-7033
▁Information	-7034
▁overwhelmed	-7035
cho	-7036
BERG	-7037
From	-7038
rels	-7039
▁bol	-7040
▁cyl	-7041
▁nav	-7042
ferre	-7043
heard	-7044
uable	-7045
▁Benn	-7046
▁Both	-7047
▁Kung	-7048
▁betr	-7049
▁clam	-7050
▁damp	-7051
▁trib	-7052
▁type	-7053
Listen	-7054
▁Combe	-7055
▁GUTEN	-7056
▁inher	-7057
▁People	-7058
▁collar	-7059
▁darted	-7060
▁dashed	-7061
▁permit	-7062
▁seldom	-7063
▁wolves	-7064
▁Chinese	-7065
▁PROJECT	-7066
▁battery	-7067
▁comrade	-7068
▁feather	-7069
▁machine	-7070
▁recover	-7071
▁variety	-7072
▁whither	-7073
▁wrapped	-7074
▁families	-7075
▁gigantic	-7076
▁landlord	-7077
▁persuade	-7078
▁quantity	-7079
▁tranquil	-7080
▁GUTENBERG	-7081
▁childhood	-7082
▁compelled	-7083
▁substance	-7084
▁suspicion	-7085
▁provisions	-7086
▁reputation	-7087
▁Thrasymachus	-7088
▁civilization	-7089
OS	-7090
Qu	-7091
RA	-7092
—‘	-7093
▁•	-7094
HAT	-7095
any	-7096
why	-7097
▁11	-7098
▁ON	-7099
▁SE	-7100
mber	-7101
reci	-7102
▁ANY	-7103
▁vap	-7104
bourn	-7105
eenth	-7106
eling	-7107
▁Sign	-7108
▁bend	-7109
▁chem	-7110
▁cock	-7111
▁diff	-7112
▁doll	-7113
▁runs	-7114
▁ugly	-7115
everal	-7116
itudes	-7117
▁Among	-7118
▁Grant	-7119
▁Montp	-7120
▁Peter	-7121
▁Right	-7122
▁ample	-7123
▁annoy	-7124
▁climb	-7125
▁depos	-7126
ciences	-7127
▁Mabeuf	-7128
▁WARRAN	-7129
▁comput	-7130
▁danced	-7131
▁format	-7132
▁humble	-7133
▁mirror	-7134
▁musket	-7135
▁obeyed	-7136
▁passes	-7137
▁record	-7138
▁signed	-7139
▁speaks	-7140
▁Atrides	-7141
▁unusual	-7142
▁website	-7143
▁breathed	-7144
▁devotion	-7145
▁medicine	-7146
▁revealed	-7147
▁warriors	-7148
▁Godalming	-7149
▁Longbourn	-7150
▁hesitated	-7151
▁monstrous	-7152
▁multitude	-7153
▁Combeferre	-7154
▁comfortable	-7155
▁Montparnasse	-7156
io	-7157
lom	-7158
▁Iv	-7159
grat	-7160
lain	-7161
▁Bet	-7162
▁War	-7163
▁ine	-7164
▁net	-7165
▁san	-7166
pends	-7167
▁boys	-7168
▁brid	-7169
▁gymn	-7170
▁jest	-7171
▁puff	-7172
▁rapt	-7173
▁whip	-7174
▁woke	-7175
ounted	-7176
▁Baker	-7177
▁craft	-7178
▁ingen	-7179
▁store	-7180
▁stuck	-7181
utenant	-7182
▁hussar	-7183
▁inevit	-7184
▁remove	-7185
▁supply	-7186
ceptible	-7187
standing	-7188
▁cleared	-7189
▁seconds	-7190
▁criminal	-7191
▁gracious	-7192
▁interior	-7193
▁replaced	-7194
▁solitude	-7195
▁squadron	-7196
▁troubles	-7197
▁establish	-7198
▁fortunate	-7199
▁messenger	-7200
▁moonlight	-7201
▁intelligent	-7202
9]	-7203
see	-7204
▁Py	-7205
icks	-7206
lest	-7207
▁Jun	-7208
▁aug	-7209
▁orn	-7210
▁woo	-7211
icken	-7212
unter	-7213
▁Bear	-7214
▁baby	-7215
▁este	-7216
▁soot	-7217
▁stol	-7218
ension	-7219
▁Grand	-7220
▁aloft	-7221
▁apple	-7222
▁blank	-7223
▁merit	-7224
▁mouse	-7225
▁suite	-7226
▁bloody	-7227
▁cities	-7228
▁deeper	-7229
▁joyful	-7230
▁notion	-7231
▁reappe	-7232
▁safely	-7233
▁conject	-7234
▁fatigue	-7235
▁harpoon	-7236
▁illness	-7237
▁somehow	-7238
▁species	-7239
▁Cossacks	-7240
▁floating	-7241
▁offering	-7242
▁recently	-7243
▁ventured	-7244
▁boulevard	-7245
▁examining	-7246
▁preparing	-7247
▁sentiment	-7248
▁performing	-7249
▁spectacles	-7250
▁acknowledge	-7251
▁reflections	-7252
▁significance	-7253
ét	-7254
aux	-7255
hum	-7256
ums	-7257
éra	-7258
outs	-7259
quet	-7260
tell	-7261
upon	-7262
▁Jim	-7263
▁fil	-7264
▁ink	-7265
▁spy	-7266
arged	-7267
incey	-7268
liest	-7269
pinay	-7270
stone	-7271
▁MERC	-7272
▁Mond	-7273
▁gets	-7274
▁noon	-7275
▁resc	-7276
▁salt	-7277
ground	-7278
ighted	-7279
soever	-7280
▁Jonah	-7281
▁Whose	-7282
▁crest	-7283
▁giant	-7284
▁ashore	-7285
▁brazen	-7286
▁brings	-7287
▁mathem	-7288
▁unwill	-7289
▁yonder	-7290
▁intense	-7291
▁lowered	-7292
▁missing	-7293
▁printed	-7294
▁receipt	-7295
▁restore	-7296
▁complain	-7297
▁decision	-7298
▁elements	-7299
▁relative	-7300
▁tranquill	-7301
▁waistcoat	-7302
▁commission	-7303
▁compassion	-7304
▁directions	-7305
▁attentively	-7306
0]	-7307
1]	-7308
2]	-7309
zh	-7310
▁-	-7311
isk	-7312
tes	-7313
▁ga	-7314
▁—_	-7315
aise	-7316
alog	-7317
plex	-7318
vity	-7319
▁hed	-7320
▁pear	-7321
▁stom	-7322
aptist	-7323
Épinay	-7324
▁Arist	-7325
▁Iliad	-7326
▁Lizzy	-7327
▁couch	-7328
▁frost	-7329
▁incap	-7330
▁marks	-7331
▁owing	-7332
▁actual	-7333
▁bodily	-7334
▁crimes	-7335
▁harmon	-7336
▁hiding	-7337
▁member	-7338
▁smiles	-7339
▁specul	-7340
▁tailor	-7341
▁traces	-7342
ulations	-7343
▁Barrois	-7344
▁control	-7345
▁costume	-7346
▁derived	-7347
▁despite	-7348
▁earlier	-7349
▁killing	-7350
▁mothers	-7351
▁refrain	-7352
▁reverie	-7353
▁swiftly	-7354
▁somebody	-7355
▁wherever	-7356
▁essential	-7357
▁fortnight	-7358
▁obscurity	-7359
▁sensation	-7360
oph	-7361
ste	-7362
uet	-7363
back	-7364
empt	-7365
mind	-7366
odes	-7367
rons	-7368
▁Eum	-7369
▁Far	-7370
▁Owl	-7371
▁gri	-7372
▁ray	-7373
break	-7374
ersed	-7375
guard	-7376
▁craw	-7377
▁foes	-7378
▁hind	-7379
▁rent	-7380
▁tact	-7381
ranean	-7382
▁color	-7383
▁disin	-7384
▁ivory	-7385
▁limit	-7386
▁unity	-7387
▁beaten	-7388
▁chairs	-7389
▁diplom	-7390
▁exting	-7391
▁lately	-7392
▁tables	-7393
opyright	-7394
▁Baptist	-7395
▁barrier	-7396
▁belongs	-7397
▁ceiling	-7398
▁changes	-7399
▁degrees	-7400
▁dismiss	-7401
▁grasped	-7402
▁guessed	-7403
▁newspap	-7404
▁panting	-7405
▁perplex	-7406
▁prolong	-7407
▁sinking	-7408
▁Emmanuel	-7409
▁changing	-7410
▁headlong	-7411
▁marrying	-7412
▁reverend	-7413
▁construct	-7414
▁impatient	-7415
▁uncertain	-7416
▁additional	-7417
▁comparison	-7418
▁discussion	-7419
▁exceedingly	-7420
;”	-7421
HT	-7422
Mr	-7423
His	-7424
rim	-7425
rit	-7426
íkh	-7427
Dear	-7428
aces	-7429
anga	-7430
emet	-7431
have	-7432
▁Mur	-7433
▁apt	-7434
▁ton	-7435
▁vel	-7436
▁vul	-7437
atson	-7438
iring	-7439
olded	-7440
íkhon	-7441
▁Alas	-7442
▁bath	-7443
▁blew	-7444
▁gift	-7445
▁ling	-7446
▁peop	-7447
▁trip	-7448
angled	-7449
resses	-7450
▁Olymp	-7451
▁lands	-7452
▁links	-7453
▁reass	-7454
▁resol	-7455
▁track	-7456
▁veins	-7457
hearted	-7458
ressing	-7459
▁charms	-7460
▁insist	-7461
▁interm	-7462
▁lasted	-7463
▁waking	-7464
ositions	-7465
▁Because	-7466
▁Martian	-7467
▁Quincey	-7468
▁Several	-7469
▁Spanish	-7470
▁congrat	-7471
▁corners	-7472
▁demands	-7473
▁haughty	-7474
▁shelter	-7475
▁stomach	-7476
▁tempest	-7477
▁upright	-7478
▁wealthy	-7479
▁announce	-7480
▁deprived	-7481
▁exercise	-7482
▁incident	-7483
▁likewise	-7484
▁sinister	-7485
▁wondering	-7486
▁sufferings	-7487
▁illuminated	-7488
▁translation	-7489
▁indescribable	-7490
OW	-7491
ILL	-7492
asm	-7493
▁(1	-7494
▁Ho	-7495
Tell	-7496
arts	-7497
even	-7498
gest	-7499
pass	-7500
rust	-7501
▁DIS	-7502
▁Gen	-7503
▁ped	-7504
dides	-7505
forth	-7506
oking	-7507
uding	-7508
verty	-7509
▁Bild	-7510
▁Pall	-7511
▁bark	-7512
▁echo	-7513
▁eyeb	-7514
▁load	-7515
▁lone	-7516
▁vest	-7517
ensity	-7518
ponine	-7519
usions	-7520
worthy	-7521
▁Kanga	-7522
▁appet	-7523
▁dried	-7524
▁serfs	-7525
▁Tíkhon	-7526
▁Virgil	-7527
▁Watson	-7528
▁horrid	-7529
▁inward	-7530
▁reckon	-7531
▁relate	-7532
▁awaited	-7533
▁battles	-7534
▁godlike	-7535
▁hunting	-7536
▁improve	-7537
▁masters	-7538
▁poverty	-7539
▁favorite	-7540
▁gardener	-7541
▁increase	-7542
▁intently	-7543
▁sounding	-7544
▁answering	-7545
▁anxiously	-7546
▁assurance	-7547
▁applicable	-7548
▁comprehend	-7549
▁simplicity	-7550
▁travelling	-7551
▁uneasiness	-7552
ID	-7553
ré	-7554
nes	-7555
pul	-7556
xic	-7557
▁15	-7558
▁50	-7559
HICH	-7560
cont	-7561
mith	-7562
oard	-7563
rant	-7564
▁dru	-7565
▁fow	-7566
actor	-7567
ánski	-7568
▁Moby	-7569
▁Poor	-7570
▁dine	-7571
▁joke	-7572
▁lane	-7573
▁meal	-7574
▁mile	-7575
▁olig	-7576
▁Bened	-7577
▁Swift	-7578
▁acted	-7579
▁altar	-7580
▁grows	-7581
▁legal	-7582
▁ninet	-7583
▁ruins	-7584
▁scorn	-7585
▁spies	-7586
▁swarm	-7587
▁Morris	-7588
▁adored	-7589
▁autumn	-7590
▁borrow	-7591
▁catast	-7592
▁resour	-7593
▁candles	-7594
▁contrib	-7595
▁declare	-7596
▁deliver	-7597
▁draught	-7598
▁inquiry	-7599
▁message	-7600
▁partner	-7601
▁privile	-7602
▁pulling	-7603
▁smaller	-7604
▁studied	-7605
▁superst	-7606
▁conquest	-7607
▁contract	-7608
▁interval	-7609
▁irresist	-7610
▁oligarch	-7611
▁properly	-7612
▁transfer	-7613
▁youthful	-7614
▁interview	-7615
▁invitation	-7616
▁examination	-7617
2)	-7618
Ar	-7619
CEN	-7620
ork	-7621
two	-7622
upt	-7623
anim	-7624
lets	-7625
olet	-7626
▁Hsi	-7627
▁cig	-7628
▁dar	-7629
▁yon	-7630
igsen	-7631
urely	-7632
▁Hipp	-7633
▁bind	-7634
▁dang	-7635
▁flut	-7636
▁mode	-7637
▁owed	-7638
▁peep	-7639
▁rasc	-7640
▁sobs	-7641
▁surv	-7642
inking	-7643
▁Mamma	-7644
▁appar	-7645
▁beach	-7646
▁crept	-7647
▁envel	-7648
▁guilt	-7649
▁hears	-7650
▁scale	-7651
▁scept	-7652
▁seats	-7653
▁Indian	-7654
▁cavern	-7655
▁decide	-7656
▁facing	-7657
▁female	-7658
▁guards	-7659
▁ladder	-7660
▁perpet	-7661
▁accused	-7662
▁benevol	-7663
▁discern	-7664
▁disease	-7665
▁emperor	-7666
▁leaders	-7667
▁respond	-7668
▁scrutin	-7669
▁Éponine	-7670
▁disagree	-7671
▁exchange	-7672
▁sergeant	-7673
▁carpenter	-7674
▁equipment	-7675
▁repeating	-7676
▁authorities	-7677
▁affectionate	-7678
ITH	-7679
pel	-7680
?...	-7681
maid	-7682
udge	-7683
▁Dol	-7684
▁XVI	-7685
▁eag	-7686
▁lur	-7687
▁nob	-7688
▁rav	-7689
▁hath	-7690
▁heir	-7691
▁lust	-7692
▁pine	-7693
▁scru	-7694
▁slip	-7695
▁spin	-7696
icious	-7697
▁Enter	-7698
▁abyss	-7699
▁array	-7700
▁banks	-7701
▁cards	-7702
▁eloqu	-7703
▁hated	-7704
▁hotel	-7705
▁thief	-7706
Perhaps	-7707
ilities	-7708
▁assert	-7709
▁eighty	-7710
▁motive	-7711
▁stolen	-7712
▁valley	-7713
▁confirm	-7714
▁redoubt	-7715
▁venture	-7716
▁Austrian	-7717
▁assembly	-7718
▁bleeding	-7719
▁graceful	-7720
▁investig	-7721
▁noticing	-7722
▁youngest	-7723
▁Bennigsen	-7724
▁Speránski	-7725
▁behaviour	-7726
▁catastrop	-7727
▁extremity	-7728
▁innocence	-7729
▁supposing	-7730
▁apartments	-7731
▁calculated	-7732
▁generations	-7733
▁neighborhood	-7734
ada	-7735
igi	-7736
ilí	-7737
lix	-7738
▁20	-7739
▁30	-7740
▁EX	-7741
▁LA	-7742
Pooh	-7743
amin	-7744
boat	-7745
▁Ass	-7746
▁Haw	-7747
▁XIV	-7748
▁nod	-7749
▁unw	-7750
ensed	-7751
lance	-7752
loire	-7753
unken	-7754
▁Boss	-7755
▁beds	-7756
▁bone	-7757
Really	-7758
necess	-7759
otions	-7760
▁Athen	-7761
▁exhib	-7762
▁goods	-7763
▁impet	-7764
▁manly	-7765
▁older	-7766
▁snuff	-7767
chamber	-7768
istered	-7769
▁beasts	-7770
▁chains	-7771
▁market	-7772
▁pillow	-7773
▁summit	-7774
▁tossed	-7775
▁victor	-7776
▁Whether	-7777
▁admired	-7778
▁impulse	-7779
▁marvell	-7780
▁vaguely	-7781
▁Magloire	-7782
▁creating	-7783
▁expenses	-7784
▁manifest	-7785
▁offended	-7786
▁patience	-7787
▁peaceful	-7788
▁community	-7789
▁confident	-7790
▁confirmed	-7791
▁reasoning	-7792
▁reception	-7793
▁religious	-7794
▁suspended	-7795
▁swallowed	-7796
▁Wellington	-7797
▁breathless	-7798
▁distinction	-7799
2,	-7800
ok	-7801
▁z	-7802
Cap	-7803
pus	-7804
áev	-7805
stri	-7806
time	-7807
umps	-7808
▁Ade	-7809
▁Dav	-7810
▁Ily	-7811
▁tig	-7812
alect	-7813
cribe	-7814
ucing	-7815
▁Duke	-7816
▁Give	-7817
▁Levi	-7818
▁bulw	-7819
▁enqu	-7820
▁lawy	-7821
▁rude	-7822
▁surm	-7823
asions	-7824
idents	-7825
▁decor	-7826
▁eleph	-7827
▁frank	-7828
▁tones	-7829
▁walks	-7830
certain	-7831
▁Pallas	-7832
▁beggar	-7833
▁closer	-7834
▁punish	-7835
▁renown	-7836
▁repuls	-7837
▁towers	-7838
aneously	-7839
inations	-7840
▁endless	-7841
▁granted	-7842
▁labours	-7843
▁springs	-7844
▁warning	-7845
▁portrait	-7846
▁screamed	-7847
▁Grantaire	-7848
▁Therefore	-7849
▁accompany	-7850
▁conducted	-7851
▁determine	-7852
▁happening	-7853
▁retreated	-7854
▁suspected	-7855
▁unnatural	-7856
▁harpooneer	-7857
▁probability	-7858
▁contemplation	-7859
eg	-7860
REE	-7861
lls	-7862
mas	-7863
six	-7864
uts	-7865
vre	-7866
▁19	-7867
▁AS	-7868
ouch	-7869
ánov	-7870
▁Tow	-7871
▁XII	-7872
▁ain	-7873
▁axe	-7874
▁stu	-7875
Uncle	-7876
occup	-7877
úshin	-7878
▁Book	-7879
▁Hell	-7880
▁Juno	-7881
▁deaf	-7882
▁lawn	-7883
▁mask	-7884
▁stag	-7885
return	-7886
▁Death	-7887
▁cemet	-7888
▁lodge	-7889
▁trade	-7890
▁Bildad	-7891
▁doubts	-7892
▁fitted	-7893
▁planks	-7894
▁scenes	-7895
▁skelet	-7896
▁drunken	-7897
▁elapsed	-7898
▁glances	-7899
▁glasses	-7900
▁grating	-7901
▁pistols	-7902
▁sailing	-7903
▁seizing	-7904
▁thanked	-7905
▁bitterly	-7906
▁memories	-7907
▁mischief	-7908
▁pleasing	-7909
▁available	-7910
▁centuries	-7911
▁defective	-7912
▁exchanged	-7913
▁narrative	-7914
▁obtaining	-7915
▁physician	-7916
▁paragraphs	-7917
▁proceeding	-7918
▁yourselves	-7919
IC	-7920
”;	-7921
asy	-7922
aus	-7923
rue	-7924
hind	-7925
meil	-7926
past	-7927
phew	-7928
usal	-7929
▁Nes	-7930
▁Roo	-7931
▁Tre	-7932
▁fie	-7933
antus	-7934
ordan	-7935
▁WITH	-7936
▁foam	-7937
▁tiny	-7938
▁Adeim	-7939
▁Guard	-7940
▁Hills	-7941
▁daily	-7942
▁dwarf	-7943
▁indef	-7944
▁pitch	-7945
▁pluck	-7946
▁tread	-7947
fermeil	-7948
▁Corsic	-7949
▁Indeed	-7950
▁Nether	-7951
▁Túshin	-7952
▁elbows	-7953
▁mental	-7954
▁missed	-7955
▁nephew	-7956
▁roused	-7957
▁sunset	-7958
▁swords	-7959
▁capture	-7960
▁chapter	-7961
▁classes	-7962
▁enchant	-7963
▁encoura	-7964
▁flaming	-7965
▁helpless	-7966
▁hurrying	-7967
▁piercing	-7968
▁stopping	-7969
▁swimming	-7970
▁countries	-7971
▁observing	-7972
▁Adeimantus	-7973
▁downstairs	-7974
▁tranquillity	-7975
fo	-7976
uil	-7977
gain	-7978
keys	-7979
oups	-7980
pite	-7981
resa	-7982
árov	-7983
▁182	-7984
▁Arm	-7985
▁Kur	-7986
▁lip	-7987
nders	-7988
▁THIS	-7989
▁gulf	-7990
asting	-7991
liness	-7992
minded	-7993
▁Simon	-7994
▁Under	-7995
▁Venus	-7996
▁abode	-7997
▁accur	-7998
▁brisk	-7999
▁gleam	-8000
▁keeps	-8001
▁sends	-8002
▁tales	-8003
▁Jordan	-8004
▁Prussi	-8005
▁boldly	-8006
▁defeat	-8007
▁income	-8008
▁instit	-8009
▁jailer	-8010
▁lesson	-8011
▁murmur	-8012
▁offers	-8013
▁profit	-8014
▁riches	-8015
▁subtle	-8016
▁vulgar	-8017
▁washed	-8018
ferences	-8019
▁Bossuet	-8020
▁Hawkins	-8021
▁balloon	-8022
▁charged	-8023
▁complic	-8024
▁conveni	-8025
▁discipl	-8026
▁examine	-8027
▁injured	-8028
▁propose	-8029
▁ringing	-8030
▁slender	-8031
▁temples	-8032
▁conceive	-8033
▁contents	-8034
▁counsels	-8035
▁domestic	-8036
▁payments	-8037
▁reminded	-8038
▁treacher	-8039
▁belonging	-8040
▁certainty	-8041
▁incapable	-8042
▁reference	-8043
▁statement	-8044
▁characters	-8045
▁Montfermeil	-8046
▁Netherfield	-8047
▁incessantly	-8048
▁necessarily	-8049
▁difficulties	-8050
3)	-8051
OLI	-8052
bin	-8053
lys	-8054
oir	-8055
ril	-8056
ryph	-8057
▁BEN	-8058
▁Bog	-8059
▁ach	-8060
▁bee	-8061
▁hom	-8062
ipped	-8063
tends	-8064
▁asks	-8065
▁hint	-8066
▁jaws	-8067
▁lake	-8068
▁meas	-8069
▁pool	-8070
Madame	-8071
itious	-8072
▁Other	-8073
▁Peleg	-8074
▁WHICH	-8075
▁belly	-8076
▁brows	-8077
▁decre	-8078
▁fount	-8079
▁goose	-8080
▁heels	-8081
▁infam	-8082
▁lucky	-8083
▁roads	-8084
▁screw	-8085
▁upset	-8086
ossible	-8087
▁Juliet	-8088
▁issued	-8089
▁joyous	-8090
▁landed	-8091
▁mouths	-8092
▁overth	-8093
▁velvet	-8094
▁answers	-8095
▁closing	-8096
▁enjoyed	-8097
▁gravely	-8098
necessary	-8099
▁arriving	-8100
▁awakened	-8101
▁combined	-8102
▁commence	-8103
▁cylinder	-8104
▁dwelling	-8105
▁foremost	-8106
▁hundreds	-8107
▁passages	-8108
▁relieved	-8109
▁sciences	-8110
▁ascertain	-8111
▁democracy	-8112
▁favourite	-8113
▁obedience	-8114
▁practical	-8115
▁unwilling	-8116
▁advantages	-8117
▁marvellous	-8118
▁politeness	-8119
▁constitution	-8120
▁unexpectedly	-8121
Aye	-8122
MIT	-8123
_.”	-8124
aft	-8125
oes	-8126
umm	-8127
ées	-8128
▁16	-8129
bury	-8130
eyed	-8131
reen	-8132
▁Cha	-8133
▁Has	-8134
▁Med	-8135
▁Mel	-8136
▁Wol	-8137
▁jun	-8138
▁pig	-8139
faced	-8140
ierce	-8141
ifies	-8142
▁Four	-8143
▁Holy	-8144
▁Past	-8145
▁XIII	-8146
▁isol	-8147
▁nigh	-8148
▁rein	-8149
ailing	-8150
oubted	-8151
porary	-8152
spring	-8153
vítski	-8154
▁Kitty	-8155
▁Lucas	-8156
▁dense	-8157
▁dilig	-8158
▁funny	-8159
▁locks	-8160
▁paint	-8161
▁rival	-8162
▁slope	-8163
▁Empire	-8164
▁ascend	-8165
▁butter	-8166
▁denied	-8167
▁impert	-8168
▁mutual	-8169
▁prejud	-8170
▁region	-8171
▁rubles	-8172
▁spears	-8173
▁tragic	-8174
▁adopted	-8175
▁chanced	-8176
▁circles	-8177
▁connect	-8178
▁darling	-8179
▁dialect	-8180
▁intoxic	-8181
▁invalid	-8182
▁landing	-8183
▁methods	-8184
▁secrets	-8185
▁selfish	-8186
▁torture	-8187
▁tremend	-8188
▁attained	-8189
▁betrayed	-8190
▁feverish	-8191
▁frowning	-8192
▁interrog	-8193
▁perished	-8194
▁reserved	-8195
▁services	-8196
▁startled	-8197
▁uttering	-8198
▁valuable	-8199
▁complying	-8200
▁attributed	-8201
▁arrangements	-8202
▁communication	-8203
got	-8204
ols	-8205
▁Bo	-8206
Give	-8207
agon	-8208
emon	-8209
nant	-8210
▁Nay	-8211
▁Pip	-8212
▁atm	-8213
▁bon	-8214
▁pup	-8215
aging	-8216
glass	-8217
icism	-8218
urred	-8219
▁Bene	-8220
▁bars	-8221
▁foul	-8222
▁imit	-8223
▁male	-8224
▁woes	-8225
▁Henry	-8226
▁chape	-8227
▁deriv	-8228
▁exter	-8229
▁holds	-8230
▁moder	-8231
▁skull	-8232
natured	-8233
ression	-8234
▁Signor	-8235
▁aboard	-8236
▁appeal	-8237
▁dismay	-8238
▁heroic	-8239
▁ponder	-8240
▁shakes	-8241
▁Eumaeus	-8242
▁aroused	-8243
▁consist	-8244
▁dungeon	-8245
▁enlight	-8246
▁exposed	-8247
▁grieved	-8248
▁harbour	-8249
▁peoples	-8250
▁princes	-8251
▁remorse	-8252
▁sadness	-8253
▁whereon	-8254
▁frequent	-8255
▁majestic	-8256
▁mathemat	-8257
▁propriet	-8258
▁purchase	-8259
▁solemnly	-8260
▁whalemen	-8261
▁withdrew	-8262
▁Nesvítski	-8263
▁delivered	-8264
▁senseless	-8265
▁contradict	-8266
▁limitation	-8267
▁strengthen	-8268
▁threatening	-8269
▁characteristic	-8270
Dr	-8271
su	-8272
ár	-8273
zel	-8274
▁_“	-8275
camp	-8276
gypt	-8277
illa	-8278
ulet	-8279
▁Cla	-8280
▁cub	-8281
▁dus	-8282
▁hoo	-8283
▁oak	-8284
▁rud	-8285
ardly	-8286
ience	-8287
urned	-8288
ushes	-8289
▁Pole	-8290
▁Tsar	-8291
▁crou	-8292
▁liqu	-8293
▁push	-8294
▁stif	-8295
▁user	-8296
arters	-8297
▁Lives	-8298
▁admin	-8299
▁arrow	-8300
▁diary	-8301
▁exped	-8302
▁grain	-8303
▁smart	-8304
▁swung	-8305
▁waved	-8306
henomen	-8307
▁Should	-8308
▁artist	-8309
▁cheese	-8310
▁gallop	-8311
▁geomet	-8312
▁laying	-8313
▁leaped	-8314
▁maiden	-8315
▁mantle	-8316
▁scheme	-8317
▁simult	-8318
▁traged	-8319
▁warmth	-8320
▁Tydides	-8321
▁columns	-8322
▁counted	-8323
▁depends	-8324
▁effects	-8325
▁energet	-8326
▁exagger	-8327
▁expense	-8328
▁forming	-8329
▁happily	-8330
▁placing	-8331
▁sixteen	-8332
▁skilful	-8333
▁upwards	-8334
▁cemetery	-8335
▁critical	-8336
▁emotions	-8337
▁imperial	-8338
▁punished	-8339
▁surround	-8340
▁wondrous	-8341
▁Leviathan	-8342
▁appearing	-8343
▁earnestly	-8344
▁treasures	-8345
▁tremendous	-8346
▁exclamation	-8347
▁unnecessary	-8348
▁acknowledged	-8349
▁consequently	-8350
▁perspiration	-8351
va	-8352
May	-8353
OUR	-8354
ano	-8355
cif	-8356
lor	-8357
▁12	-8358
arth	-8359
olic	-8360
sole	-8361
————	-8362
▁200	-8363
▁Bas	-8364
▁ath	-8365
▁aye	-8366
▁cul	-8367
▁sex	-8368
▁Æne	-8369
arian	-8370
dated	-8371
force	-8372
might	-8373
shine	-8374
trees	-8375
▁Bilí	-8376
▁Last	-8377
▁Véra	-8378
▁bisc	-8379
▁bowl	-8380
▁dict	-8381
▁leis	-8382
▁neat	-8383
▁plot	-8384
▁rele	-8385
▁slew	-8386
formed	-8387
▁demon	-8388
▁desol	-8389
▁hosts	-8390
▁plant	-8391
▁Behind	-8392
▁atmosp	-8393
▁cattle	-8394
▁insurg	-8395
▁remote	-8396
▁saving	-8397
▁watery	-8398
▁Beneath	-8399
▁Between	-8400
▁Bilíbin	-8401
▁altered	-8402
▁clasped	-8403
▁climbed	-8404
▁concept	-8405
▁fathers	-8406
▁opposed	-8407
▁partial	-8408
▁hospital	-8409
▁huntsman	-8410
▁interpre	-8411
▁mourning	-8412
▁phenomen	-8413
▁apprehens	-8414
▁betrothed	-8415
▁gathering	-8416
▁royalties	-8417
▁supported	-8418
▁treatment	-8419
▁derivative	-8420
▁protection	-8421
▁insurrection	-8422
▁respectfully	-8423
▁neighbourhood	-8424
!)	-8425
);	-8426
Or	-8427
ba	-8428
.9.	-8429
ART	-8430
dam	-8431
iot	-8432
top	-8433
▁Lo	-8434
▁Mc	-8435
Phar	-8436
asty	-8437
rini	-8438
rise	-8439
▁Bus	-8440
▁Its	-8441
▁Mil	-8442
▁flu	-8443
▁gos	-8444
▁rig	-8445
▁tip	-8446
Count	-8447
aeans	-8448
ieves	-8449
sters	-8450
▁Life	-8451
▁Supp	-8452
▁Turn	-8453
▁adjo	-8454
▁bees	-8455
▁boot	-8456
▁bund	-8457
▁clut	-8458
▁idle	-8459
▁rows	-8460
▁yawn	-8461
rewell	-8462
stones	-8463
terest	-8464
▁crush	-8465
▁etern	-8466
▁exert	-8467
▁haunt	-8468
▁livid	-8469
▁mould	-8470
▁oppon	-8471
▁prost	-8472
▁reins	-8473
▁shine	-8474
▁surre	-8475
▁sympt	-8476
Pharaon	-8477
ouncing	-8478
▁amidst	-8479
▁coffee	-8480
▁entity	-8481
▁exempt	-8482
▁helmet	-8483
▁insign	-8484
▁jewell	-8485
▁rarely	-8486
▁shores	-8487
▁vanity	-8488
quarters	-8489
▁avoided	-8490
▁deceive	-8491
▁develop	-8492
▁prosper	-8493
▁realize	-8494
▁rightly	-8495
▁sharply	-8496
▁staying	-8497
▁weapons	-8498
▁conveyed	-8499
▁farewell	-8500
▁Presently	-8501
▁persuaded	-8502
▁spectacle	-8503
▁foundation	-8504
▁intentions	-8505
▁perfection	-8506
▁threatened	-8507
▁Monseigneur	-8508
6,	-8509
Le	-8510
ST	-8511
.1.	-8512
.3,	-8513
.3.	-8514
ACH	-8515
ipe	-8516
iti	-8517
kóv	-8518
▁14	-8519
▁Cæ	-8520
▁Id	-8521
▁Ku	-8522
AMAG	-8523
OLIO	-8524
acon	-8525
umpt	-8526
▁Acc	-8527
▁FRI	-8528
▁Squ	-8529
▁pub	-8530
▁rhy	-8531
ILITY	-8532
MITED	-8533
Which	-8534
ainte	-8535
ialog	-8536
oming	-8537
▁Upon	-8538
▁gild	-8539
▁pink	-8540
▁prim	-8541
▁sage	-8542
ducing	-8543
▁Chang	-8544
▁DAMAG	-8545
▁Luigi	-8546
▁Phaea	-8547
▁banqu	-8548
▁eagle	-8549
▁fence	-8550
▁pilot	-8551
▁stamm	-8552
▁swine	-8553
▁trunk	-8554
▁uncon	-8555
▁chapel	-8556
▁deemed	-8557
▁donate	-8558
▁exquis	-8559
▁lonely	-8560
▁review	-8561
▁rights	-8562
▁saddle	-8563
▁sprung	-8564
▁verses	-8565
▁LIMITED	-8566
▁appreci	-8567
▁artific	-8568
▁benefit	-8569
▁footman	-8570
▁pushing	-8571
▁reduced	-8572
▁thicket	-8573
▁timidly	-8574
▁torrent	-8575
▁vehicle	-8576
mpossible	-8577
▁Achaeans	-8578
▁Pastrini	-8579
▁contains	-8580
▁indirect	-8581
▁sunshine	-8582
▁Something	-8583
▁occasions	-8584
▁redistrib	-8585
▁venerable	-8586
▁bewildered	-8587
▁compliment	-8588
▁successful	-8589
▁consolation	-8590
▁expectation	-8591
▁replacement	-8592
▁disagreeable	-8593
Ant	-8594
IVE	-8595
UTI	-8596
alv	-8597
boy	-8598
▁2.	-8599
▁az	-8600
IGHT	-8601
THER	-8602
hire	-8603
onor	-8604
▁Out	-8605
▁Say	-8606
▁awe	-8607
▁egg	-8608
alles	-8609
icted	-8610
ulcan	-8611
▁Comp	-8612
▁bulk	-8613
▁dies	-8614
▁tops	-8615
▁upro	-8616
ocious	-8617
teenth	-8618
▁Petit	-8619
▁await	-8620
▁bayon	-8621
▁burnt	-8622
▁drift	-8623
▁milit	-8624
▁salon	-8625
▁silly	-8626
▁towns	-8627
▁Phœbus	-8628
▁bowing	-8629
▁bushes	-8630
▁copied	-8631
▁corpor	-8632
▁images	-8633
▁intend	-8634
▁recent	-8635
▁reluct	-8636
▁scarce	-8637
▁submit	-8638
▁waving	-8639
oubtedly	-8640
▁deserve	-8641
▁elegant	-8642
▁gallant	-8643
▁gallery	-8644
▁howling	-8645
▁slumber	-8646
▁terrors	-8647
▁tonight	-8648
▁Parisian	-8649
▁doubtful	-8650
▁eyebrows	-8651
▁rapidity	-8652
▁retained	-8653
▁wandered	-8654
▁Benedetto	-8655
▁battalion	-8656
▁dissatisf	-8657
▁introduce	-8658
▁travelled	-8659
▁precaution	-8660
▁retreating	-8661
▁suspicious	-8662
7,	-8663
UE	-8664
”,	-8665
did	-8666
omb	-8667
▁13	-8668
▁Gl	-8669
▁Ha	-8670
Only	-8671
inth	-8672
oles	-8673
▁Bru	-8674
▁dew	-8675
▁pir	-8676
Saint	-8677
Shall	-8678
VOLIO	-8679
astle	-8680
atáev	-8681
culty	-8682
ifted	-8683
pulch	-8684
▁Turk	-8685
▁ante	-8686
▁chat	-8687
▁goal	-8688
▁lads	-8689
▁tort	-8690
ctions	-8691
haired	-8692
▁chamb	-8693
▁folds	-8694
▁rises	-8695
▁unite	-8696
▁Æneas	-8697
▁amazed	-8698
▁amused	-8699
▁groups	-8700
▁herald	-8701
▁jacket	-8702
▁occupy	-8703
▁dreamed	-8704
▁enthusi	-8705
▁faculty	-8706
▁orderly	-8707
▁sepulch	-8708
▁villain	-8709
▁winding	-8710
▁yielded	-8711
▁Alcinous	-8712
▁BENVOLIO	-8713
▁ambition	-8714
▁attempts	-8715
▁attorney	-8716
▁audience	-8717
▁dazzling	-8718
▁dragging	-8719
▁elephant	-8720
▁measures	-8721
▁murdered	-8722
▁supplied	-8723
▁arguments	-8724
▁exquisite	-8725
▁ferocious	-8726
▁offspring	-8727
▁respected	-8728
▁tormented	-8729
▁describing	-8730
▁generation	-8731
▁instrument	-8732
▁entertained	-8733
▁preparation	-8734
VEN	-8735
bow	-8736
ird	-8737
jac	-8738
lat	-8739
urb	-8740
▁Ac	-8741
▁Im	-8742
UTIO	-8743
bacc	-8744
lini	-8745
sect	-8746
▁NOT	-8747
▁hay	-8748
▁sne	-8749
actly	-8750
count	-8751
erald	-8752
erval	-8753
hered	-8754
white	-8755
▁Bald	-8756
▁Love	-8757
▁THAT	-8758
▁bust	-8759
▁debt	-8760
▁nest	-8761
▁outl	-8762
▁oxen	-8763
▁tele	-8764
▁azure	-8765
▁embro	-8766
▁inexp	-8767
▁magic	-8768
▁paced	-8769
▁panic	-8770
▁patri	-8771
▁score	-8772
▁shaft	-8773
▁shoot	-8774
▁theft	-8775
▁veget	-8776
inently	-8777
iveness	-8778
▁Edward	-8779
▁affirm	-8780
▁bullet	-8781
▁career	-8782
▁divide	-8783
▁judges	-8784
▁pallor	-8785
▁slaves	-8786
▁stated	-8787
▁subter	-8788
▁tavern	-8789
▁transf	-8790
▁viewed	-8791
umerable	-8792
▁Capulet	-8793
▁Kurágin	-8794
▁attacks	-8795
▁blushed	-8796
▁dispute	-8797
▁doctors	-8798
▁doorway	-8799
▁edition	-8800
▁extingu	-8801
▁passers	-8802
▁pretext	-8803
▁seeming	-8804
▁shortly	-8805
▁Faubourg	-8806
▁Karatáev	-8807
▁MERCUTIO	-8808
▁converse	-8809
▁fourteen	-8810
▁falsehood	-8811
▁quivering	-8812
▁commanders	-8813
▁discipline	-8814
▁occupation	-8815
▁opposition	-8816
▁surprising	-8817
▁whatsoever	-8818
’;	-8819
ata	-8820
nib	-8821
pen	-8822
rec	-8823
rus	-8824
▁ze	-8825
balt	-8826
bled	-8827
bons	-8828
cuse	-8829
kers	-8830
omte	-8831
pers	-8832
▁(2)	-8833
▁Lat	-8834
▁Str	-8835
▁XXI	-8836
▁tid	-8837
Every	-8838
istoc	-8839
urday	-8840
urrah	-8841
▁Arab	-8842
▁duel	-8843
▁file	-8844
gments	-8845
▁Egypt	-8846
▁Night	-8847
▁Think	-8848
▁analy	-8849
▁anter	-8850
▁blaze	-8851
▁evils	-8852
▁hovel	-8853
▁nails	-8854
▁newly	-8855
▁pages	-8856
▁scent	-8857
▁spoil	-8858
atively	-8859
▁Doctor	-8860
▁Teresa	-8861
▁Vulcan	-8862
▁Wicked	-8863
▁abomin	-8864
▁coldly	-8865
▁cultiv	-8866
▁cursed	-8867
▁inches	-8868
▁raging	-8869
▁seamen	-8870
▁sheets	-8871
▁transp	-8872
▁Aristot	-8873
▁dazzled	-8874
▁grounds	-8875
▁lifting	-8876
▁policem	-8877
▁reverse	-8878
▁whistle	-8879
▁accounts	-8880
▁backward	-8881
▁daybreak	-8882
▁descends	-8883
▁indicate	-8884
▁invented	-8885
▁referred	-8886
▁retorted	-8887
▁uncommon	-8888
▁conceived	-8889
▁searching	-8890
▁spiritual	-8891
▁wandering	-8892
▁benefactor	-8893
▁insignific	-8894
▁passionate	-8895
▁questioned	-8896
▁respectful	-8897
▁struggling	-8898
▁triumphant	-8899
▁application	-8900
▁catastrophe	-8901
▁innumerable	-8902
▁unconsciously	-8903
En	-8904
UC	-8905
▁à	-8906
aph	-8907
iac	-8908
▁Co	-8909
▁ma	-8910
Some	-8911
cier	-8912
fold	-8913
mast	-8914
orus	-8915
post	-8916
riel	-8917
▁Pel	-8918
▁Pyl	-8919
▁Ros	-8920
▁Tim	-8921
▁bea	-8922
▁coo	-8923
▁dug	-8924
▁enl	-8925
▁jet	-8926
▁lun	-8927
▁oft	-8928
▁tin	-8929
▁ult	-8930
olomy	-8931
▁Does	-8932
▁Five	-8933
▁Vien	-8934
▁beam	-8935
▁fath	-8936
▁fits	-8937
▁impl	-8938
atives	-8939
ements	-8940
ulties	-8941
velope	-8942
▁FRIAR	-8943
▁Green	-8944
▁darts	-8945
▁delir	-8946
▁dined	-8947
▁hedge	-8948
▁mates	-8949
▁moist	-8950
▁scrap	-8951
▁spell	-8952
▁stove	-8953
▁trump	-8954
▁vanqu	-8955
nothing	-8956
olomyès	-8957
oration	-8958
▁Turtle	-8959
▁Tybalt	-8960
▁acting	-8961
▁advers	-8962
▁divers	-8963
▁fulfil	-8964
▁hoping	-8965
▁stable	-8966
▁thrice	-8967
▁tobacc	-8968
▁unseen	-8969
▁Emerald	-8970
▁Olympus	-8971
▁amusing	-8972
▁augment	-8973
▁bullets	-8974
▁chances	-8975
▁flashed	-8976
▁largest	-8977
▁persist	-8978
▁puzzled	-8979
▁sternly	-8980
▁writers	-8981
▁American	-8982
▁assassin	-8983
▁bulwarks	-8984
▁desirous	-8985
▁groaning	-8986
▁paradise	-8987
▁preoccup	-8988
▁sentinel	-8989
▁suitable	-8990
▁Aristotle	-8991
▁objection	-8992
▁preferred	-8993
▁stationed	-8994
▁whiteness	-8995
▁adventures	-8996
▁atmosphere	-8997
▁impatience	-8998
▁maintained	-8999
▁perceiving	-9000
▁respecting	-9001
▁embarrassed	-9002
▁respectable	-9003
▁wretchedness	-9004
15	-9005
TY	-9006
’,	-9007
Car	-9008
ROM	-9009
car	-9010
ems	-9011
jon	-9012
▁Bu	-9013
▁Up	-9014
▁cu	-9015
anny	-9016
ouss	-9017
ping	-9018
▁LAW	-9019
▁Tem	-9020
▁loo	-9021
▁pad	-9022
!...”	-9023
armes	-9024
isive	-9025
izard	-9026
othes	-9027
uated	-9028
▁Cons	-9029
▁brut	-9030
▁clad	-9031
▁conj	-9032
▁fund	-9033
▁hadn	-9034
▁hing	-9035
▁jury	-9036
▁mute	-9037
▁nail	-9038
▁sack	-9039
antime	-9040
ryphon	-9041
▁backs	-9042
▁clung	-9043
▁costs	-9044
▁debts	-9045
▁gamin	-9046
▁goats	-9047
▁issue	-9048
▁petty	-9049
▁rolls	-9050
▁thigh	-9051
▁thumb	-9052
▁weigh	-9053
▁condes	-9054
▁groans	-9055
▁hasten	-9056
▁hearth	-9057
▁indisp	-9058
▁pounds	-9059
▁shower	-9060
▁theirs	-9061
▁trench	-9062
▁Livesey	-9063
▁carries	-9064
▁commiss	-9065
▁essence	-9066
▁furnish	-9067
▁handful	-9068
▁phantom	-9069
▁thieves	-9070
▁twisted	-9071
▁Saturday	-9072
▁educated	-9073
▁lowering	-9074
▁skeleton	-9075
▁wondered	-9076
▁wrinkled	-9077
▁customary	-9078
▁faculties	-9079
▁gymnastic	-9080
▁imitation	-9081
▁instances	-9082
▁neglected	-9083
▁philosoph	-9084
▁sparkling	-9085
▁forgetting	-9086
▁procession	-9087
▁resistance	-9088
▁grandmother	-9089
▁illustrious	-9090
▁acquaintances	-9091
▁establishment	-9092
.”—	-9093
OSE	-9094
bes	-9095
cap	-9096
noe	-9097
pef	-9098
xem	-9099
▁SA	-9100
▁Tw	-9101
▁eh	-9102
only	-9103
rawn	-9104
such	-9105
thus	-9106
▁Lou	-9107
▁dyn	-9108
▁fug	-9109
▁gas	-9110
abled	-9111
inged	-9112
spect	-9113
▁Cape	-9114
▁Lake	-9115
▁Mock	-9116
▁Tash	-9117
▁duck	-9118
▁gale	-9119
▁impe	-9120
▁matt	-9121
▁symb	-9122
castle	-9123
herent	-9124
▁Luxem	-9125
▁abund	-9126
▁exper	-9127
▁faire	-9128
▁holes	-9129
▁maxim	-9130
▁miser	-9131
▁novel	-9132
▁ornam	-9133
▁physi	-9134
▁poems	-9135
▁revel	-9136
▁roofs	-9137
▁thund	-9138
idently	-9139
▁angels	-9140
▁bathed	-9141
▁bounds	-9142
▁bucket	-9143
▁carpet	-9144
▁growth	-9145
▁immort	-9146
▁induce	-9147
▁indust	-9148
▁invari	-9149
▁meadow	-9150
▁oppose	-9151
▁plains	-9152
▁proofs	-9153
▁resent	-9154
▁serene	-9155
▁termed	-9156
▁Clerval	-9157
▁Spartan	-9158
▁endured	-9159
▁fearing	-9160
▁glowing	-9161
▁gravity	-9162
▁planted	-9163
▁praying	-9164
▁regards	-9165
▁satisfy	-9166
▁stirred	-9167
▁tobacco	-9168
▁joyfully	-9169
▁converted	-9170
▁enjoyment	-9171
▁personage	-9172
▁stammered	-9173
▁Luxembourg	-9174
▁penetrated	-9175
▁complicated	-9176
▁introduction	-9177
vo	-9178
gen	-9179
iem	-9180
isl	-9181
ser	-9182
▁Ga	-9183
dled	-9184
gram	-9185
riar	-9186
▁Jes	-9187
▁XXX	-9188
▁kne	-9189
▁shy	-9190
▁tub	-9191
allel	-9192
heads	-9193
lored	-9194
ppers	-9195
▁Germ	-9196
▁belt	-9197
▁cure	-9198
▁dame	-9199
▁ejac	-9200
▁fasc	-9201
▁fist	-9202
▁knot	-9203
▁sket	-9204
▁spar	-9205
▁subd	-9206
affold	-9207
alling	-9208
dering	-9209
vation	-9210
▁Murat	-9211
▁Nurse	-9212
▁Place	-9213
▁accus	-9214
▁colle	-9215
▁coron	-9216
▁groom	-9217
▁hasty	-9218
▁sable	-9219
▁skirt	-9220
▁songs	-9221
▁vexed	-9222
▁Busoni	-9223
▁Except	-9224
▁Ivánov	-9225
▁advise	-9226
▁arrows	-9227
▁awaken	-9228
▁compar	-9229
▁domain	-9230
▁flowed	-9231
▁ghosts	-9232
▁gloves	-9233
▁hammer	-9234
▁longed	-9235
▁multip	-9236
▁paraly	-9237
▁scound	-9238
▁stupef	-9239
▁volume	-9240
▁weaker	-9241
▁aristoc	-9242
▁dangers	-9243
▁discont	-9244
▁dislike	-9245
▁doubted	-9246
▁drowned	-9247
▁guarded	-9248
▁horrors	-9249
▁lessons	-9250
▁marched	-9251
▁mortals	-9252
▁prophet	-9253
▁thereby	-9254
▁victims	-9255
▁Everyone	-9256
▁Meantime	-9257
▁delicacy	-9258
▁garments	-9259
▁proposal	-9260
▁scaffold	-9261
▁sunlight	-9262
▁animation	-9263
▁attendant	-9264
▁encourage	-9265
▁readiness	-9266
▁regarding	-9267
▁spreading	-9268
▁expressing	-9269
▁lieutenant	-9270
▁sentiments	-9271
withstanding	-9272
▁impatiently	-9273
▁superiority	-9274
▁disappointment	-9275
Pr	-9276
PAN	-9277
fit	-9278
rol	-9279
▁3.	-9280
▁Ev	-9281
▁cy	-9282
Jean	-9283
apse	-9284
cien	-9285
gian	-9286
iday	-9287
open	-9288
oubt	-9289
▁Asi	-9290
▁Sec	-9291
▁Thé	-9292
▁Yan	-9293
▁lee	-9294
▁map	-9295
aning	-9296
innie	-9297
mates	-9298
three	-9299
▁Mery	-9300
▁None	-9301
▁Pray	-9302
▁cash	-9303
▁dece	-9304
▁ench	-9305
▁genu	-9306
▁hook	-9307
▁lieu	-9308
▁owns	-9309
▁tack	-9310
digger	-9311
rating	-9312
upiter	-9313
▁Cæsar	-9314
▁Maire	-9315
▁blade	-9316
▁chill	-9317
▁draws	-9318
▁fiend	-9319
▁ineff	-9320
▁louis	-9321
▁madam	-9322
▁range	-9323
▁union	-9324
▁Brujon	-9325
▁Church	-9326
▁Fierce	-9327
▁Thetis	-9328
▁Vienna	-9329
▁adding	-9330
▁coloss	-9331
▁nerves	-9332
▁provin	-9333
▁rubbed	-9334
▁sleepy	-9335
▁tasted	-9336
▁welcom	-9337
▁Charles	-9338
▁Meryton	-9339
▁bravest	-9340
▁nowhere	-9341
▁refusal	-9342
▁reigned	-9343
▁rewards	-9344
▁Although	-9345
▁catching	-9346
▁diamonds	-9347
▁dropping	-9348
▁replying	-9349
▁vicinity	-9350
▁Frenchmen	-9351
▁attempted	-9352
▁enveloped	-9353
▁interpret	-9354
▁resembles	-9355
▁swineherd	-9356
▁whistling	-9357
▁temperance	-9358
▁significant	-9359
▁dispositions	-9360
LI	-9361
kó	-9362
ád	-9363
ARK	-9364
eus	-9365
mir	-9366
nut	-9367
oom	-9368
bear	-9369
cles	-9370
ient	-9371
ieth	-9372
olio	-9373
uary	-9374
zard	-9375
▁Use	-9376
▁Vol	-9377
▁lid	-9378
▁ram	-9379
▁tut	-9380
▁voc	-9381
RENCE	-9382
These	-9383
cifix	-9384
woman	-9385
▁Vict	-9386
▁bagg	-9387
▁desk	-9388
▁econ	-9389
▁feed	-9390
▁gasp	-9391
▁hare	-9392
▁lung	-9393
velled	-9394
▁Dutch	-9395
▁Frank	-9396
▁bells	-9397
▁defin	-9398
▁dusty	-9399
▁entry	-9400
▁globe	-9401
▁irreg	-9402
▁moves	-9403
▁rhyth	-9404
▁sweat	-9405
▁tiger	-9406
▁token	-9407
▁Winnie	-9408
▁commer	-9409
▁hounds	-9410
▁legisl	-9411
▁morrow	-9412
▁precip	-9413
▁reveal	-9414
▁sphere	-9415
▁visits	-9416
▁baggage	-9417
▁blowing	-9418
▁flatter	-9419
▁floated	-9420
▁forests	-9421
▁frowned	-9422
▁healthy	-9423
▁pretend	-9424
▁serving	-9425
▁warlike	-9426
▁Bonapart	-9427
▁LAWRENCE	-9428
▁approved	-9429
▁consists	-9430
▁covering	-9431
▁cupboard	-9432
▁marching	-9433
▁prioress	-9434
▁released	-9435
▁respects	-9436
▁shrugged	-9437
▁shutters	-9438
▁smallest	-9439
▁steadily	-9440
▁universe	-9441
▁Baptistin	-9442
▁Tholomyès	-9443
▁assistant	-9444
▁believing	-9445
▁gendarmes	-9446
▁prevailed	-9447
▁stockings	-9448
▁tradition	-9449
▁uncomfort	-9450
▁witnesses	-9451
▁Phaeacians	-9452
▁expressive	-9453
▁inevitable	-9454
▁transferred	-9455
11	-9456
TE	-9457
axe	-9458
ero	-9459
haw	-9460
mor	-9461
whe	-9462
▁ti	-9463
Pray	-9464
alus	-9465
ante	-9466
bery	-9467
bors	-9468
clay	-9469
ilet	-9470
rown	-9471
ruck	-9472
tego	-9473
wart	-9474
▁Add	-9475
▁cli	-9476
▁fol	-9477
acing	-9478
athed	-9479
icpus	-9480
lemen	-9481
ratic	-9482
sibly	-9483
ursed	-9484
▁Aunt	-9485
▁Dron	-9486
▁Hold	-9487
▁agon	-9488
▁cuir	-9489
▁grin	-9490
▁mock	-9491
▁ratt	-9492
▁serp	-9493
▁void	-9494
▁wink	-9495
athieu	-9496
▁Catal	-9497
▁Could	-9498
▁Flint	-9499
▁abhor	-9500
▁appla	-9501
▁coinc	-9502
▁dares	-9503
▁likes	-9504
▁metap	-9505
▁sixth	-9506
▁slack	-9507
▁stake	-9508
▁verge	-9509
▁widow	-9510
▁wiped	-9511
atching	-9512
itively	-9513
▁Champs	-9514
▁Hatter	-9515
▁Pember	-9516
▁Philip	-9517
▁gladly	-9518
▁lawyer	-9519
▁livres	-9520
▁midday	-9521
▁nostri	-9522
▁repent	-9523
▁talent	-9524
▁vainly	-9525
▁Gryphon	-9526
▁Jupiter	-9527
▁bandits	-9528
▁cracked	-9529
▁inspire	-9530
▁marshal	-9531
▁prudent	-9532
▁renewed	-9533
▁seventh	-9534
▁solicit	-9535
▁stamped	-9536
▁thirsty	-9537
▁trained	-9538
▁Whatever	-9539
▁afforded	-9540
▁careless	-9541
▁drooping	-9542
▁envelope	-9543
▁grandeur	-9544
▁monument	-9545
▁preceded	-9546
▁pressure	-9547
▁relating	-9548
▁speedily	-9549
▁training	-9550
▁Pemberley	-9551
▁adjoining	-9552
▁extending	-9553
▁horseback	-9554
▁operation	-9555
▁possesses	-9556
▁purchased	-9557
▁regiments	-9558
▁responded	-9559
▁struggled	-9560
▁willingly	-9561
▁detachment	-9562
▁sensations	-9563
▁tumultuous	-9564
▁whispering	-9565
▁accordingly	-9566
▁extinguished	-9567
▁irresistible	-9568
gi	-9569
ARD	-9570
OND	-9571
bru	-9572
has	-9573
low	-9574
pri	-9575
rep	-9576
▁DI	-9577
▁Je	-9578
Wait	-9579
hile	-9580
wing	-9581
▁ecc	-9582
▁nap	-9583
▁rab	-9584
▁rug	-9585
icide	-9586
lying	-9587
ograp	-9588
▁Bill	-9589
▁bald	-9590
▁bids	-9591
▁buzz	-9592
▁fant	-9593
▁intr	-9594
▁leap	-9595
▁melt	-9596
▁puts	-9597
▁reco	-9598
▁sets	-9599
▁swam	-9600
▁vile	-9601
mighty	-9602
ridges	-9603
twenty	-9604
▁Horse	-9605
▁Smoll	-9606
▁Spain	-9607
▁Trans	-9608
▁adorn	-9609
▁fairy	-9610
▁inacc	-9611
▁incom	-9612
▁pious	-9613
▁rigid	-9614
▁simpl	-9615
▁stole	-9616
▁verse	-9617
▁Basque	-9618
▁errors	-9619
▁humili	-9620
▁infall	-9621
▁pacing	-9622
▁strife	-9623
▁uproar	-9624
▁warned	-9625
▁blazing	-9626
▁islands	-9627
▁lacking	-9628
▁mixture	-9629
▁studies	-9630
▁subsequ	-9631
▁weighed	-9632
▁whoever	-9633
▁Minister	-9634
▁Tashtego	-9635
▁abstract	-9636
▁allusion	-9637
▁appetite	-9638
▁calmness	-9639
▁ceremony	-9640
▁civility	-9641
▁disaster	-9642
▁dreaming	-9643
▁elevated	-9644
▁measured	-9645
▁polished	-9646
▁research	-9647
▁restrict	-9648
▁selected	-9649
▁terribly	-9650
▁vigorous	-9651
▁continual	-9652
▁divisions	-9653
▁forbidden	-9654
▁honorable	-9655
▁inhabited	-9656
▁irregular	-9657
▁pretended	-9658
▁recommend	-9659
▁sorrowful	-9660
▁carelessly	-9661
▁displeased	-9662
▁indicating	-9663
▁personally	-9664
▁Thénardiers	-9665
▁harpooneers	-9666
▁hospitality	-9667
▁embarrassment	-9668
▁simultaneously	-9669
ADY	-9670
IOL	-9671
Was	-9672
elf	-9673
ere	-9674
iel	-9675
loc	-9676
uer	-9677
▁IS	-9678
ders	-9679
gone	-9680
hess	-9681
opes	-9682
uity	-9683
Élys	-9684
▁189	-9685
▁Chi	-9686
▁IND	-9687
▁cud	-9688
▁doc	-9689
▁jer	-9690
▁les	-9691
▁lic	-9692
▁rou	-9693
▁vow	-9694
After	-9695
Would	-9696
inger	-9697
rates	-9698
▁Amph	-9699
▁Gold	-9700
▁Port	-9701
▁Toul	-9702
▁barb	-9703
▁goat	-9704
▁usur	-9705
estern	-9706
iation	-9707
éevich	-9708
▁April	-9709
▁House	-9710
▁Laert	-9711
▁exile	-9712
▁knoll	-9713
▁punct	-9714
▁tenth	-9715
legraph	-9716
Élysées	-9717
▁center	-9718
▁create	-9719
▁faster	-9720
▁hunted	-9721
▁judged	-9722
▁knight	-9723
▁louder	-9724
▁overfl	-9725
▁patter	-9726
▁prohib	-9727
▁quiver	-9728
▁ribbon	-9729
▁roared	-9730
▁snatch	-9731
▁statue	-9732
▁stores	-9733
▁Justine	-9734
▁approve	-9735
▁balance	-9736
▁condemn	-9737
▁cuirass	-9738
▁descent	-9739
▁ecstasy	-9740
▁fancies	-9741
▁motives	-9742
▁remembr	-9743
▁shields	-9744
▁spectre	-9745
▁washing	-9746
▁Highness	-9747
▁anteroom	-9748
▁articles	-9749
▁blessing	-9750
▁bursting	-9751
▁childish	-9752
▁curtains	-9753
▁security	-9754
▁stirring	-9755
▁vehicles	-9756
▁wrinkles	-9757
▁clearness	-9758
▁discussed	-9759
▁enchanted	-9760
▁hereafter	-9761
▁intending	-9762
▁provision	-9763
▁apparition	-9764
▁battalions	-9765
▁insurgents	-9766
▁objections	-9767
▁resembling	-9768
▁neighboring	-9769
▁resemblance	-9770
▁	-9771
e	-9772
t	-9773
a	-9774
o	-9775
n	-9776
h	-9777
i	-9778
s	-9779
r	-9780
d	-9781
l	-9782
u	-9783
m	-9784
c	-9785
w	-9786
f	-9787
g	-9788
,	-9789
y	-9790
p	-9791
b	-9792
.	-9793
v	-9794
k	-9795
I	-9796
T	-9797
“	-9798
”	-9799
A	-9800
’	-9801
;	-9802
H	-9803
M	-9804
-	-9805
S	-9806
x	-9807
P	-9808
W	-9809
?	-9810
C	-9811
B	-9812
E	-9813
!	-9814
j	-9815
N	-9816
O	-9817
q	-9818
R	-9819
—	-9820
D	-9821
G	-9822
F	-9823
L	-9824
:	-9825
z	-9826
Y	-9827
_	-9828
V	-9829
J	-9830
‘	-9831
1	-9832
U	-9833
é	-9834
"	-9835
0	-9836
á	-9837
(	-9838
)	-9839
K	-9840
ó	-9841
2	-9842
[	-9843
]	-9844
í	-9845
3	-9846
8	-9847
X	-9848
è	-9849
5	-9850
*	-9851
4	-9852
6	-9853
7	-9854
9	-9855
ú	-9856
Q	-9857
'	-9858
æ	-9859
Z	-9860
â	-9861
É	-9862
ë	-9863
ŭ	-9864
œ	-9865
/	-9866
Æ	-9867
ê	-9868
&	-9869
ü	-9870
ï	-9871
ο	-9872
§	-9873
à	-9874
ν	-9875
•	-9876
τ	-9877
ô	-9878
α	-9879
ç	-9880
î	-9881
ι	-9882
ρ	-9883
ε	-9884
σ	-9885
$	-9886
π	-9887
{	-9888
}	-9889
ö	-9890
£	-9891
ς	-9892
λ	-9893
μ	-9894
έ	-9895
=	-9896
δ	-9897
ý	-9898
|	-9899
#	-9900
η	-9901
κ	-9902
ù	-9903
%	-9904
υ	-9905
ί	-9906
γ	-9907
Œ	-9908
φ	-9909
+	-9910
θ	-9911
ό	-9912
ä	-9913
ὶ	-9914
ἀ	-9915
ἐ	-9916
ῖ	-9917
ω	-9918
ἰ	-9919
À	-9920
û	-9921
Á	-9922
ά	-9923
χ	-9924
ή	-9925
ὄ	-9926
ὸ	-9927
È	-9928
ύ	-9929
ὰ	-9930
′	-9931
ὐ	-9932
ὺ	-9933
ὼ	-9934
^	-9935
ἄ	-9936
Ὁ	-9937
ὲ	-9938
ῇ	-9939
ῳ	-9940
ῶ	-9941
Ε	-9942
Ν	-9943
β	-9944
ζ	-9945
ξ	-9946
ώ	-9947
ἑ	-9948
ἡ	-9949
ἦ	-9950
ῆ	-9951
ῥ	-9952
·	-9953
Ç	-9954
Ü	-9955
ñ	-9956
Κ	-9957
Μ	-9958
Ο	-9959
ἔ	-9960
ἕ	-9961
ἷ	-9962
ὀ	-9963
Ὅ	-9964
ὡ	-9965
ὦ	-9966
ᾳ	-9967
ῦ	-9968
ῷ	-9969
†	-9970
⁄	-9971
¶	-9972
ò	-9973
Δ	-9974
Θ	-9975
Π	-9976
ו	-9977
ח	-9978
ἂ	-9979
ἅ	-9980
ἆ	-9981
ἠ	-9982
ἤ	-9983
ἱ	-9984
ἴ	-9985
ἵ	-9986
Ἰ	-9987
ὁ	-9988
ὅ	-9989
Ὀ	-9990
ὔ	-9991
Ὡ	-9992
ὴ	-9993
ῤ	-9994
√	-9995
