<unk>	0
<s>	0
</s>	0
▁t	-0
he	-1
▁a	-2
▁the	-3
in	-4
▁s	-5
▁w	-6
▁o	-7
re	-8
nd	-9
▁h	-10
▁b	-11
er	-12
▁m	-13
ou	-14
▁i	-15
▁c	-16
at	-17
▁f	-18
ed	-19
▁and	-20
en	-21
▁of	-22
▁to	-23
is	-24
on	-25
▁d	-26
ing	-27
▁th	-28
▁p	-29
▁he	-30
es	-31
or	-32
an	-33
ll	-34
ar	-35
▁in	-36
as	-37
▁l	-38
it	-39
▁n	-40
▁g	-41
om	-42
▁ha	-43
▁wh	-44
▁be	-45
le	-46
▁e	-47
▁y	-48
ot	-49
ic	-50
ow	-51
ut	-52
▁that	-53
se	-54
ve	-55
▁on	-56
id	-57
st	-58
▁you	-59
ly	-60
▁re	-61
▁his	-62
im	-63
ld	-64
▁it	-65
▁was	-66
ent	-67
ce	-68
gh	-69
ith	-70
▁u	-71
▁r	-72
▁sa	-73
▁with	-74
et	-75
ion	-76
▁as	-77
al	-78
ver	-79
▁st	-80
ir	-81
▁we	-82
▁is	-83
▁for	-84
ad	-85
ur	-86
▁not	-87
ay	-88
ght	-89
▁at	-90
▁had	-91
▁an	-92
her	-93
ch	-94
▁him	-95
ill	-96
▁fr	-97
▁se	-98
oo	-99
▁but	-100
ter	-101
▁sh	-102
ain	-103
▁her	-104
ct	-105
am	-106
ich	-107
▁me	-108
▁so	-109
ould	-110
ke	-111
▁v	-112
all	-113
▁de	-114
ro	-115
ight	-116
▁which	-117
▁my	-118
▁su	-119
▁all	-120
ess	-121
red	-122
il	-123
▁have	-124
ri	-125
us	-126
▁this	-127
ore	-128
▁whe	-129
▁she	-130
▁k	-131
▁ch	-132
▁said	-133
ac	-134
▁by	-135
pe	-136
▁who	-137
▁con	-138
▁from	-139
▁li	-140
▁do	-141
ard	-142
qu	-143
▁they	-144
ome	-145
ap	-146
ant	-147
ul	-148
▁j	-149
ge	-150
▁al	-151
▁or	-152
and	-153
th	-154
res	-155
ble	-156
▁ex	-157
▁one	-158
▁no	-159
▁ne	-160
▁man	-161
ous	-162
ust	-163
▁there	-164
nt	-165
ers	-166
ie	-167
▁are	-168
▁what	-169
est	-170
▁up	-171
sel	-172
▁were	-173
os	-174
▁fe	-175
ist	-176
ast	-177
very	-178
▁will	-179
▁go	-180
pp	-181
ol	-182
ra	-183
▁when	-184
ound	-185
em	-186
ation	-187
▁them	-188
ind	-189
▁ar	-190
▁le	-191
out	-192
ood	-193
fe	-194
art	-195
ong	-196
our	-197
▁then	-198
▁int	-199
▁kn	-200
▁com	-201
ak	-202
▁their	-203
self	-204
▁ab	-205
▁pr	-206
um	-207
ate	-208
un	-209
▁your	-210
ort	-211
one	-212
▁ro	-213
ig	-214
ame	-215
▁if	-216
ven	-217
▁would	-218
au	-219
▁been	-220
▁sp	-221
▁tr	-222
ther	-223
ked	-224
▁out	-225
▁wor	-226
▁un	-227
ough	-228
▁ag	-229
hed	-230
▁pl	-231
▁gre	-232
▁am	-233
▁qu	-234
ose	-235
ity	-236
te	-237
ost	-238
▁now	-239
ive	-240
own	-241
ine	-242
▁more	-243
if	-244
▁pro	-245
▁br	-246
ck	-247
▁af	-248
urn	-249
ace	-250
ount	-251
pl	-252
ure	-253
▁im	-254
▁some	-255
ved	-256
itt	-257
ack	-258
ass	-259
▁into	-260
ag	-261
▁en	-262
▁tw	-263
hing	-264
pt	-265
▁mad	-266
ice	-267
▁tim	-268
▁other	-269
nder	-270
▁has	-271
ance	-272
▁any	-273
ake	-274
op	-275
▁gr	-276
ide	-277
able	-278
▁ad	-279
ep	-280
▁bl	-281
▁cl	-282
▁can	-283
▁did	-284
ars	-285
ue	-286
▁like	-287
▁know	-288
▁could	-289
ry	-290
▁hand	-291
▁see	-292
▁only	-293
▁how	-294
ies	-295
ab	-296
ire	-297
▁loo	-298
▁dis	-299
▁us	-300
ove	-301
ought	-302
other	-303
▁te	-304
de	-305
ite	-306
way	-307
▁very	-308
are	-309
▁again	-310
▁say	-311
cc	-312
▁mar	-313
▁po	-314
ress	-315
ied	-316
▁fl	-317
fore	-318
ang	-319
▁than	-320
el	-321
ather	-322
ving	-323
ence	-324
▁co	-325
▁over	-326
wn	-327
ert	-328
..	-329
▁time	-330
▁well	-331
ious	-332
ated	-333
ier	-334
▁too	-335
▁day	-336
▁should	-337
▁about	-338
▁every	-339
▁bo	-340
▁our	-341
ile	-342
ish	-343
▁pe	-344
we	-345
ink	-346
age	-347
▁count	-348
ment	-349
▁fir	-350
▁thr	-351
▁good	-352
ings	-353
ath	-354
▁per	-355
ach	-356
▁two	-357
ves	-358
ans	-359
ren	-360
▁long	-361
me	-362
▁great	-363
▁must	-364
▁after	-365
ally	-366
▁these	-367
▁himself	-368
▁may	-369
▁let	-370
▁its	-371
▁rem	-372
▁off	-373
ward	-374
ree	-375
▁before	-376
▁ey	-377
▁str	-378
ise	-379
▁cr	-380
ft	-381
▁des	-382
ful	-383
▁gl	-384
▁sm	-385
per	-386
ittle	-387
▁under	-388
▁sc	-389
▁fo	-390
▁pre	-391
▁little	-392
▁where	-393
ds	-394
ness	-395
▁old	-396
ions	-397
▁down	-398
ip	-399
▁first	-400
▁prin	-401
anc	-402
▁even	-403
▁made	-404
▁cont	-405
▁such	-406
▁come	-407
ors	-408
▁men	-409
▁just	-410
▁mon	-411
▁spe	-412
▁arm	-413
▁beg	-414
▁bec	-415
▁upon	-416
cl	-417
iz	-418
▁thought	-419
bl	-420
▁seem	-421
▁shall	-422
ull	-423
▁fa	-424
▁here	-425
si	-426
▁mu	-427
ried	-428
ild	-429
▁pass	-430
▁em	-431
ary	-432
▁head	-433
int	-434
ouse	-435
▁way	-436
▁ret	-437
ont	-438
▁still	-439
▁went	-440
ave	-441
king	-442
▁came	-443
▁own	-444
ning	-445
▁ent	-446
▁part	-447
ect	-448
▁eyes	-449
▁res	-450
llow	-451
ks	-452
▁turn	-453
ond	-454
ened	-455
▁mor	-456
▁ho	-457
▁those	-458
ud	-459
▁back	-460
ff	-461
▁think	-462
ng	-463
▁much	-464
ci	-465
▁bet	-466
▁never	-467
▁through	-468
▁ap	-469
▁without	-470
▁father	-471
▁nat	-472
ign	-473
▁som	-474
▁ye	-475
▁op	-476
▁car	-477
▁yes	-478
ady	-479
ber	-480
▁att	-481
▁same	-482
▁imp	-483
ty	-484
▁comp	-485
▁sl	-486
▁ob	-487
ick	-488
▁might	-489
rew	-490
▁somet	-491
▁house	-492
▁away	-493
▁nothing	-494
▁lo	-495
led	-496
ord	-497
▁life	-498
▁acc	-499
iv	-500
▁pres	-501
▁comm	-502
ons	-503
▁cons	-504
ss	-505
▁wat	-506
ared	-507
▁young	-508
ily	-509
▁ser	-510
▁last	-511
iend	-512
ale	-513
▁pos	-514
▁call	-515
ase	-516
▁la	-517
▁tell	-518
▁happ	-519
ause	-520
so	-521
▁most	-522
aking	-523
pect	-524
▁friend	-525
▁being	-526
thing	-527
▁while	-528
▁yet	-529
▁bre	-530
▁bel	-531
oth	-532
oment	-533
od	-534
▁chap	-535
cess	-536
▁moment	-537
less	-538
ction	-539
▁wr	-540
▁another	-541
▁saw	-542
av	-543
▁night	-544
hes	-545
air	-546
▁though	-547
▁make	-548
▁rep	-549
▁take	-550
▁once	-551
▁chapter	-552
▁room	-553
ory	-554
ered	-555
ean	-556
▁app	-557
▁gen	-558
▁door	-559
▁end	-560
ne	-561
ark	-562
lt	-563
arm	-564
▁vo	-565
▁left	-566
sh	-567
▁right	-568
▁get	-569
▁light	-570
ult	-571
▁el	-572
vent	-573
▁cap	-574
▁took	-575
▁seemed	-576
▁dist	-577
▁ke	-578
▁repl	-579
▁face	-580
man	-581
atter	-582
▁pier	-583
▁rec	-584
ertain	-585
dd	-586
▁val	-587
▁1	-588
ict	-589
ced	-590
▁return	-591
▁child	-592
ished	-593
▁found	-594
wards	-595
▁form	-596
ained	-597
▁three	-598
▁heard	-599
ner	-600
▁tre	-601
▁jo	-602
orm	-603
▁wom	-604
der	-605
igh	-606
ret	-607
▁appe	-608
ix	-609
▁prince	-610
ants	-611
row	-612
▁mr	-613
ently	-614
▁ple	-615
▁why	-616
▁sil	-617
▁inst	-618
▁gu	-619
ither	-620
▁wa	-621
ever	-622
▁sec	-623
▁replied	-624
ian	-625
ys	-626
▁looked	-627
amp	-628
iss	-629
▁asked	-630
▁ear	-631
▁dr	-632
▁heart	-633
▁something	-634
fort	-635
▁place	-636
▁hands	-637
▁exp	-638
aught	-639
ople	-640
▁whom	-641
▁cour	-642
ock	-643
ens	-644
▁pers	-645
▁god	-646
▁look	-647
▁mind	-648
ition	-649
▁whole	-650
▁began	-651
▁gener	-652
▁ill	-653
▁cor	-654
▁ter	-655
lf	-656
ways	-657
▁kne	-658
▁wind	-659
▁people	-660
▁ph	-661
▁love	-662
ius	-663
▁ass	-664
▁put	-665
▁round	-666
▁each	-667
▁side	-668
▁beh	-669
▁sw	-670
▁certain	-671
▁rest	-672
▁hor	-673
▁many	-674
ations	-675
ov	-676
▁ans	-677
▁give	-678
▁feel	-679
ject	-680
og	-681
▁sou	-682
▁supp	-683
ower	-684
▁having	-685
▁gi	-686
▁new	-687
▁nor	-688
▁seen	-689
▁war	-690
▁"	-691
ange	-692
ched	-693
▁ind	-694
▁inf	-695
▁sur	-696
▁oh	-697
▁hel	-698
▁sat	-699
▁follow	-700
▁ac	-701
▁add	-702
▁always	-703
▁set	-704
ps	-705
▁dra	-706
▁pierre	-707
▁ins	-708
▁soon	-709
▁mother	-710
▁far	-711
▁bar	-712
▁thus	-713
fect	-714
uck	-715
▁underst	-716
▁reg	-717
▁par	-718
▁because	-719
ows	-720
▁also	-721
▁sle	-722
▁want	-723
ating	-724
▁felt	-725
ook	-726
▁hu	-727
▁dear	-728
▁against	-729
▁conf	-730
ired	-731
▁tal	-732
▁ben	-733
sible	-734
ru	-735
▁min	-736
▁sin	-737
▁ever	-738
les	-739
get	-740
▁mo	-741
▁dif	-742
ail	-743
▁find	-744
ged	-745
▁ev	-746
aken	-747
cept	-748
oke	-749
ised	-750
▁near	-751
▁point	-752
ief	-753
▁things	-754
▁ah	-755
▁ma	-756
ined	-757
▁going	-758
▁voice	-759
att	-760
most	-761
ield	-762
iness	-763
▁death	-764
▁cle	-765
▁inte	-766
▁told	-767
ern	-768
▁words	-769
▁thing	-770
▁cann	-771
▁both	-772
...	-773
vers	-774
als	-775
▁pur	-776
▁sub	-777
▁sir	-778
▁son	-779
▁dang	-780
▁name	-781
cy	-782
▁vill	-783
▁done	-784
▁quite	-785
▁turned	-786
ates	-787
aps	-788
▁occ	-789
▁does	-790
▁pleas	-791
ying	-792
▁world	-793
ting	-794
cei	-795
ical	-796
▁del	-797
▁hum	-798
▁fall	-799
▁char	-800
dden	-801
ute	-802
ween	-803
rench	-804
▁inter	-805
eth	-806
▁read	-807
▁ship	-808
▁between	-809
ides	-810
▁rel	-811
▁sun	-812
▁ste	-813
az	-814
ters	-815
▁hour	-816
▁soul	-817
ited	-818
▁true	-819
▁ref	-820
▁cried	-821
▁sudden	-822
▁mean	-823
▁adv	-824
ling	-825
▁myself	-826
ade	-827
▁vis	-828
uth	-829
▁fore	-830
osed	-831
▁rus	-832
▁hear	-833
ung	-834
▁thy	-835
its	-836
▁full	-837
aint	-838
▁knew	-839
▁bed	-840
▁poor	-841
up	-842
▁present	-843
ole	-844
aven	-845
▁contin	-846
ats	-847
▁sn	-848
▁ide	-849
ains	-850
▁inc	-851
aut	-852
selves	-853
ial	-854
▁dont	-855
▁open	-856
men	-857
▁stand	-858
▁order	-859
▁sk	-860
▁dou	-861
▁dead	-862
▁morning	-863
▁among	-864
ug	-865
rest	-866
▁che	-867
▁four	-868
ross	-869
▁called	-870
▁since	-871
bt	-872
ures	-873
▁french	-874
ank	-875
▁towards	-876
▁half	-877
▁word	-878
▁stre	-879
xt	-880
ued	-881
▁state	-882
▁mer	-883
▁hard	-884
▁years	-885
ured	-886
ins	-887
ott	-888
▁cou	-889
▁act	-890
▁however	-891
pped	-892
▁kind	-893
▁work	-894
▁behind	-895
oud	-896
the	-897
irl	-898
▁hon	-899
▁marius	-900
ple	-901
▁water	-902
▁sim	-903
▁sort	-904
ets	-905
▁home	-906
rave	-907
▁almost	-908
▁gave	-909
ressed	-910
ces	-911
ason	-912
▁care	-913
nded	-914
▁dark	-915
▁fam	-916
▁quest	-917
▁heaven	-918
▁few	-919
▁understand	-920
▁cannot	-921
owed	-922
▁inde	-923
▁es	-924
ual	-925
▁cur	-926
ention	-927
▁others	-928
ular	-929
▁air	-930
▁black	-931
▁woman	-932
▁passed	-933
cri	-934
▁matter	-935
▁herself	-936
▁bes	-937
▁disc	-938
▁art	-939
▁dre	-940
▁aw	-941
ready	-942
▁lay	-943
▁already	-944
▁alone	-945
▁speak	-946
ife	-947
▁stood	-948
▁got	-949
ering	-950
▁eng	-951
▁anything	-952
che	-953
▁arms	-954
▁wal	-955
▁sound	-956
▁everything	-957
▁natsh	-958
▁capt	-959
▁sent	-960
▁serv	-961
▁belie	-962
▁better	-963
▁king	-964
▁white	-965
▁lar	-966
▁sign	-967
▁taken	-968
li	-969
▁pol	-970
ached	-971
aced	-972
▁bod	-973
▁bro	-974
▁whose	-975
ub	-976
▁dire	-977
▁girl	-978
▁sold	-979
▁fire	-980
▁whale	-981
rel	-982
▁swe	-983
irt	-984
▁till	-985
▁mis	-986
▁sing	-987
oc	-988
▁fear	-989
▁high	-990
▁best	-991
▁days	-992
▁thir	-993
ph	-994
▁ra	-995
▁jean	-996
▁small	-997
▁general	-998
▁wall	-999
ents	-1000
▁fur	-1001
ceived	-1002
▁offic	-1003
▁dep	-1004
▁list	-1005
used	-1006
ister	-1007
gth	-1008
▁sleep	-1009
▁longer	-1010
ible	-1011
▁gent	-1012
iet	-1013
▁inv	-1014
▁person	-1015
▁natsha	-1016
ctor	-1017
▁power	-1018
▁x	-1019
▁andrew	-1020
▁fell	-1021
▁hus	-1022
illed	-1023
▁ed	-1024
▁beaut	-1025
▁monte	-1026
uc	-1027
▁suddenly	-1028
haps	-1029
▁along	-1030
bert	-1031
▁cre	-1032
▁thou	-1033
▁command	-1034
▁crist	-1035
med	-1036
wer	-1037
▁rost	-1038
wh	-1039
▁ir	-1040
ully	-1041
▁valj	-1042
be	-1043
▁perhaps	-1044
ably	-1045
▁sea	-1046
▁whether	-1047
▁second	-1048
▁next	-1049
aughter	-1050
itu	-1051
▁vi	-1052
▁sure	-1053
▁ground	-1054
ized	-1055
▁ran	-1056
▁brought	-1057
uring	-1058
▁less	-1059
▁madame	-1060
▁keep	-1061
▁princess	-1062
ash	-1063
▁red	-1064
▁cristo	-1065
▁saying	-1066
▁run	-1067
▁army	-1068
▁unt	-1069
orrow	-1070
▁cond	-1071
▁ville	-1072
let	-1073
na	-1074
▁fact	-1075
oset	-1076
▁hold	-1077
aces	-1078
▁batt	-1079
▁villefort	-1080
▁express	-1081
▁leave	-1082
ately	-1083
aring	-1084
▁reason	-1085
▁wood	-1086
▁real	-1087
▁col	-1088
▁gentle	-1089
▁abs	-1090
▁chief	-1091
akes	-1092
▁wife	-1093
▁valjean	-1094
▁adm	-1095
▁pri	-1096
▁2	-1097
▁wo	-1098
ceed	-1099
▁aff	-1100
▁det	-1101
riage	-1102
▁step	-1103
ison	-1104
▁looking	-1105
iting	-1106
00	-1107
▁ca	-1108
▁help	-1109
▁themselves	-1110
▁ang	-1111
ken	-1112
▁evening	-1113
▁fin	-1114
▁indeed	-1115
▁arri	-1116
iled	-1117
▁coset	-1118
▁obs	-1119
fully	-1120
▁enough	-1121
▁human	-1122
▁suff	-1123
▁wish	-1124
▁ce	-1125
▁rather	-1126
ract	-1127
rent	-1128
▁ext	-1129
▁prop	-1130
▁large	-1131
pr	-1132
ines	-1133
▁dec	-1134
▁opp	-1135
▁terri	-1136
▁doubt	-1137
▁given	-1138
▁bus	-1139
wered	-1140
ool	-1141
▁country	-1142
rie	-1143
day	-1144
br	-1145
▁returned	-1146
▁cir	-1147
▁need	-1148
gether	-1149
▁together	-1150
une	-1151
iers	-1152
ery	-1153
ense	-1154
▁gold	-1155
▁answered	-1156
ns	-1157
land	-1158
▁rostv	-1159
app	-1160
▁deep	-1161
▁tro	-1162
▁really	-1163
imes	-1164
▁cal	-1165
▁pa	-1166
▁lau	-1167
▁tom	-1168
tered	-1169
▁appro	-1170
▁gone	-1171
▁remem	-1172
▁enem	-1173
▁mid	-1174
▁prom	-1175
▁table	-1176
▁law	-1177
▁sight	-1178
bed	-1179
▁brother	-1180
aster	-1181
old	-1182
ians	-1183
▁land	-1184
whe	-1185
▁feet	-1186
▁ut	-1187
▁lost	-1188
▁paris	-1189
▁earth	-1190
ndred	-1191
ances	-1192
▁question	-1193
oy	-1194
▁hundred	-1195
▁ru	-1196
▁close	-1197
▁around	-1198
ousand	-1199
▁div	-1200
▁dro	-1201
ments	-1202
▁evid	-1203
▁thousand	-1204
ching	-1205
▁live	-1206
▁course	-1207
▁hur	-1208
lars	-1209
▁prof	-1210
▁entered	-1211
iew	-1212
▁spoke	-1213
▁pat	-1214
ia	-1215
▁bu	-1216
▁bur	-1217
▁danglars	-1218
act	-1219
ided	-1220
by	-1221
▁body	-1222
▁ask	-1223
▁case	-1224
▁draw	-1225
▁cosette	-1226
▁dev	-1227
▁tri	-1228
▁believe	-1229
▁blood	-1230
oney	-1231
▁num	-1232
▁above	-1233
▁bene	-1234
▁five	-1235
▁certainly	-1236
mbl	-1237
▁dest	-1238
▁either	-1239
▁times	-1240
aim	-1241
owing	-1242
▁letter	-1243
▁strange	-1244
▁hope	-1245
▁six	-1246
▁expl	-1247
▁foot	-1248
fic	-1249
▁nap	-1250
▁den	-1251
▁strong	-1252
▁therefore	-1253
▁spr	-1254
▁di	-1255
▁front	-1256
▁road	-1257
▁expect	-1258
ities	-1259
▁diffe	-1260
▁fort	-1261
▁use	-1262
▁horse	-1263
▁tou	-1264
▁ve	-1265
▁appear	-1266
ned	-1267
ater	-1268
▁emper	-1269
▁fellow	-1270
▁gree	-1271
▁gard	-1272
▁least	-1273
▁smile	-1274
▁during	-1275
du	-1276
ane	-1277
▁met	-1278
▁idea	-1279
▁until	-1280
oss	-1281
▁held	-1282
▁opened	-1283
▁interest	-1284
▁move	-1285
▁grand	-1286
▁nature	-1287
▁continued	-1288
▁hist	-1289
ii	-1290
▁miss	-1291
▁short	-1292
▁clear	-1293
ils	-1294
▁captain	-1295
ution	-1296
▁friends	-1297
▁mist	-1298
▁fight	-1299
▁eye	-1300
ience	-1301
▁happy	-1302
ising	-1303
▁guard	-1304
▁wound	-1305
▁battle	-1306
▁become	-1307
▁hast	-1308
ility	-1309
▁yourself	-1310
▁circ	-1311
▁consid	-1312
ten	-1313
▁dri	-1314
▁rue	-1315
▁begin	-1316
▁gods	-1317
▁leg	-1318
▁coming	-1319
▁manner	-1320
▁possible	-1321
▁sometimes	-1322
itting	-1323
▁necess	-1324
▁joy	-1325
airs	-1326
▁exc	-1327
▁russi	-1328
ually	-1329
overed	-1330
▁itself	-1331
▁else	-1332
▁imag	-1333
▁pap	-1334
▁children	-1335
▁compan	-1336
▁eas	-1337
ey	-1338
▁sum	-1339
band	-1340
enty	-1341
▁esc	-1342
▁albert	-1343
▁unc	-1344
▁quick	-1345
▁within	-1346
ime	-1347
▁cut	-1348
▁start	-1349
▁field	-1350
▁napole	-1351
erm	-1352
▁shout	-1353
▁dem	-1354
▁mil	-1355
▁lady	-1356
itted	-1357
▁play	-1358
ror	-1359
▁pray	-1360
ased	-1361
sses	-1362
▁tem	-1363
▁phil	-1364
ught	-1365
▁excl	-1366
▁truth	-1367
▁window	-1368
▁mos	-1369
nding	-1370
▁added	-1371
▁rose	-1372
▁daughter	-1373
▁money	-1374
▁husband	-1375
▁mur	-1376
▁morrel	-1377
▁eliz	-1378
▁remained	-1379
iously	-1380
▁ten	-1381
anced	-1382
ric	-1383
▁uly	-1384
▁trans	-1385
▁became	-1386
ific	-1387
▁book	-1388
▁stra	-1389
▁view	-1390
▁sever	-1391
▁cold	-1392
lle	-1393
▁says	-1394
kh	-1395
iar	-1396
▁hair	-1397
otion	-1398
▁bring	-1399
oun	-1400
▁terrible	-1401
▁obser	-1402
▁lead	-1403
▁ulysses	-1404
iful	-1405
ape	-1406
▁lear	-1407
▁often	-1408
abeth	-1409
ety	-1410
▁bad	-1411
erous	-1412
▁crow	-1413
que	-1414
vert	-1415
▁mosc	-1416
▁sister	-1417
yr	-1418
▁elizabeth	-1419
▁fair	-1420
▁past	-1421
▁family	-1422
iver	-1423
▁meet	-1424
▁.	-1425
▁exist	-1426
▁ele	-1427
▁van	-1428
▁able	-1429
▁que	-1430
▁poss	-1431
▁stay	-1432
cul	-1433
▁repe	-1434
▁desp	-1435
▁dants	-1436
▁possess	-1437
lem	-1438
▁conc	-1439
▁force	-1440
▁cross	-1441
▁moscow	-1442
▁instant	-1443
ym	-1444
▁bir	-1445
▁means	-1446
arp	-1447
▁spir	-1448
▁equ	-1449
▁conv	-1450
▁appeared	-1451
▁women	-1452
bod	-1453
lled	-1454
▁ord	-1455
▁shad	-1456
▁making	-1457
▁inqu	-1458
▁followed	-1459
head	-1460
▁thats	-1461
▁taking	-1462
race	-1463
▁pet	-1464
▁sto	-1465
▁stren	-1466
▁subject	-1467
▁cat	-1468
rence	-1469
▁answer	-1470
▁town	-1471
▁gaz	-1472
ib	-1473
▁feeling	-1474
▁respect	-1475
ths	-1476
▁mus	-1477
amed	-1478
ages	-1479
▁mary	-1480
▁mount	-1481
▁18	-1482
ening	-1483
▁emperor	-1484
unt	-1485
▁low	-1486
▁street	-1487
▁direct	-1488
."	-1489
▁mag	-1490
▁exce	-1491
ient	-1492
iling	-1493
▁requ	-1494
▁stud	-1495
▁const	-1496
▁fle	-1497
▁known	-1498
ift	-1499
▁pu	-1500
▁hors	-1501
▁ready	-1502
ster	-1503
▁soci	-1504
▁object	-1505
▁fix	-1506
▁surpr	-1507
▁several	-1508
▁consider	-1509
alth	-1510
▁rev	-1511
ogn	-1512
▁talk	-1513
resh	-1514
ien	-1515
room	-1516
itude	-1517
▁fine	-1518
▁received	-1519
▁wonder	-1520
ury	-1521
▁die	-1522
▁cent	-1523
▁kept	-1524
▁prec	-1525
▁horses	-1526
rig	-1527
vern	-1528
▁quar	-1529
▁rap	-1530
ches	-1531
▁impos	-1532
anged	-1533
▁drew	-1534
▁lad	-1535
▁free	-1536
▁squ	-1537
▁reached	-1538
▁plain	-1539
▁seems	-1540
aw	-1541
ices	-1542
▁excell	-1543
▁age	-1544
▁mem	-1545
▁cast	-1546
par	-1547
olas	-1548
▁lea	-1549
▁city	-1550
▁prison	-1551
arch	-1552
▁cry	-1553
▁coll	-1554
▁napoleon	-1555
rupt	-1556
▁hes	-1557
▁flo	-1558
▁nich	-1559
▁stri	-1560
▁neither	-1561
▁beautiful	-1562
▁diffic	-1563
rat	-1564
▁mou	-1565
▁valent	-1566
▁garden	-1567
isf	-1568
▁fif	-1569
▁franc	-1570
▁partic	-1571
illes	-1572
▁disp	-1573
▁nicholas	-1574
▁din	-1575
▁gall	-1576
▁hol	-1577
▁tor	-1578
▁placed	-1579
ires	-1580
▁laugh	-1581
ledge	-1582
▁vict	-1583
▁twenty	-1584
▁expression	-1585
ots	-1586
use	-1587
where	-1588
▁forg	-1589
▁super	-1590
▁id	-1591
▁soldiers	-1592
▁prob	-1593
▁enemy	-1594
iment	-1595
▁une	-1596
▁acqu	-1597
utes	-1598
▁pen	-1599
body	-1600
▁pleasure	-1601
▁saint	-1602
▁silence	-1603
ls	-1604
▁da	-1605
gg	-1606
read	-1607
▁def	-1608
▁third	-1609
▁raised	-1610
▁different	-1611
▁remain	-1612
▁countess	-1613
ze	-1614
ump	-1615
oom	-1616
▁lu	-1617
▁pain	-1618
▁except	-1619
▁seeing	-1620
medi	-1621
▁mere	-1622
ask	-1623
▁beneath	-1624
▁justice	-1625
▁strength	-1626
▁perfect	-1627
ffect	-1628
▁whal	-1629
▁strang	-1630
▁3	-1631
appe	-1632
over	-1633
▁sol	-1634
▁fast	-1635
osop	-1636
▁sad	-1637
▁exclaim	-1638
▁remember	-1639
▁thee	-1640
▁drink	-1641
ior	-1642
▁est	-1643
▁line	-1644
▁philosop	-1645
▁recogn	-1646
sie	-1647
tern	-1648
▁ach	-1649
▁bit	-1650
▁turning	-1651
▁wis	-1652
▁cause	-1653
▁ones	-1654
▁peace	-1655
▁tried	-1656
▁visit	-1657
▁francs	-1658
▁hung	-1659
▁contr	-1660
▁dream	-1661
▁secret	-1662
▁valentine	-1663
to	-1664
ize	-1665
orn	-1666
inct	-1667
▁charac	-1668
▁struck	-1669
nard	-1670
▁bear	-1671
▁hardly	-1672
lo	-1673
nds	-1674
▁heav	-1675
▁crowd	-1676
▁fright	-1677
▁master	-1678
ms	-1679
▁ball	-1680
▁comple	-1681
erv	-1682
▁enj	-1683
▁prov	-1684
▁account	-1685
▁carriage	-1686
▁eat	-1687
▁opin	-1688
▁doctor	-1689
mes	-1690
ues	-1691
....	-1692
▁fre	-1693
▁port	-1694
▁beside	-1695
ney	-1696
blic	-1697
▁dut	-1698
▁fran	-1699
▁used	-1700
ature	-1701
▁bright	-1702
▁hero	-1703
▁conce	-1704
▁thnard	-1705
▁further	-1706
lect	-1707
▁dog	-1708
▁laid	-1709
▁business	-1710
▁impossible	-1711
▁pale	-1712
▁youth	-1713
▁standing	-1714
▁natur	-1715
▁effect	-1716
▁led	-1717
oll	-1718
oon	-1719
▁lord	-1720
ination	-1721
▁pie	-1722
ote	-1723
▁gun	-1724
dered	-1725
▁burn	-1726
▁doing	-1727
▁common	-1728
▁convers	-1729
omp	-1730
▁fav	-1731
▁trou	-1732
like	-1733
▁var	-1734
▁break	-1735
▁immedi	-1736
▁carried	-1737
▁sitting	-1738
▁evidently	-1739
▁later	-1740
bs	-1741
oof	-1742
▁comes	-1743
▁event	-1744
▁ast	-1745
sieur	-1746
▁auth	-1747
▁hill	-1748
▁accord	-1749
▁regard	-1750
▁monsieur	-1751
▁pay	-1752
▁sail	-1753
▁silver	-1754
▁mrs	-1755
▁happiness	-1756
▁dread	-1757
▁suppose	-1758
▁exclaimed	-1759
bly	-1760
empt	-1761
▁franz	-1762
▁mans	-1763
▁delight	-1764
▁stopped	-1765
reat	-1766
▁ought	-1767
ones	-1768
▁rich	-1769
▁across	-1770
▁post	-1771
▁dress	-1772
▁sweet	-1773
▁inn	-1774
▁sus	-1775
icked	-1776
owers	-1777
▁satisf	-1778
lling	-1779
▁tears	-1780
▁happened	-1781
yl	-1782
▁hat	-1783
▁jud	-1784
▁len	-1785
▁eight	-1786
▁forth	-1787
▁forward	-1788
▁position	-1789
▁living	-1790
▁number	-1791
▁officer	-1792
▁hours	-1793
▁attention	-1794
ead	-1795
▁wit	-1796
clock	-1797
▁calm	-1798
▁exper	-1799
▁speaking	-1800
aged	-1801
iced	-1802
▁iron	-1803
▁scar	-1804
▁descri	-1805
▁import	-1806
ger	-1807
ingly	-1808
▁purs	-1809
▁year	-1810
arent	-1811
▁watch	-1812
▁oclock	-1813
bour	-1814
oise	-1815
▁fig	-1816
▁vain	-1817
▁slow	-1818
▁rid	-1819
▁host	-1820
▁fat	-1821
▁maj	-1822
▁coun	-1823
▁occas	-1824
uous	-1825
▁knowledge	-1826
▁jove	-1827
▁prep	-1828
▁wild	-1829
▁green	-1830
▁wait	-1831
▁corner	-1832
fer	-1833
▁dar	-1834
▁bound	-1835
ames	-1836
▁worth	-1837
bit	-1838
dle	-1839
▁arr	-1840
▁kut	-1841
ining	-1842
▁evil	-1843
▁lips	-1844
though	-1845
▁carry	-1846
▁former	-1847
ts	-1848
zov	-1849
▁mouth	-1850
ident	-1851
vel	-1852
▁boy	-1853
▁anim	-1854
▁knows	-1855
▁wanted	-1856
olute	-1857
▁desce	-1858
vere	-1859
▁kutzov	-1860
▁length	-1861
lish	-1862
▁news	-1863
▁character	-1864
mer	-1865
▁av	-1866
gr	-1867
ya	-1868
rage	-1869
▁bott	-1870
▁charm	-1871
▁steps	-1872
▁trees	-1873
side	-1874
▁show	-1875
▁rapid	-1876
▁drawing	-1877
▁glad	-1878
▁troo	-1879
▁enter	-1880
▁minutes	-1881
▁eff	-1882
▁pret	-1883
▁honor	-1884
▁silent	-1885
▁fly	-1886
▁arrived	-1887
ored	-1888
raid	-1889
▁enc	-1890
▁lie	-1891
ceive	-1892
▁grie	-1893
▁none	-1894
▁besides	-1895
ushed	-1896
▁ahab	-1897
ards	-1898
ality	-1899
▁occup	-1900
▁closed	-1901
▁mention	-1902
den	-1903
▁story	-1904
▁attack	-1905
▁4	-1906
,"	-1907
▁med	-1908
▁pal	-1909
▁blue	-1910
▁mass	-1911
▁plat	-1912
▁pock	-1913
▁rome	-1914
▁viol	-1915
▁thoughts	-1916
▁following	-1917
▁necessary	-1918
ges	-1919
ement	-1920
▁succ	-1921
▁ge	-1922
ples	-1923
▁try	-1924
▁proceed	-1925
▁particular	-1926
gn	-1927
just	-1928
▁moved	-1929
▁entire	-1930
▁thnardier	-1931
▁glass	-1932
▁govern	-1933
tend	-1934
fered	-1935
▁trave	-1936
ging	-1937
▁immediately	-1938
ony	-1939
▁killed	-1940
▁opinion	-1941
▁tomorrow	-1942
▁chr	-1943
▁produ	-1944
▁although	-1945
bo	-1946
▁5	-1947
▁fixed	-1948
▁quiet	-1949
▁lou	-1950
▁late	-1951
▁tone	-1952
athe	-1953
umed	-1954
▁soft	-1955
▁straight	-1956
▁band	-1957
▁fate	-1958
▁virt	-1959
lly	-1960
ooh	-1961
▁fanc	-1962
▁meant	-1963
ec	-1964
▁bey	-1965
▁whis	-1966
emoise	-1967
▁forget	-1968
▁sorrow	-1969
▁wished	-1970
▁purp	-1971
▁disappe	-1972
io	-1973
ency	-1974
▁self	-1975
▁suit	-1976
▁thick	-1977
▁afraid	-1978
emoiselle	-1979
▁complete	-1980
ki	-1981
▁arg	-1982
▁kill	-1983
▁prev	-1984
ene	-1985
for	-1986
sing	-1987
▁occur	-1988
▁author	-1989
asp	-1990
▁cant	-1991
▁circum	-1992
▁history	-1993
▁russian	-1994
▁beyond	-1995
▁holmes	-1996
▁beginning	-1997
▁anx	-1998
usion	-1999
▁fing	-2000
▁presence	-2001
▁lab	-2002
▁mine	-2003
▁court	-2004
▁neigh	-2005
▁revol	-2006
▁sense	-2007
▁occasion	-2008
▁mademoiselle	-2009
ics	-2010
cer	-2011
▁spo	-2012
▁harm	-2013
▁talking	-2014
ope	-2015
▁ant	-2016
ively	-2017
▁darkness	-2018
uct	-2019
eness	-2020
ilt	-2021
▁tra	-2022
▁ven	-2023
▁loved	-2024
▁change	-2025
▁single	-2026
bers	-2027
▁maid	-2028
▁warm	-2029
▁makes	-2030
▁shore	-2031
▁troops	-2032
▁distance	-2033
▁bow	-2034
itary	-2035
▁fresh	-2036
▁gloom	-2037
▁reply	-2038
iter	-2039
▁oer	-2040
▁rob	-2041
▁star	-2042
ration	-2043
▁trembl	-2044
▁thinking	-2045
bled	-2046
▁desire	-2047
▁sho	-2048
night	-2049
retched	-2050
▁fathers	-2051
▁cad	-2052
▁please	-2053
khov	-2054
▁ann	-2055
▁camp	-2056
▁breast	-2057
▁du	-2058
▁big	-2059
▁top	-2060
▁merc	-2061
▁walked	-2062
▁society	-2063
kn	-2064
▁lim	-2065
▁mod	-2066
▁plan	-2067
▁slight	-2068
▁instead	-2069
▁kiss	-2070
erable	-2071
▁ja	-2072
▁demand	-2073
▁understood	-2074
▁nar	-2075
▁obl	-2076
▁caught	-2077
▁dinner	-2078
▁hen	-2079
▁imm	-2080
under	-2081
itation	-2082
but	-2083
▁jour	-2084
▁chance	-2085
▁orders	-2086
▁repeated	-2087
▁conversation	-2088
ny	-2089
sov	-2090
ises	-2091
▁belong	-2092
▁forest	-2093
▁inform	-2094
▁fier	-2095
▁ships	-2096
▁spirit	-2097
▁whales	-2098
▁sch	-2099
ustom	-2100
▁neck	-2101
▁box	-2102
▁und	-2103
▁broken	-2104
▁christ	-2105
ume	-2106
iant	-2107
▁win	-2108
▁boat	-2109
▁loud	-2110
▁paper	-2111
▁waiting	-2112
▁hig	-2113
▁lived	-2114
▁achilles	-2115
▁ago	-2116
inary	-2117
▁remar	-2118
▁stone	-2119
▁threw	-2120
▁nearly	-2121
▁fortune	-2122
hy	-2123
▁bou	-2124
ortal	-2125
▁prot	-2126
ivid	-2127
light	-2128
▁weak	-2129
▁javert	-2130
▁seized	-2131
ours	-2132
▁breath	-2133
▁island	-2134
ush	-2135
▁dor	-2136
▁success	-2137
▁eag	-2138
▁decl	-2139
▁rock	-2140
▁floor	-2141
▁oppos	-2142
▁escape	-2143
▁exam	-2144
▁mart	-2145
▁filled	-2146
aled	-2147
▁fal	-2148
itten	-2149
▁comb	-2150
itions	-2151
▁reach	-2152
▁service	-2153
oned	-2154
▁cra	-2155
▁hom	-2156
▁lift	-2157
aining	-2158
▁alarm	-2159
▁acquaint	-2160
ism	-2161
what	-2162
ented	-2163
▁wrong	-2164
ists	-2165
▁emb	-2166
ancing	-2167
▁densov	-2168
▁listen	-2169
▁quickly	-2170
ley	-2171
arer	-2172
▁fau	-2173
▁destro	-2174
pty	-2175
▁benn	-2176
▁peas	-2177
▁snya	-2178
▁soldier	-2179
▁exact	-2180
▁motion	-2181
▁officers	-2182
▁nur	-2183
▁wee	-2184
▁utter	-2185
▁toward	-2186
urg	-2187
hood	-2188
▁hop	-2189
▁mill	-2190
▁action	-2191
▁pretty	-2192
ague	-2193
aped	-2194
ically	-2195
▁marry	-2196
▁depart	-2197
anch	-2198
isted	-2199
▁approach	-2200
▁wine	-2201
cient	-2202
▁heavy	-2203
▁result	-2204
▁stranger	-2205
▁glance	-2206
▁mut	-2207
▁seven	-2208
▁anyone	-2209
▁natural	-2210
▁circumst	-2211
▁probably	-2212
eds	-2213
oint	-2214
sembl	-2215
acy	-2216
▁unh	-2217
▁coat	-2218
▁deal	-2219
▁grew	-2220
▁infl	-2221
▁grave	-2222
▁scarce	-2223
▁courage	-2224
ma	-2225
▁je	-2226
▁fut	-2227
▁vol	-2228
asure	-2229
▁troy	-2230
▁purpose	-2231
▁caderous	-2232
▁today	-2233
▁marriage	-2234
ax	-2235
▁sal	-2236
amber	-2237
▁below	-2238
▁report	-2239
▁english	-2240
achus	-2241
ouses	-2242
▁shouted	-2243
els	-2244
▁por	-2245
▁chur	-2246
▁pooh	-2247
▁shut	-2248
▁allow	-2249
▁smoke	-2250
▁slowly	-2251
▁address	-2252
▁whatever	-2253
▁pit	-2254
▁sky	-2255
▁resol	-2256
▁appearance	-2257
ah	-2258
con	-2259
▁hid	-2260
▁easy	-2261
▁send	-2262
val	-2263
ected	-2264
▁spot	-2265
▁compl	-2266
▁noble	-2267
▁usual	-2268
▁intell	-2269
▁pocket	-2270
▁wounded	-2271
cially	-2272
▁illust	-2273
▁spread	-2274
▁greater	-2275
that	-2276
▁ine	-2277
▁wol	-2278
cious	-2279
▁bold	-2280
▁conn	-2281
▁lives	-2282
▁lower	-2283
ugg	-2284
ades	-2285
antly	-2286
▁giving	-2287
ras	-2288
ives	-2289
ries	-2290
▁gro	-2291
▁duty	-2292
▁pull	-2293
▁blind	-2294
▁merely	-2295
▁middle	-2296
uel	-2297
▁ign	-2298
anging	-2299
▁study	-2300
▁accept	-2301
▁caderousse	-2302
▁ere	-2303
▁firm	-2304
idence	-2305
▁effort	-2306
▁future	-2307
▁covered	-2308
▁getting	-2309
▁brave	-2310
▁broad	-2311
▁latter	-2312
▁mat	-2313
▁leaving	-2314
▁iv	-2315
▁cab	-2316
culiar	-2317
▁alice	-2318
▁attempt	-2319
str	-2320
uff	-2321
well	-2322
▁simple	-2323
▁meaning	-2324
▁peculiar	-2325
teen	-2326
▁lean	-2327
▁movement	-2328
▁afterwards	-2329
pic	-2330
▁bra	-2331
▁died	-2332
▁save	-2333
▁wide	-2334
▁apart	-2335
▁darcy	-2336
form	-2337
ulty	-2338
▁clot	-2339
▁wont	-2340
▁aston	-2341
▁early	-2342
▁running	-2343
▁absolute	-2344
▁everyone	-2345
angu	-2346
pping	-2347
▁fallen	-2348
aval	-2349
▁bol	-2350
ishop	-2351
known	-2352
▁grow	-2353
▁race	-2354
▁formed	-2355
ests	-2356
▁rul	-2357
▁bank	-2358
▁noticed	-2359
▁expected	-2360
▁direction	-2361
ler	-2362
▁ver	-2363
▁blow	-2364
ection	-2365
▁extre	-2366
cip	-2367
cerf	-2368
idge	-2369
oved	-2370
▁incl	-2371
▁becom	-2372
▁france	-2373
▁remark	-2374
▁smiled	-2375
▁morcerf	-2376
▁abb	-2377
▁pun	-2378
▁suc	-2379
▁furn	-2380
▁public	-2381
▁servant	-2382
ubb	-2383
▁cart	-2384
itated	-2385
▁burst	-2386
▁polit	-2387
▁ancient	-2388
▁destroy	-2389
ously	-2390
▁snow	-2391
▁concl	-2392
▁golden	-2393
▁baron	-2394
fection	-2395
▁passage	-2396
vi	-2397
leep	-2398
rehe	-2399
ative	-2400
▁twel	-2401
▁beauty	-2402
▁doroth	-2403
▁police	-2404
▁profess	-2405
co	-2406
ald	-2407
▁er	-2408
pend	-2409
ories	-2410
▁troj	-2411
▁walls	-2412
▁trying	-2413
▁deg	-2414
▁sym	-2415
▁sett	-2416
▁possi	-2417
▁thank	-2418
▁gentleman	-2419
ted	-2420
▁ly	-2421
▁scene	-2422
ified	-2423
▁pity	-2424
▁asleep	-2425
▁danger	-2426
▁divine	-2427
▁passing	-2428
▁succeed	-2429
▁bor	-2430
▁har	-2431
▁hector	-2432
▁months	-2433
pecially	-2434
▁despair	-2435
▁princip	-2436
aded	-2437
▁mel	-2438
▁dust	-2439
▁outside	-2440
ron	-2441
oured	-2442
▁walk	-2443
tended	-2444
▁stern	-2445
▁according	-2446
▁fool	-2447
▁hunt	-2448
▁magn	-2449
▁perm	-2450
▁sons	-2451
▁heads	-2452
▁river	-2453
▁teeth	-2454
▁prevent	-2455
▁greatest	-2456
▁lies	-2457
▁commander	-2458
▁gentlemen	-2459
▁stop	-2460
▁angry	-2461
▁eager	-2462
▁ves	-2463
▁kings	-2464
▁advant	-2465
ision	-2466
▁gate	-2467
▁situ	-2468
▁separ	-2469
▁married	-2470
▁quarter	-2471
▁safe	-2472
ounded	-2473
▁barric	-2474
▁houses	-2475
▁promise	-2476
▁shoulders	-2477
ners	-2478
▁civ	-2479
▁dim	-2480
▁paid	-2481
▁church	-2482
▁holding	-2483
und	-2484
▁hot	-2485
▁pig	-2486
bered	-2487
▁empl	-2488
▁tall	-2489
▁bless	-2490
oly	-2491
▁jul	-2492
▁note	-2493
▁caval	-2494
▁comfort	-2495
xim	-2496
▁sac	-2497
▁hall	-2498
▁sharp	-2499
▁swift	-2500
▁company	-2501
▁dorothy	-2502
▁written	-2503
▁sit	-2504
▁cand	-2505
▁figure	-2506
▁especially	-2507
▁chair	-2508
▁spring	-2509
ams	-2510
▁trouble	-2511
held	-2512
osing	-2513
▁difficult	-2514
▁perfectly	-2515
ails	-2516
wise	-2517
▁bal	-2518
▁amid	-2519
▁twelve	-2520
▁persons	-2521
▁bent	-2522
▁flew	-2523
▁seat	-2524
▁faith	-2525
▁educ	-2526
▁food	-2527
▁rage	-2528
▁grief	-2529
▁incre	-2530
▁piece	-2531
▁spect	-2532
jo	-2533
ays	-2534
▁hence	-2535
▁health	-2536
▁listened	-2537
▁surprise	-2538
▁ow	-2539
ishing	-2540
▁bread	-2541
▁plato	-2542
▁bishop	-2543
▁regiment	-2544
dom	-2545
▁tree	-2546
▁lying	-2547
▁music	-2548
▁proud	-2549
▁sides	-2550
▁theres	-2551
uly	-2552
▁defe	-2553
▁pleased	-2554
▁serious	-2555
▁smiling	-2556
▁thunder	-2557
000	-2558
ship	-2559
▁false	-2560
▁spite	-2561
▁rising	-2562
▁tender	-2563
▁vessel	-2564
▁imagine	-2565
ingu	-2566
▁poet	-2567
atures	-2568
bility	-2569
▁feelings	-2570
▁scarcely	-2571
▁greg	-2572
▁surr	-2573
▁train	-2574
▁disappeared	-2575
ompan	-2576
▁summ	-2577
▁greek	-2578
▁ideas	-2579
▁party	-2580
▁reflect	-2581
▁ur	-2582
ooks	-2583
acing	-2584
aming	-2585
▁mark	-2586
▁commun	-2587
▁unhapp	-2588
▁virtue	-2589
▁individ	-2590
▁bag	-2591
▁clo	-2592
▁tur	-2593
inite	-2594
ishment	-2595
▁minute	-2596
uit	-2597
▁fun	-2598
▁hide	-2599
▁shook	-2600
▁easily	-2601
▁interrupt	-2602
gy	-2603
avro	-2604
▁drag	-2605
▁murm	-2606
▁orig	-2607
▁thin	-2608
▁march	-2609
▁noirt	-2610
▁employ	-2611
▁contrary	-2612
▁important	-2613
zz	-2614
▁sen	-2615
▁crew	-2616
▁desert	-2617
▁terror	-2618
▁questions	-2619
ae	-2620
aff	-2621
lls	-2622
ming	-2623
lokhov	-2624
pected	-2625
▁agree	-2626
▁noise	-2627
▁origin	-2628
ding	-2629
mond	-2630
sequ	-2631
ashed	-2632
▁mars	-2633
seless	-2634
▁girls	-2635
▁fierce	-2636
▁accompan	-2637
ha	-2638
ton	-2639
▁rise	-2640
▁histor	-2641
▁dlokhov	-2642
▁letters	-2643
▁unknown	-2644
▁observed	-2645
.,	-2646
ply	-2647
ases	-2648
▁bare	-2649
▁dart	-2650
▁priv	-2651
isters	-2652
▁class	-2653
▁solem	-2654
▁events	-2655
▁shadow	-2656
▁dreadful	-2657
▁opposite	-2658
ouds	-2659
otten	-2660
▁langu	-2661
▁pract	-2662
▁solemn	-2663
▁chamber	-2664
▁journey	-2665
ye	-2666
acked	-2667
▁exec	-2668
▁homer	-2669
▁allowed	-2670
sed	-2671
▁ban	-2672
▁beat	-2673
▁broke	-2674
▁sword	-2675
▁determ	-2676
▁knowing	-2677
▁pointed	-2678
ias	-2679
▁ep	-2680
ital	-2681
▁sake	-2682
▁yield	-2683
▁majest	-2684
▁dressed	-2685
▁smo	-2686
▁drawn	-2687
▁drove	-2688
▁louis	-2689
▁bottom	-2690
▁distingu	-2691
▁excellency	-2692
aph	-2693
▁aust	-2694
▁bing	-2695
▁vast	-2696
▁gavro	-2697
▁intro	-2698
▁seated	-2699
▁ble	-2700
fortun	-2701
▁queen	-2702
▁trust	-2703
▁helsing	-2704
▁entirely	-2705
▁military	-2706
ator	-2707
fast	-2708
▁aim	-2709
▁obt	-2710
▁stro	-2711
▁fifty	-2712
▁showed	-2713
ghed	-2714
ounced	-2715
▁admir	-2716
▁maxim	-2717
ception	-2718
▁legs	-2719
▁obey	-2720
▁andre	-2721
▁grace	-2722
▁oblig	-2723
▁write	-2724
▁bennet	-2725
▁started	-2726
kes	-2727
arily	-2728
ested	-2729
▁bore	-2730
▁ignor	-2731
▁knees	-2732
▁walking	-2733
▁ourselves	-2734
▁difficulty	-2735
?"	-2736
aly	-2737
bor	-2738
,000	-2739
ovna	-2740
ument	-2741
▁deck	-2742
▁main	-2743
ference	-2744
▁beheld	-2745
▁receive	-2746
▁servants	-2747
rid	-2748
ilar	-2749
▁eld	-2750
▁wed	-2751
▁alas	-2752
▁mont	-2753
▁sens	-2754
▁west	-2755
▁streets	-2756
▁visible	-2757
iff	-2758
▁ty	-2759
idered	-2760
▁romeo	-2761
ses	-2762
▁beau	-2763
▁attend	-2764
▁learned	-2765
▁presented	-2766
wor	-2767
yal	-2768
▁jon	-2769
▁ears	-2770
▁pict	-2771
▁press	-2772
▁behold	-2773
▁touched	-2774
bre	-2775
osp	-2776
ruct	-2777
▁tail	-2778
▁tast	-2779
▁aside	-2780
▁sacri	-2781
▁honour	-2782
▁suffic	-2783
▁moments	-2784
▁finished	-2785
rer	-2786
iety	-2787
uded	-2788
▁lion	-2789
▁ming	-2790
▁shot	-2791
▁forced	-2792
aire	-2793
come	-2794
▁anna	-2795
▁bors	-2796
▁fault	-2797
▁touch	-2798
▁caused	-2799
▁colone	-2800
▁edmond	-2801
▁ladies	-2802
▁changed	-2803
▁barricade	-2804
▁conscious	-2805
gu	-2806
▁6	-2807
aud	-2808
ilian	-2809
pered	-2810
▁harp	-2811
▁hell	-2812
icated	-2813
levent	-2814
▁gazed	-2815
▁storm	-2816
▁assist	-2817
▁simply	-2818
▁decided	-2819
▁various	-2820
▁shoulder	-2821
▁existence	-2822
▁lose	-2823
▁path	-2824
athan	-2825
▁board	-2826
▁worse	-2827
▁andrea	-2828
▁gavroche	-2829
▁inquired	-2830
now	-2831
bles	-2832
ring	-2833
uted	-2834
izing	-2835
retch	-2836
▁faces	-2837
▁clouds	-2838
▁flight	-2839
▁myster	-2840
▁government	-2841
ech	-2842
▁dare	-2843
▁dism	-2844
▁ring	-2845
ashion	-2846
▁conqu	-2847
▁affect	-2848
▁moving	-2849
▁places	-2850
▁pop	-2851
▁jane	-2852
▁lond	-2853
▁moon	-2854
▁famil	-2855
▁nurse	-2856
▁unable	-2857
▁appears	-2858
▁concern	-2859
▁windows	-2860
▁distinct	-2861
▁occupied	-2862
▁illustration	-2863
olog	-2864
▁bon	-2865
▁gar	-2866
▁tum	-2867
ament	-2868
▁rode	-2869
▁thirty	-2870
▁village	-2871
chelevent	-2872
▁cho	-2873
▁vent	-2874
▁horri	-2875
▁influ	-2876
▁affair	-2877
▁suffer	-2878
▁conduct	-2879
▁affection	-2880
▁satisfied	-2881
iding	-2882
▁wrote	-2883
▁notice	-2884
▁sacred	-2885
▁ordered	-2886
▁perceived	-2887
zen	-2888
ivers	-2889
▁pard	-2890
▁likely	-2891
▁frightened	-2892
▁fauchelevent	-2893
▁pi	-2894
▁emer	-2895
▁grou	-2896
▁nine	-2897
iction	-2898
theless	-2899
▁advanced	-2900
▁creature	-2901
▁intellig	-2902
▁advantage	-2903
▁trembling	-2904
▁nevertheless	-2905
oted	-2906
▁inh	-2907
erved	-2908
▁sple	-2909
▁wolf	-2910
▁grant	-2911
▁sperm	-2912
▁inquir	-2913
▁heavens	-2914
▁remarked	-2915
aked	-2916
▁entr	-2917
▁shud	-2918
▁wise	-2919
▁begun	-2920
▁offer	-2921
▁london	-2922
▁strugg	-2923
▁confess	-2924
▁exactly	-2925
▁mothers	-2926
▁opening	-2927
▁forgotten	-2928
ios	-2929
loo	-2930
▁learn	-2931
▁stubb	-2932
▁gloomy	-2933
▁mighty	-2934
▁spoken	-2935
▁clothes	-2936
▁condition	-2937
af	-2938
lin	-2939
▁ash	-2940
▁cow	-2941
ander	-2942
▁ende	-2943
▁weep	-2944
tering	-2945
▁invol	-2946
▁speed	-2947
▁warri	-2948
▁voices	-2949
▁clearly	-2950
ina	-2951
ulf	-2952
▁avo	-2953
▁bird	-2954
▁seek	-2955
▁cloud	-2956
▁empty	-2957
▁convin	-2958
▁memory	-2959
▁thrown	-2960
▁yellow	-2961
▁profound	-2962
▁approached	-2963
cr	-2964
▁awa	-2965
▁goes	-2966
▁jump	-2967
▁colonel	-2968
▁experien	-2969
▁surprised	-2970
▁xx	-2971
▁ris	-2972
▁chee	-2973
▁alive	-2974
▁shame	-2975
▁rushed	-2976
▁talked	-2977
▁unhappy	-2978
▁noirtier	-2979
▁superior	-2980
▁circumstances	-2981
▁aug	-2982
▁sav	-2983
istol	-2984
father	-2985
▁greece	-2986
▁proper	-2987
▁waited	-2988
▁impress	-2989
▁suitors	-2990
▁moreover	-2991
ois	-2992
rop	-2993
▁od	-2994
▁alt	-2995
▁gra	-2996
▁civil	-2997
▁fancy	-2998
▁looks	-2999
▁bridge	-3000
▁introdu	-3001
▁laughed	-3002
▁passion	-3003
▁remembered	-3004
cure	-3005
here	-3006
▁ali	-3007
▁vas	-3008
▁appl	-3009
ission	-3010
▁lines	-3011
▁midst	-3012
▁telem	-3013
▁horror	-3014
▁hurried	-3015
▁everybody	-3016
go	-3017
cked	-3018
▁mal	-3019
▁tyr	-3020
chief	-3021
olras	-3022
while	-3023
▁gats	-3024
▁mess	-3025
▁mour	-3026
terday	-3027
▁enorm	-3028
▁splend	-3029
▁wicked	-3030
▁revolution	-3031
▁telemachus	-3032
set	-3033
burg	-3034
enance	-3035
ternal	-3036
▁cheer	-3037
▁devil	-3038
▁engaged	-3039
▁offered	-3040
▁uttered	-3041
▁charming	-3042
▁prepared	-3043
▁wretched	-3044
▁yesterday	-3045
com	-3046
cial	-3047
▁cit	-3048
▁fet	-3049
▁rain	-3050
▁beast	-3051
▁habit	-3052
attered	-3053
▁laughing	-3054
▁occurred	-3055
▁philosophy	-3056
ka	-3057
ids	-3058
iny	-3059
verse	-3060
▁glory	-3061
▁imper	-3062
▁papers	-3063
▁similar	-3064
▁enjolras	-3065
bing	-3066
▁neg	-3067
▁pty	-3068
antic	-3069
▁cost	-3070
▁madele	-3071
▁recall	-3072
▁advance	-3073
▁affairs	-3074
ham	-3075
unk	-3076
hest	-3077
▁ale	-3078
▁mir	-3079
▁rom	-3080
▁unex	-3081
▁didnt	-3082
▁double	-3083
▁convent	-3084
▁glanced	-3085
▁rapidly	-3086
▁brothers	-3087
▁handsome	-3088
▁generally	-3089
cing	-3090
erve	-3091
iles	-3092
▁fant	-3093
▁faint	-3094
▁prove	-3095
▁endeav	-3096
▁fashion	-3097
▁mentioned	-3098
▁philosopher	-3099
▁z	-3100
iot	-3101
▁fish	-3102
▁sick	-3103
▁spent	-3104
▁recoll	-3105
▁education	-3106
aus	-3107
▁fit	-3108
▁stir	-3109
▁breat	-3110
▁parent	-3111
▁peters	-3112
▁resembl	-3113
▁breakfast	-3114
▁excellent	-3115
▁maximilian	-3116
how	-3117
▁ii	-3118
▁mas	-3119
▁sor	-3120
▁equal	-3121
▁wealth	-3122
▁perform	-3123
▁witness	-3124
▁amb	-3125
▁laws	-3126
▁pure	-3127
▁build	-3128
▁extra	-3129
▁bitter	-3130
▁counts	-3131
ayed	-3132
▁dry	-3133
▁rag	-3134
orted	-3135
▁sire	-3136
▁aband	-3137
▁crime	-3138
▁gives	-3139
▁royal	-3140
▁bingley	-3141
▁reading	-3142
tes	-3143
vey	-3144
acle	-3145
▁east	-3146
▁fart	-3147
▁pride	-3148
ancholy	-3149
▁higher	-3150
▁narrow	-3151
▁considered	-3152
▁melancholy	-3153
▁ros	-3154
▁unf	-3155
apped	-3156
champ	-3157
ndered	-3158
▁chest	-3159
▁month	-3160
▁saved	-3161
▁fields	-3162
▁happen	-3163
▁mercds	-3164
▁powers	-3165
▁consequ	-3166
orious	-3167
ruction	-3168
▁greeks	-3169
▁height	-3170
▁mortal	-3171
▁temper	-3172
▁burning	-3173
▁extreme	-3174
gel	-3175
iod	-3176
kind	-3177
ption	-3178
▁brow	-3179
ormand	-3180
racted	-3181
▁accom	-3182
▁forms	-3183
▁innoc	-3184
▁nearer	-3185
▁served	-3186
▁evident	-3187
▁meeting	-3188
▁resumed	-3189
umph	-3190
▁voy	-3191
ocked	-3192
▁fill	-3193
▁ptya	-3194
▁week	-3195
▁brain	-3196
▁coach	-3197
▁dying	-3198
▁uneas	-3199
▁distant	-3200
esh	-3201
ipp	-3202
▁due	-3203
▁fold	-3204
▁stup	-3205
▁haste	-3206
▁scare	-3207
▁twice	-3208
▁gallop	-3209
▁paused	-3210
▁repres	-3211
▁sought	-3212
▁hearing	-3213
▁triumph	-3214
son	-3215
eque	-3216
oose	-3217
ether	-3218
▁resp	-3219
▁thro	-3220
▁degree	-3221
▁libert	-3222
▁pistol	-3223
▁madeleine	-3224
oop	-3225
urs	-3226
▁joh	-3227
gress	-3228
ulous	-3229
▁reve	-3230
▁scre	-3231
▁tong	-3232
▁drive	-3233
▁distur	-3234
▁matters	-3235
▁station	-3236
▁carefully	-3237
pse	-3238
▁key	-3239
▁pra	-3240
▁bour	-3241
▁luck	-3242
▁roof	-3243
action	-3244
▁grass	-3245
▁repro	-3246
▁slain	-3247
▁vague	-3248
▁misery	-3249
▁explain	-3250
▁prisoner	-3251
▁expressed	-3252
▁listening	-3253
▁meanwhile	-3254
▁mysterious	-3255
tle	-3256
▁lod	-3257
equeg	-3258
mense	-3259
itable	-3260
▁boats	-3261
▁grasp	-3262
▁uncle	-3263
▁contem	-3264
▁flowers	-3265
▁immense	-3266
▁singular	-3267
▁companion	-3268
ips	-3269
▁tu	-3270
▁rab	-3271
▁agre	-3272
▁favor	-3273
▁takes	-3274
▁apparent	-3275
▁enormous	-3276
▁countenance	-3277
crow	-3278
rate	-3279
▁bab	-3280
▁bill	-3281
▁earn	-3282
▁sugg	-3283
▁enjoy	-3284
▁freed	-3285
▁space	-3286
▁discus	-3287
▁unless	-3288
aughters	-3289
▁falling	-3290
▁remains	-3291
▁shadows	-3292
▁beauchamp	-3293
not	-3294
▁aud	-3295
▁oce	-3296
apart	-3297
arest	-3298
astic	-3299
▁gill	-3300
▁nose	-3301
▁throw	-3302
▁honest	-3303
▁inside	-3304
▁opport	-3305
▁forehead	-3306
acks	-3307
▁ive	-3308
▁cover	-3309
▁kissed	-3310
▁states	-3311
▁someone	-3312
▁queequeg	-3313
ao	-3314
uses	-3315
inous	-3316
▁sand	-3317
▁period	-3318
▁supper	-3319
▁discovered	-3320
▁tz	-3321
teau	-3322
▁uns	-3323
ences	-3324
▁aunt	-3325
▁forty	-3326
▁names	-3327
▁sprang	-3328
▁science	-3329
▁watched	-3330
▁pleasant	-3331
▁produced	-3332
▁promised	-3333
▁addressed	-3334
▁recognized	-3335
▁halt	-3336
▁frequ	-3337
▁patro	-3338
▁lifted	-3339
▁obliged	-3340
▁victory	-3341
▁scarecrow	-3342
▁situation	-3343
▁experienced	-3344
▁gay	-3345
▁suf	-3346
▁asce	-3347
▁sink	-3348
▁parts	-3349
▁persu	-3350
▁recei	-3351
▁ceased	-3352
▁curious	-3353
▁instantly	-3354
▁interrupted	-3355
▁hy	-3356
▁pant	-3357
▁song	-3358
▁greci	-3359
▁souls	-3360
▁gillen	-3361
▁trojan	-3362
▁liberty	-3363
▁believed	-3364
▁language	-3365
▁daughters	-3366
cil	-3367
enth	-3368
ille	-3369
▁foe	-3370
iform	-3371
imate	-3372
▁alex	-3373
▁dawn	-3374
▁books	-3375
▁pressed	-3376
▁possession	-3377
▁unexpected	-3378
▁gillenormand	-3379
▁mix	-3380
▁rum	-3381
field	-3382
▁lock	-3383
▁sigh	-3384
iently	-3385
▁bowed	-3386
▁citiz	-3387
▁hurry	-3388
▁yours	-3389
osition	-3390
▁school	-3391
▁farther	-3392
▁fingers	-3393
▁propert	-3394
▁7	-3395
ium	-3396
▁gh	-3397
▁xv	-3398
▁eur	-3399
bling	-3400
igned	-3401
▁carp	-3402
▁holy	-3403
▁rejo	-3404
acious	-3405
▁sorry	-3406
▁leaves	-3407
▁uniform	-3408
▁supposed	-3409
▁watching	-3410
fty	-3411
oura	-3412
▁ber	-3413
▁elb	-3414
▁born	-3415
▁comr	-3416
▁debr	-3417
▁dogs	-3418
▁john	-3419
▁phys	-3420
▁rule	-3421
▁crown	-3422
▁inhab	-3423
▁maint	-3424
▁south	-3425
▁curios	-3426
▁hearts	-3427
▁finally	-3428
▁settled	-3429
▁opportun	-3430
▁experience	-3431
▁grandfather	-3432
long	-3433
▁rad	-3434
ample	-3435
▁anat	-3436
▁huss	-3437
▁doors	-3438
▁judge	-3439
▁advent	-3440
▁favour	-3441
▁modern	-3442
▁accompl	-3443
▁assured	-3444
you	-3445
▁coff	-3446
▁fury	-3447
▁join	-3448
▁wick	-3449
inated	-3450
▁youre	-3451
▁pardon	-3452
▁search	-3453
▁worthy	-3454
▁growing	-3455
▁somewhat	-3456
eys	-3457
▁sy	-3458
▁adj	-3459
▁diss	-3460
▁guns	-3461
▁loss	-3462
▁seas	-3463
▁delic	-3464
▁stock	-3465
▁condem	-3466
▁spirits	-3467
▁individual	-3468
▁petersburg	-3469
ran	-3470
▁grat	-3471
▁grown	-3472
▁hills	-3473
▁preced	-3474
▁stupid	-3475
▁thrust	-3476
▁weight	-3477
▁arrival	-3478
▁mingled	-3479
▁precise	-3480
▁property	-3481
▁required	-3482
erva	-3483
ites	-3484
▁181	-3485
using	-3486
▁betr	-3487
▁fond	-3488
▁relig	-3489
▁anxious	-3490
▁century	-3491
▁dropped	-3492
▁et	-3493
▁shr	-3494
▁vir	-3495
▁arch	-3496
▁waves	-3497
▁whats	-3498
▁custom	-3499
▁finger	-3500
▁nation	-3501
▁shield	-3502
▁absence	-3503
▁becomes	-3504
▁greatly	-3505
▁sisters	-3506
▁instinct	-3507
gar	-3508
ieu	-3509
▁inj	-3510
▁nest	-3511
▁ruin	-3512
▁clean	-3513
▁cannon	-3514
▁chteau	-3515
▁circle	-3516
▁clever	-3517
▁debray	-3518
▁hollow	-3519
▁piglet	-3520
▁mankind	-3521
▁monarch	-3522
▁telling	-3523
▁necessity	-3524
▁whispered	-3525
nes	-3526
och	-3527
cles	-3528
ival	-3529
▁ham	-3530
chant	-3531
▁insp	-3532
ability	-3533
ication	-3534
▁asking	-3535
▁conceal	-3536
▁curiosity	-3537
fl	-3538
no	-3539
▁il	-3540
cher	-3541
fied	-3542
▁mot	-3543
▁sty	-3544
▁lest	-3545
▁guess	-3546
▁arrest	-3547
▁engage	-3548
▁surely	-3549
▁particularly	-3550
▁aid	-3551
▁tis	-3552
ublic	-3553
▁amaz	-3554
▁bull	-3555
▁cell	-3556
▁huge	-3557
▁lamp	-3558
▁birds	-3559
▁spear	-3560
▁unjust	-3561
▁example	-3562
▁influence	-3563
▁everywhere	-3564
▁motionless	-3565
aker	-3566
keep	-3567
▁cop	-3568
usted	-3569
▁mina	-3570
▁excuse	-3571
▁useless	-3572
▁neighbor	-3573
▁republic	-3574
▁prisoners	-3575
▁wonderful	-3576
iii	-3577
▁ts	-3578
ache	-3579
▁dom	-3580
▁luc	-3581
▁gift	-3582
▁meth	-3583
ointed	-3584
▁impro	-3585
▁fortun	-3586
▁pieces	-3587
▁square	-3588
▁writing	-3589
kns	-3590
▁sme	-3591
board	-3592
▁lucy	-3593
▁tran	-3594
▁flies	-3595
▁group	-3596
▁liked	-3597
▁vasli	-3598
▁escaped	-3599
▁putting	-3600
▁horrible	-3601
▁miserable	-3602
▁completely	-3603
pre	-3604
right	-3605
▁bell	-3606
▁cred	-3607
▁pall	-3608
ushing	-3609
▁impat	-3610
▁proof	-3611
▁shoes	-3612
▁cather	-3613
▁gregor	-3614
▁peasant	-3615
▁fighting	-3616
ipped	-3617
velop	-3618
▁gray	-3619
▁cloak	-3620
▁share	-3621
▁slept	-3622
▁rostvs	-3623
▁majesty	-3624
▁special	-3625
▁succeeded	-3626
apt	-3627
hen	-3628
ker	-3629
uls	-3630
▁aj	-3631
▁hopes	-3632
▁indif	-3633
▁ocean	-3634
▁truly	-3635
▁whence	-3636
▁crossed	-3637
▁excited	-3638
▁entrance	-3639
▁progress	-3640
▁suffered	-3641
▁convinced	-3642
▁suffering	-3643
▁difference	-3644
▁approaching	-3645
vol	-3646
case	-3647
▁ger	-3648
▁mast	-3649
stairs	-3650
▁shown	-3651
▁guards	-3652
▁priest	-3653
▁speech	-3654
▁thanks	-3655
▁accustom	-3656
▁unfortun	-3657
▁absolutely	-3658
yrac	-3659
▁cup	-3660
▁der	-3661
ables	-3662
isher	-3663
▁pron	-3664
▁symp	-3665
▁suspic	-3666
▁threat	-3667
▁parents	-3668
▁entering	-3669
▁principle	-3670
ky	-3671
umn	-3672
fice	-3673
ounce	-3674
▁cous	-3675
▁fern	-3676
▁godd	-3677
▁hark	-3678
▁task	-3679
▁wore	-3680
crates	-3681
▁lofty	-3682
▁north	-3683
▁combat	-3684
▁heroes	-3685
▁sovere	-3686
▁freedom	-3687
▁lighted	-3688
ino	-3689
mon	-3690
▁lat	-3691
▁hate	-3692
▁heat	-3693
▁fatal	-3694
▁shock	-3695
▁feared	-3696
▁hither	-3697
▁stream	-3698
▁concealed	-3699
▁understanding	-3700
hus	-3701
war	-3702
atic	-3703
▁dav	-3704
▁lin	-3705
ounds	-3706
▁virg	-3707
▁major	-3708
▁match	-3709
▁merry	-3710
▁stars	-3711
▁advice	-3712
▁bolkns	-3713
▁explan	-3714
▁flying	-3715
▁voyage	-3716
▁private	-3717
▁intended	-3718
▁murmured	-3719
▁possessed	-3720
vl	-3721
▁ener	-3722
▁hole	-3723
▁admit	-3724
▁charge	-3725
▁gatsby	-3726
▁pulled	-3727
▁fernand	-3728
▁goddess	-3729
▁mistaken	-3730
▁sleeping	-3731
buck	-3732
▁scr	-3733
ember	-3734
▁gain	-3735
▁oper	-3736
▁pros	-3737
▁restr	-3738
▁points	-3739
▁monster	-3740
▁project	-3741
▁extraord	-3742
▁otherwise	-3743
▁presently	-3744
▁opportunity	-3745
venge	-3746
▁dais	-3747
▁dull	-3748
▁hosp	-3749
▁rare	-3750
▁stat	-3751
▁madam	-3752
▁youll	-3753
▁lovely	-3754
▁tranqu	-3755
▁wishes	-3756
▁retreat	-3757
▁confused	-3758
▁socrates	-3759
▁surrounded	-3760
fa	-3761
ucc	-3762
uce	-3763
rees	-3764
▁emp	-3765
▁vic	-3766
aches	-3767
iable	-3768
ivity	-3769
▁ease	-3770
▁myst	-3771
▁brill	-3772
▁claim	-3773
▁estab	-3774
▁agreed	-3775
▁reader	-3776
▁social	-3777
▁finding	-3778
▁mistake	-3779
▁bonapart	-3780
arse	-3781
will	-3782
▁ack	-3783
▁bos	-3784
▁gle	-3785
feyrac	-3786
▁anger	-3787
▁minds	-3788
▁acknow	-3789
▁consci	-3790
▁minerva	-3791
▁quietly	-3792
▁removed	-3793
▁violent	-3794
▁splendid	-3795
▁courfeyrac	-3796
ailed	-3797
▁chim	-3798
▁cook	-3799
▁aware	-3800
▁catch	-3801
▁displ	-3802
▁groan	-3803
▁ideal	-3804
▁ranks	-3805
▁stair	-3806
▁taste	-3807
▁sounds	-3808
▁familiar	-3809
▁previous	-3810
▁treasure	-3811
▁neighbour	-3812
clus	-3813
ulet	-3814
▁hay	-3815
▁impl	-3816
▁withd	-3817
▁famous	-3818
▁interv	-3819
▁reality	-3820
▁regular	-3821
▁possibly	-3822
▁dangerous	-3823
▁continually	-3824
▁acquaintance	-3825
anti	-3826
chen	-3827
rows	-3828
▁pvl	-3829
▁wel	-3830
▁fail	-3831
▁thor	-3832
iments	-3833
▁champ	-3834
▁rough	-3835
athered	-3836
▁german	-3837
▁waters	-3838
▁fifteen	-3839
▁singing	-3840
▁tonight	-3841
▁meantime	-3842
▁saf	-3843
ucket	-3844
▁geor	-3845
▁feast	-3846
▁proved	-3847
▁contempl	-3848
▁departure	-3849
▁described	-3850
▁extraordinary	-3851
▁8	-3852
ogr	-3853
face	-3854
illy	-3855
ords	-3856
▁bas	-3857
▁bul	-3858
▁ing	-3859
▁clim	-3860
▁cott	-3861
▁adjut	-3862
▁desper	-3863
▁office	-3864
▁palace	-3865
▁winter	-3866
▁wisdom	-3867
▁anatole	-3868
▁capulet	-3869
▁equally	-3870
▁hastily	-3871
▁univers	-3872
▁wedding	-3873
▁woodman	-3874
▁resolved	-3875
▁authority	-3876
▁descended	-3877
▁entertain	-3878
▁accustomed	-3879
▁om	-3880
noon	-3881
quet	-3882
▁fer	-3883
▁tin	-3884
▁vig	-3885
▁grad	-3886
▁pair	-3887
vation	-3888
▁rooms	-3889
▁tired	-3890
▁cavalc	-3891
▁picked	-3892
▁england	-3893
▁directly	-3894
▁gathered	-3895
▁confidence	-3896
▁accompanied	-3897
isc	-3898
▁17	-3899
▁fac	-3900
iance	-3901
▁gest	-3902
▁shop	-3903
▁wing	-3904
▁shirt	-3905
▁upper	-3906
▁assure	-3907
▁genius	-3908
▁prefer	-3909
▁pushed	-3910
▁stands	-3911
▁summer	-3912
▁tongue	-3913
▁starbuck	-3914
▁determined	-3915
▁oz	-3916
ault	-3917
▁tit	-3918
▁coss	-3919
▁helm	-3920
▁pequ	-3921
▁pont	-3922
▁calls	-3923
▁dared	-3924
▁flame	-3925
▁miles	-3926
▁steel	-3927
justice	-3928
▁gazing	-3929
▁hidden	-3930
▁sailor	-3931
▁arrange	-3932
▁content	-3933
▁counsel	-3934
▁earnest	-3935
▁inspect	-3936
▁shining	-3937
▁stepped	-3938
▁laughter	-3939
▁peasants	-3940
itz	-3941
nas	-3942
nat	-3943
por	-3944
!...	-3945
▁lyd	-3946
asing	-3947
▁exch	-3948
▁pick	-3949
▁pill	-3950
▁avoid	-3951
▁boots	-3952
▁sewer	-3953
▁skies	-3954
▁treat	-3955
▁castle	-3956
▁magnific	-3957
▁mountain	-3958
▁conscience	-3959
ify	-3960
▁sees	-3961
▁worn	-3962
▁blame	-3963
▁skill	-3964
▁wheel	-3965
▁invent	-3966
▁juliet	-3967
▁regret	-3968
▁severe	-3969
▁stairs	-3970
▁immortal	-3971
▁catherine	-3972
min	-3973
eding	-3974
▁dish	-3975
▁nice	-3976
▁tomb	-3977
▁frown	-3978
▁venge	-3979
alities	-3980
▁deeply	-3981
▁highest	-3982
▁demanded	-3983
▁infinite	-3984
▁sovereign	-3985
het	-3986
ugn	-3987
ture	-3988
▁pot	-3989
ctors	-3990
▁gaze	-3991
▁rush	-3992
▁birth	-3993
▁cries	-3994
▁elder	-3995
▁horiz	-3996
▁raise	-3997
▁subst	-3998
▁terms	-3999
fortune	-4000
▁design	-4001
▁infant	-4002
▁throat	-4003
▁useful	-4004
▁grecian	-4005
▁leaning	-4006
▁arranged	-4007
▁comprehe	-4008
▁deserted	-4009
▁discover	-4010
▁millions	-4011
▁rendered	-4012
▁afternoon	-4013
▁explained	-4014
▁injustice	-4015
▁patroclus	-4016
▁sufficient	-4017
▁jaw	-4018
▁tow	-4019
▁nodd	-4020
▁wear	-4021
▁straw	-4022
▁amount	-4023
▁transl	-4024
▁eternal	-4025
▁process	-4026
▁destroyed	-4027
asc	-4028
azz	-4029
bar	-4030
unch	-4031
▁dam	-4032
▁don	-4033
▁fee	-4034
▁wag	-4035
ators	-4036
pless	-4037
▁crim	-4038
▁fled	-4039
▁chang	-4040
▁fever	-4041
▁fully	-4042
▁harpo	-4043
▁lance	-4044
▁attent	-4045
▁handed	-4046
▁rolled	-4047
▁jonathan	-4048
gan	-4049
pir	-4050
orous	-4051
▁ajax	-4052
▁arth	-4053
▁mult	-4054
▁rear	-4055
▁wand	-4056
▁yard	-4057
▁staff	-4058
▁whist	-4059
▁coffin	-4060
▁russia	-4061
▁thirst	-4062
▁constit	-4063
▁carrying	-4064
▁directed	-4065
▁generals	-4066
▁misfortune	-4067
!"	-4068
ocr	-4069
iece	-4070
oubt	-4071
rose	-4072
uing	-4073
▁ess	-4074
▁iss	-4075
▁lit	-4076
▁woe	-4077
▁rate	-4078
▁whit	-4079
▁aloud	-4080
▁bones	-4081
▁dance	-4082
▁turns	-4083
▁wants	-4084
▁centre	-4085
▁europe	-4086
▁kindly	-4087
▁tumult	-4088
▁emotion	-4089
▁shudder	-4090
▁mistress	-4091
▁regarded	-4092
▁shouting	-4093
ule	-4094
coat	-4095
ller	-4096
rors	-4097
acles	-4098
▁glit	-4099
▁shed	-4100
▁sway	-4101
▁paint	-4102
▁robin	-4103
▁shape	-4104
▁chiefs	-4105
▁forces	-4106
▁gently	-4107
▁goodby	-4108
▁rabbit	-4109
▁stones	-4110
▁involunt	-4111
▁relation	-4112
▁brilliant	-4113
▁delighted	-4114
▁intention	-4115
mt	-4116
▁9	-4117
iest	-4118
rect	-4119
▁pan	-4120
▁dign	-4121
▁edge	-4122
▁forb	-4123
▁glau	-4124
▁mort	-4125
▁tear	-4126
erning	-4127
ondret	-4128
▁purch	-4129
▁shade	-4130
▁style	-4131
▁animal	-4132
▁august	-4133
▁disapp	-4134
▁insult	-4135
▁native	-4136
▁poison	-4137
▁undert	-4138
▁stronger	-4139
▁recognize	-4140
▁cavalcanti	-4141
mend	-4142
rily	-4143
with	-4144
▁lan	-4145
▁pin	-4146
▁ways	-4147
▁weap	-4148
▁penet	-4149
▁strike	-4150
▁victim	-4151
▁actions	-4152
▁bearing	-4153
▁measure	-4154
▁numbers	-4155
▁whisper	-4156
▁extended	-4157
▁martians	-4158
▁muttered	-4159
▁ordinary	-4160
▁signific	-4161
▁companions	-4162
▁imagination	-4163
▁information	-4164
▁interesting	-4165
erc	-4166
ese	-4167
oms	-4168
uish	-4169
▁lot	-4170
oused	-4171
▁obst	-4172
▁pack	-4173
▁rope	-4174
▁wond	-4175
▁timid	-4176
▁wings	-4177
▁driven	-4178
▁fourth	-4179
▁resist	-4180
▁wholly	-4181
▁nations	-4182
▁playing	-4183
▁proport	-4184
▁working	-4185
▁generous	-4186
▁creatures	-4187
▁returning	-4188
▁sacrifice	-4189
▁somewhere	-4190
▁astonishment	-4191
uf	-4192
irm	-4193
key	-4194
▁ax	-4195
resp	-4196
▁kit	-4197
▁log	-4198
▁mam	-4199
▁ren	-4200
▁mate	-4201
▁roll	-4202
▁facts	-4203
▁gates	-4204
▁prize	-4205
▁simpl	-4206
▁aspect	-4207
▁cheeks	-4208
▁prayer	-4209
▁fantine	-4210
▁jondret	-4211
▁protect	-4212
▁retired	-4213
▁argument	-4214
▁bolknski	-4215
▁pointing	-4216
▁thorough	-4217
▁lightning	-4218
▁importance	-4219
▁hl	-4220
mans	-4221
▁aut	-4222
▁lux	-4223
bourg	-4224
itive	-4225
iture	-4226
opher	-4227
rated	-4228
▁disg	-4229
▁exha	-4230
▁game	-4231
ciples	-4232
▁witch	-4233
▁depths	-4234
▁gained	-4235
▁nights	-4236
▁collins	-4237
▁weather	-4238
▁doubtless	-4239
▁increased	-4240
▁professor	-4241
01	-4242
can	-4243
cle	-4244
ral	-4245
rib	-4246
ude	-4247
mble	-4248
▁card	-4249
▁grey	-4250
▁rene	-4251
▁arose	-4252
▁ghost	-4253
lection	-4254
▁buried	-4255
▁eating	-4256
▁joined	-4257
▁saintm	-4258
▁support	-4259
▁touching	-4260
sey	-4261
▁aye	-4262
▁bew	-4263
▁bree	-4264
▁fulf	-4265
▁pour	-4266
▁wake	-4267
▁angel	-4268
▁built	-4269
▁knife	-4270
▁plans	-4271
▁choose	-4272
▁credit	-4273
▁council	-4274
▁desired	-4275
▁inhabit	-4276
▁accident	-4277
▁distress	-4278
▁powerful	-4279
kin	-4280
▁ga	-4281
cies	-4282
port	-4283
▁fame	-4284
▁reck	-4285
▁rust	-4286
▁coast	-4287
▁exerc	-4288
▁named	-4289
▁sympath	-4290
▁citizens	-4291
▁personal	-4292
▁conception	-4293
ithe	-4294
road	-4295
▁bid	-4296
▁nay	-4297
acity	-4298
ighed	-4299
owder	-4300
ribut	-4301
▁bert	-4302
ensive	-4303
▁absor	-4304
▁flesh	-4305
▁moral	-4306
▁batter	-4307
▁coward	-4308
▁guests	-4309
▁sevent	-4310
▁steeds	-4311
▁acquainted	-4312
▁destruction	-4313
▁considerable	-4314
▁cler	-4315
▁hurt	-4316
▁plun	-4317
▁subm	-4318
▁swim	-4319
illery	-4320
ulated	-4321
▁arist	-4322
▁level	-4323
▁retre	-4324
▁murder	-4325
▁wretch	-4326
▁gradually	-4327
▁mountains	-4328
▁naturally	-4329
arr	-4330
aign	-4331
ilty	-4332
inal	-4333
▁fol	-4334
▁hun	-4335
▁jun	-4336
▁nin	-4337
acher	-4338
aping	-4339
▁drop	-4340
▁inex	-4341
▁altog	-4342
▁cabin	-4343
▁falls	-4344
▁fetch	-4345
▁pause	-4346
▁weeks	-4347
▁calcul	-4348
▁fisher	-4349
▁played	-4350
▁remind	-4351
▁render	-4352
▁savage	-4353
▁calling	-4354
▁enemies	-4355
▁raising	-4356
▁request	-4357
▁revenge	-4358
▁warrior	-4359
▁altogether	-4360
▁concerning	-4361
ince	-4362
ores	-4363
▁peo	-4364
▁answ	-4365
▁flag	-4366
▁sour	-4367
▁sund	-4368
▁paces	-4369
▁suppl	-4370
▁enemys	-4371
▁poetry	-4372
▁refuse	-4373
▁descend	-4374
▁require	-4375
▁emperors	-4376
▁kindness	-4377
▁apparently	-4378
▁explanation	-4379
of	-4380
lev	-4381
ares	-4382
▁coo	-4383
▁cher	-4384
▁frag	-4385
▁bride	-4386
▁ridic	-4387
▁serve	-4388
▁swall	-4389
▁works	-4390
tending	-4391
▁cousin	-4392
▁secure	-4393
▁fellows	-4394
▁observe	-4395
▁pleasures	-4396
▁impression	-4397
▁christopher	-4398
▁ol	-4399
omed	-4400
house	-4401
▁diam	-4402
▁glim	-4403
▁ment	-4404
▁parad	-4405
▁guilty	-4406
▁anxiety	-4407
▁compass	-4408
▁keeping	-4409
▁mounted	-4410
▁employed	-4411
▁confusion	-4412
▁political	-4413
▁precisely	-4414
▁astonished	-4415
asons	-4416
▁irre	-4417
uments	-4418
▁bosom	-4419
▁cases	-4420
▁erect	-4421
▁flood	-4422
▁sheep	-4423
▁worst	-4424
▁afford	-4425
▁arthur	-4426
▁bottle	-4427
▁exceed	-4428
▁gather	-4429
▁marked	-4430
▁details	-4431
▁hanging	-4432
▁leading	-4433
▁dressing	-4434
▁humanity	-4435
▁contained	-4436
▁relations	-4437
icks	-4438
osen	-4439
▁prod	-4440
▁test	-4441
▁torn	-4442
idable	-4443
▁infer	-4444
▁lover	-4445
▁squad	-4446
▁wrath	-4447
respond	-4448
▁abrupt	-4449
▁candle	-4450
▁compar	-4451
▁dreams	-4452
▁needed	-4453
▁bertucc	-4454
▁correct	-4455
▁pierres	-4456
▁seeking	-4457
▁wickham	-4458
▁campaign	-4459
▁connection	-4460
▁correspond	-4461
ih	-4462
hal	-4463
▁yu	-4464
chan	-4465
eral	-4466
lock	-4467
▁env	-4468
▁indul	-4469
▁liter	-4470
▁mourn	-4471
▁assass	-4472
▁jumped	-4473
▁animals	-4474
▁capable	-4475
▁capital	-4476
▁actually	-4477
▁attached	-4478
▁becoming	-4479
▁cheerful	-4480
▁innocent	-4481
▁original	-4482
▁slightly	-4483
▁apartment	-4484
▁staircase	-4485
oh	-4486
bus	-4487
iam	-4488
▁10	-4489
▁cy	-4490
▁curt	-4491
▁pave	-4492
▁shru	-4493
▁toss	-4494
anches	-4495
▁cruel	-4496
▁bodies	-4497
▁convey	-4498
▁crying	-4499
▁enthus	-4500
▁assumed	-4501
▁discuss	-4502
▁picture	-4503
▁artillery	-4504
▁frightful	-4505
eur	-4506
law	-4507
▁eh	-4508
iber	-4509
▁ate	-4510
▁dun	-4511
▁ice	-4512
itate	-4513
place	-4514
▁nons	-4515
▁signs	-4516
▁woods	-4517
▁bagrat	-4518
▁contro	-4519
▁wooden	-4520
▁blessed	-4521
▁convict	-4522
▁desires	-4523
▁sailors	-4524
▁ignorant	-4525
▁whenever	-4526
▁jondrette	-4527
▁stretched	-4528
een	-4529
ode	-4530
aved	-4531
cent	-4532
hold	-4533
ading	-4534
stand	-4535
urity	-4536
▁mant	-4537
▁rank	-4538
▁slee	-4539
keeper	-4540
lessly	-4541
▁awful	-4542
▁badly	-4543
▁bears	-4544
▁compe	-4545
▁illum	-4546
▁overt	-4547
▁chosen	-4548
▁flames	-4549
▁flower	-4550
▁eagerly	-4551
▁surface	-4552
▁adjutant	-4553
▁minister	-4554
▁trembled	-4555
ws	-4556
herd	-4557
▁obv	-4558
▁keen	-4559
▁term	-4560
▁daisy	-4561
▁distr	-4562
▁fears	-4563
▁guide	-4564
▁spare	-4565
▁sport	-4566
▁tempt	-4567
▁winds	-4568
▁safety	-4569
▁forgive	-4570
▁kitchen	-4571
▁masters	-4572
▁composed	-4573
▁formerly	-4574
▁glancing	-4575
▁russians	-4576
▁alexander	-4577
▁chteauren	-4578
▁committed	-4579
▁concerned	-4580
▁possibility	-4581
▁intelligence	-4582
alt	-4583
▁vul	-4584
▁blaz	-4585
▁embr	-4586
▁fare	-4587
▁flat	-4588
▁ital	-4589
▁shel	-4590
▁snat	-4591
▁drunk	-4592
▁poets	-4593
▁spark	-4594
▁waist	-4595
▁beings	-4596
▁estate	-4597
▁peoples	-4598
▁pierced	-4599
▁reasons	-4600
▁baroness	-4601
▁harpoone	-4602
▁instance	-4603
▁midnight	-4604
▁bertuccio	-4605
▁principles	-4606
▁chteaurenaud	-4607
nal	-4608
thy	-4609
▁wu	-4610
char	-4611
ette	-4612
quis	-4613
▁crit	-4614
ashing	-4615
▁depri	-4616
▁frame	-4617
▁knock	-4618
▁value	-4619
▁boulev	-4620
kerchief	-4621
▁ashamed	-4622
▁consult	-4623
▁existed	-4624
▁furious	-4625
▁hideous	-4626
▁painful	-4627
▁pursued	-4628
▁accepted	-4629
▁belonged	-4630
▁building	-4631
▁contempt	-4632
▁features	-4633
▁informed	-4634
▁nonsense	-4635
▁precious	-4636
▁presents	-4637
▁reproach	-4638
▁struggle	-4639
▁connected	-4640
▁satisfaction	-4641
▁mi	-4642
aeus	-4643
aves	-4644
iner	-4645
udes	-4646
whel	-4647
▁ens	-4648
▁liv	-4649
inder	-4650
ptych	-4651
▁arts	-4652
▁busy	-4653
▁inev	-4654
▁jack	-4655
▁musk	-4656
▁pace	-4657
▁tale	-4658
▁penel	-4659
ization	-4660
▁arrive	-4661
▁couple	-4662
▁thinks	-4663
▁uncons	-4664
▁alptych	-4665
▁cavalry	-4666
▁driving	-4667
▁manners	-4668
▁procure	-4669
▁thither	-4670
▁admitted	-4671
▁branches	-4672
▁declared	-4673
▁proceeded	-4674
▁vengeance	-4675
▁distinguished	-4676
▁11	-4677
lebr	-4678
▁cas	-4679
▁lam	-4680
▁rig	-4681
ology	-4682
▁ratt	-4683
▁delay	-4684
▁flank	-4685
▁mater	-4686
▁rocks	-4687
▁swear	-4688
▁weary	-4689
▁leaned	-4690
▁younger	-4691
▁handkerchief	-4692
5.	-4693
umb	-4694
uced	-4695
▁tea	-4696
icity	-4697
otted	-4698
▁anch	-4699
▁farm	-4700
▁heap	-4701
▁lets	-4702
▁colour	-4703
▁encoun	-4704
▁nobody	-4705
▁repeat	-4706
▁gesture	-4707
▁silently	-4708
▁condemned	-4709
▁friendship	-4710
pus	-4711
aunt	-4712
lict	-4713
seen	-4714
▁hab	-4715
▁pil	-4716
▁rib	-4717
▁sob	-4718
▁wid	-4719
▁barri	-4720
▁fired	-4721
▁flung	-4722
▁frank	-4723
▁seren	-4724
▁belief	-4725
▁obtain	-4726
▁throne	-4727
▁vision	-4728
▁assembl	-4729
▁managed	-4730
▁plainly	-4731
▁refused	-4732
▁setting	-4733
▁weeping	-4734
▁constant	-4735
▁breathing	-4736
▁exception	-4737
▁remaining	-4738
▁separated	-4739
▁magnificent	-4740
▁unfortunate	-4741
02	-4742
ann	-4743
urd	-4744
fall	-4745
ilst	-4746
kins	-4747
oses	-4748
▁dig	-4749
▁dmt	-4750
▁pon	-4751
▁wet	-4752
▁hint	-4753
▁nerv	-4754
▁sank	-4755
▁seam	-4756
ateful	-4757
▁agony	-4758
▁excit	-4759
▁feels	-4760
▁fleet	-4761
▁hoped	-4762
▁mercy	-4763
ulation	-4764
▁celebr	-4765
▁corpse	-4766
▁excess	-4767
▁stayed	-4768
▁foreign	-4769
▁mystery	-4770
▁quitted	-4771
▁breaking	-4772
▁comrades	-4773
▁instruct	-4774
nsk	-4775
geon	-4776
▁dan	-4777
agger	-4778
alous	-4779
oring	-4780
▁chin	-4781
▁cong	-4782
▁cord	-4783
▁toil	-4784
▁wept	-4785
isions	-4786
▁stiff	-4787
▁austri	-4788
▁thread	-4789
▁figures	-4790
▁foolish	-4791
▁affected	-4792
▁examined	-4793
▁overwhel	-4794
▁striking	-4795
▁desperate	-4796
▁represent	-4797
▁excitement	-4798
▁ox	-4799
▁ta	-4800
umes	-4801
▁ado	-4802
▁iii	-4803
aries	-4804
▁craw	-4805
▁meat	-4806
▁skin	-4807
asures	-4808
pended	-4809
unning	-4810
▁lydia	-4811
▁waste	-4812
utation	-4813
▁stared	-4814
▁uneasy	-4815
▁whilst	-4816
▁comment	-4817
▁follows	-4818
▁galleys	-4819
▁treated	-4820
▁continue	-4821
▁contrast	-4822
▁distinguish	-4823
zy	-4824
tel	-4825
enes	-4826
icip	-4827
izes	-4828
ishes	-4829
▁eury	-4830
▁nant	-4831
▁poem	-4832
▁vamp	-4833
inging	-4834
ivered	-4835
▁bench	-4836
▁clock	-4837
▁ended	-4838
▁julie	-4839
▁finish	-4840
▁collect	-4841
▁forever	-4842
▁happens	-4843
▁objects	-4844
▁prepare	-4845
▁trojans	-4846
▁usually	-4847
▁frenchman	-4848
▁interests	-4849
▁frequently	-4850
abe	-4851
emn	-4852
pap	-4853
book	-4854
▁bay	-4855
▁fro	-4856
▁ith	-4857
▁oil	-4858
▁spl	-4859
▁tot	-4860
bable	-4861
ician	-4862
▁mode	-4863
▁vale	-4864
▁loose	-4865
▁maids	-4866
▁solid	-4867
▁firing	-4868
▁manage	-4869
▁porter	-4870
▁careful	-4871
▁chariot	-4872
▁consent	-4873
▁glaucon	-4874
▁quarrel	-4875
▁rolling	-4876
▁commands	-4877
▁waterloo	-4878
▁abandoned	-4879
▁announced	-4880
▁ignorance	-4881
▁napoleons	-4882
▁formidable	-4883
▁reflection	-4884
hic	-4885
leg	-4886
lers	-4887
ural	-4888
erves	-4889
▁abst	-4890
▁hans	-4891
▁hlne	-4892
▁pipe	-4893
apping	-4894
▁armed	-4895
▁boast	-4896
▁italy	-4897
▁loves	-4898
▁notes	-4899
▁plant	-4900
▁rever	-4901
▁sorts	-4902
▁stuff	-4903
▁uncom	-4904
ivering	-4905
▁absent	-4906
▁branch	-4907
▁depend	-4908
▁purple	-4909
▁diamond	-4910
▁princes	-4911
▁remarks	-4912
▁willing	-4913
▁coachman	-4914
▁daylight	-4915
▁execution	-4916
▁furniture	-4917
▁nantucket	-4918
▁proportion	-4919
▁resolution	-4920
▁inhabitants	-4921
hip	-4922
ales	-4923
cast	-4924
▁ard	-4925
▁dil	-4926
▁san	-4927
▁deed	-4928
▁obsc	-4929
▁tele	-4930
▁tent	-4931
▁blows	-4932
▁crack	-4933
▁mamma	-4934
▁marse	-4935
▁begins	-4936
▁bourge	-4937
▁causes	-4938
▁forbid	-4939
▁hunger	-4940
▁pequod	-4941
▁worked	-4942
▁alarmed	-4943
▁horizon	-4944
▁activity	-4945
▁attitude	-4946
▁weakness	-4947
▁assistance	-4948
▁conclusion	-4949
▁remarkable	-4950
ods	-4951
rov	-4952
ibly	-4953
▁unm	-4954
inlaw	-4955
▁eleg	-4956
▁oath	-4957
▁final	-4958
▁mayor	-4959
▁recom	-4960
▁reign	-4961
▁davrig	-4962
▁fought	-4963
▁george	-4964
▁wheels	-4965
▁wounds	-4966
▁amongst	-4967
▁produce	-4968
▁wearing	-4969
▁bagratin	-4970
▁upstairs	-4971
▁movements	-4972
▁historians	-4973
▁previously	-4974
▁description	-4975
▁involuntarily	-4976
2.	-4977
gl	-4978
rien	-4979
this	-4980
work	-4981
▁exh	-4982
▁glo	-4983
▁irr	-4984
▁vex	-4985
alled	-4986
erted	-4987
osure	-4988
▁debt	-4989
▁eugn	-4990
▁lack	-4991
▁offe	-4992
▁subl	-4993
▁wave	-4994
▁artic	-4995
▁desir	-4996
▁fires	-4997
▁mouse	-4998
▁smell	-4999
▁unple	-5000
▁armies	-5001
▁burned	-5002
▁retire	-5003
▁shouts	-5004
▁taught	-5005
▁anguish	-5006
▁contrad	-5007
▁dragged	-5008
▁bringing	-5009
▁perceive	-5010
▁vanished	-5011
▁violence	-5012
▁agreeable	-5013
▁appointed	-5014
▁principal	-5015
▁qualities	-5016
▁universal	-5017
▁conditions	-5018
ev	-5019
raw	-5020
inte	-5021
khyl	-5022
▁ric	-5023
▁vii	-5024
▁jave	-5025
▁levi	-5026
▁obed	-5027
▁prey	-5028
▁rout	-5029
▁sept	-5030
▁sofa	-5031
▁trap	-5032
arrass	-5033
▁awake	-5034
▁ithac	-5035
▁porch	-5036
ounding	-5037
▁failed	-5038
▁hungry	-5039
▁labour	-5040
▁mikhyl	-5041
▁nodded	-5042
▁entreat	-5043
▁italian	-5044
▁davrigny	-5045
▁faithful	-5046
▁concluded	-5047
▁embarrass	-5048
▁preceding	-5049
eg	-5050
fs	-5051
arsh	-5052
hand	-5053
asket	-5054
order	-5055
ulate	-5056
▁hang	-5057
▁mood	-5058
▁writ	-5059
ocracy	-5060
riages	-5061
▁drank	-5062
▁manif	-5063
▁slave	-5064
▁yards	-5065
itating	-5066
▁choice	-5067
▁interp	-5068
▁praise	-5069
▁rulers	-5070
▁signal	-5071
▁beloved	-5072
▁complet	-5073
▁guardians	-5074
▁inspector	-5075
▁reflected	-5076
▁thoroughly	-5077
chn	-5078
elt	-5079
eps	-5080
rya	-5081
▁13	-5082
▁yo	-5083
?...	-5084
eric	-5085
ulse	-5086
▁corn	-5087
▁grim	-5088
▁mead	-5089
▁quit	-5090
▁sher	-5091
▁sole	-5092
utions	-5093
▁fatig	-5094
▁trial	-5095
ributed	-5096
▁brains	-5097
▁duties	-5098
▁powder	-5099
▁sooner	-5100
▁popular	-5101
▁radiant	-5102
▁related	-5103
▁unpleas	-5104
▁welcome	-5105
▁absorbed	-5106
▁boulevard	-5107
▁expecting	-5108
▁strangers	-5109
wed	-5110
▁alc	-5111
▁chu	-5112
gment	-5113
▁brie	-5114
▁flee	-5115
▁mach	-5116
▁mrya	-5117
▁shes	-5118
▁apoll	-5119
▁corps	-5120
▁guest	-5121
▁landl	-5122
▁needs	-5123
▁shone	-5124
▁intent	-5125
▁magist	-5126
▁softly	-5127
▁nervous	-5128
▁whereas	-5129
▁division	-5130
▁advancing	-5131
▁receiving	-5132
6.	-5133
▁fox	-5134
▁oct	-5135
inity	-5136
there	-5137
▁bald	-5138
▁buck	-5139
▁oars	-5140
▁odys	-5141
▁sear	-5142
▁span	-5143
ooping	-5144
▁beard	-5145
▁brown	-5146
▁cease	-5147
▁hayde	-5148
▁limbs	-5149
▁sheet	-5150
▁wrink	-5151
▁consol	-5152
▁eugnie	-5153
▁indign	-5154
▁dignity	-5155
▁fearful	-5156
▁hussars	-5157
▁shaking	-5158
▁hastened	-5159
▁inclined	-5160
▁bourgeois	-5161
▁president	-5162
▁addressing	-5163
▁considering	-5164
▁bat	-5165
aving	-5166
eries	-5167
eyore	-5168
inate	-5169
▁boys	-5170
▁gend	-5171
▁risk	-5172
▁size	-5173
▁sous	-5174
▁vers	-5175
leness	-5176
▁accur	-5177
▁adopt	-5178
▁angle	-5179
▁brief	-5180
▁cours	-5181
▁finds	-5182
▁hunts	-5183
▁sadly	-5184
▁stout	-5185
▁helped	-5186
▁loudly	-5187
▁loving	-5188
▁pursue	-5189
▁rostop	-5190
▁throng	-5191
▁cunning	-5192
▁prayers	-5193
▁stretch	-5194
▁crossing	-5195
▁fastened	-5196
▁september	-5197
yn	-5198
igs	-5199
▁ze	-5200
ique	-5201
blanc	-5202
▁brig	-5203
▁outl	-5204
▁rang	-5205
▁shep	-5206
▁veil	-5207
▁eaten	-5208
▁refer	-5209
▁empire	-5210
▁method	-5211
▁nestor	-5212
▁strict	-5213
▁tyrant	-5214
▁utmost	-5215
▁rushing	-5216
▁travers	-5217
▁utterly	-5218
▁wishing	-5219
▁glorious	-5220
▁goodness	-5221
▁heavenly	-5222
▁marseilles	-5223
▁occasionally	-5224
0.	-5225
rem	-5226
uge	-5227
ums	-5228
vna	-5229
▁14	-5230
lier	-5231
rous	-5232
▁ara	-5233
▁awk	-5234
▁hut	-5235
which	-5236
▁aven	-5237
▁cool	-5238
▁ends	-5239
▁mild	-5240
▁pole	-5241
▁poly	-5242
icking	-5243
urance	-5244
▁clasp	-5245
▁fifth	-5246
▁flash	-5247
▁flask	-5248
▁murde	-5249
▁shoot	-5250
▁stick	-5251
▁trace	-5252
▁vehic	-5253
▁footst	-5254
▁halted	-5255
▁awkward	-5256
▁bedroom	-5257
▁closely	-5258
▁destiny	-5259
▁devoted	-5260
▁enchant	-5261
▁goodbye	-5262
▁hostile	-5263
▁plunged	-5264
▁pavement	-5265
▁religion	-5266
▁throwing	-5267
▁visitors	-5268
▁adventure	-5269
▁circumstance	-5270
▁consciousness	-5271
oul	-5272
wood	-5273
▁buy	-5274
▁hit	-5275
apsed	-5276
arted	-5277
rious	-5278
▁ages	-5279
▁june	-5280
▁ours	-5281
isible	-5282
▁awoke	-5283
▁block	-5284
▁exped	-5285
▁liber	-5286
▁linen	-5287
▁tower	-5288
ourable	-5289
▁eeyore	-5290
▁extent	-5291
▁locked	-5292
▁select	-5293
▁dancing	-5294
▁element	-5295
▁neglect	-5296
▁steward	-5297
▁stories	-5298
▁deceived	-5299
▁subjects	-5300
▁bonaparte	-5301
▁exhausted	-5302
▁gratitude	-5303
▁pronounced	-5304
bol	-5305
ili	-5306
▁ram	-5307
▁tap	-5308
▁won	-5309
agues	-5310
icing	-5311
istic	-5312
▁cors	-5313
▁dazz	-5314
▁dise	-5315
▁rosy	-5316
▁arise	-5317
▁armch	-5318
▁drops	-5319
▁bought	-5320
▁forgot	-5321
▁hatred	-5322
▁mechan	-5323
▁thence	-5324
▁chimney	-5325
▁deliber	-5326
▁develop	-5327
▁dischar	-5328
▁harmony	-5329
▁heavily	-5330
▁jealous	-5331
▁kingdom	-5332
▁leblanc	-5333
▁natures	-5334
▁obscure	-5335
▁portion	-5336
▁precaut	-5337
▁pvlovna	-5338
▁whaling	-5339
▁murderer	-5340
▁quarters	-5341
▁traveller	-5342
▁conviction	-5343
▁distinctly	-5344
▁mikhylovna	-5345
rd	-5346
ett	-5347
omet	-5348
▁gor	-5349
▁ili	-5350
elaus	-5351
▁gown	-5352
▁prud	-5353
▁sunk	-5354
▁chain	-5355
▁diary	-5356
▁stage	-5357
▁supre	-5358
▁americ	-5359
▁battal	-5360
▁dmtrie	-5361
▁incess	-5362
▁ithaca	-5363
▁parted	-5364
▁proble	-5365
▁angrily	-5366
▁bourien	-5367
▁twentyf	-5368
▁agitated	-5369
▁imagined	-5370
▁judgment	-5371
▁obtained	-5372
▁warriors	-5373
▁intellect	-5374
▁providence	-5375
▁throughout	-5376
tw	-5377
isp	-5378
ris	-5379
rog	-5380
stem	-5381
▁cel	-5382
▁spy	-5383
overy	-5384
umber	-5385
▁dick	-5386
▁isnt	-5387
▁rail	-5388
▁unus	-5389
▁brand	-5390
▁chase	-5391
▁heres	-5392
▁inner	-5393
▁teach	-5394
▁tells	-5395
▁urged	-5396
ymachus	-5397
▁corrid	-5398
▁larger	-5399
▁prepar	-5400
▁prodig	-5401
▁rested	-5402
▁efforts	-5403
▁knocked	-5404
▁addition	-5405
▁friendly	-5406
▁menelaus	-5407
▁numerous	-5408
▁admiration	-5409
▁consequence	-5410
▁drawingroom	-5411
vet	-5412
▁au	-5413
olet	-5414
rain	-5415
▁nun	-5416
uding	-5417
▁berg	-5418
▁club	-5419
▁sadd	-5420
▁sust	-5421
▁drown	-5422
▁ident	-5423
▁medic	-5424
▁relie	-5425
▁thine	-5426
▁deadly	-5427
▁leader	-5428
▁loaded	-5429
▁poured	-5430
▁precip	-5431
▁source	-5432
▁crowded	-5433
▁honours	-5434
▁showing	-5435
▁suggest	-5436
▁attacked	-5437
▁inferior	-5438
▁penelope	-5439
▁saintmran	-5440
▁engagement	-5441
▁introduced	-5442
▁philosophers	-5443
▁sufficiently	-5444
9.	-5445
my	-5446
ads	-5447
ais	-5448
ded	-5449
pin	-5450
ski	-5451
alls	-5452
ethe	-5453
omen	-5454
ovel	-5455
pled	-5456
soci	-5457
▁wre	-5458
atory	-5459
cript	-5460
▁bade	-5461
▁heed	-5462
▁mock	-5463
▁sell	-5464
▁tied	-5465
▁trif	-5466
▁benef	-5467
▁borne	-5468
▁marve	-5469
▁price	-5470
▁purse	-5471
▁shake	-5472
▁sixty	-5473
▁spend	-5474
▁toler	-5475
▁trous	-5476
fulness	-5477
▁defend	-5478
▁lights	-5479
▁permit	-5480
▁respon	-5481
▁season	-5482
▁squire	-5483
▁stroke	-5484
▁temple	-5485
▁attract	-5486
▁fancied	-5487
▁leather	-5488
▁staring	-5489
▁galloped	-5490
▁husbands	-5491
▁infantry	-5492
▁resolute	-5493
▁restored	-5494
▁sacrific	-5495
▁troubled	-5496
▁disturbed	-5497
▁invisible	-5498
▁profession	-5499
▁accomplished	-5500
lla	-5501
ancy	-5502
ashv	-5503
▁183	-5504
▁dir	-5505
▁etc	-5506
▁fel	-5507
▁rav	-5508
amemn	-5509
▁butt	-5510
▁disd	-5511
▁impr	-5512
▁pred	-5513
▁rele	-5514
▁iliad	-5515
▁lands	-5516
▁polic	-5517
▁shows	-5518
▁title	-5519
▁apollo	-5520
▁exists	-5521
▁feeble	-5522
▁partly	-5523
▁system	-5524
▁agamemn	-5525
▁beating	-5526
▁carpent	-5527
▁sorrows	-5528
▁vessels	-5529
▁guardian	-5530
▁overcome	-5531
▁pictures	-5532
▁recalled	-5533
▁starting	-5534
▁intervals	-5535
do	-5536
la	-5537
onc	-5538
tic	-5539
▁12	-5540
vest	-5541
▁han	-5542
▁unl	-5543
count	-5544
▁aged	-5545
▁bows	-5546
▁flow	-5547
▁pepp	-5548
▁stag	-5549
umbled	-5550
▁ashes	-5551
▁dwell	-5552
▁fruit	-5553
▁indic	-5554
▁peril	-5555
▁roman	-5556
▁sails	-5557
▁views	-5558
▁youve	-5559
▁breeze	-5560
▁column	-5561
▁energy	-5562
▁riding	-5563
▁shades	-5564
▁balashv	-5565
▁counter	-5566
▁divided	-5567
▁whither	-5568
▁arrested	-5569
▁separate	-5570
▁solitary	-5571
▁carriages	-5572
▁christian	-5573
▁recollect	-5574
▁suggested	-5575
▁thousands	-5576
ymn	-5577
oons	-5578
uits	-5579
▁loc	-5580
▁odd	-5581
icted	-5582
▁base	-5583
▁fest	-5584
▁knee	-5585
▁prow	-5586
▁tore	-5587
▁wars	-5588
verted	-5589
▁cloth	-5590
▁plate	-5591
▁serge	-5592
▁associ	-5593
▁courty	-5594
▁invest	-5595
▁plenty	-5596
▁revere	-5597
▁shakes	-5598
▁dearest	-5599
▁natshas	-5600
▁delicate	-5601
▁governor	-5602
▁paradise	-5603
▁proposed	-5604
▁provided	-5605
▁acknowled	-5606
ilb	-5607
mat	-5608
▁15	-5609
uten	-5610
▁chi	-5611
▁fed	-5612
▁haw	-5613
▁owe	-5614
▁pel	-5615
▁row	-5616
aling	-5617
gging	-5618
uries	-5619
▁ador	-5620
▁bapt	-5621
▁caut	-5622
▁salt	-5623
▁sang	-5624
▁soil	-5625
▁vice	-5626
▁ahead	-5627
▁borod	-5628
▁friar	-5629
▁outer	-5630
▁seize	-5631
▁shrie	-5632
▁armour	-5633
▁patron	-5634
▁strain	-5635
sibility	-5636
▁invited	-5637
▁nearest	-5638
▁supreme	-5639
▁wouldnt	-5640
▁coursers	-5641
▁sympathy	-5642
▁commanded	-5643
▁inquiries	-5644
▁leviathan	-5645
▁terrified	-5646
▁delightful	-5647
▁permission	-5648
▁unpleasant	-5649
▁consideration	-5650
ob	-5651
rs	-5652
ipe	-5653
pet	-5654
▁cu	-5655
sthe	-5656
▁hed	-5657
▁hyp	-5658
▁jim	-5659
▁pip	-5660
enger	-5661
▁clos	-5662
▁date	-5663
▁grap	-5664
▁mich	-5665
▁ride	-5666
▁carts	-5667
▁epoch	-5668
▁hotel	-5669
▁irres	-5670
▁labor	-5671
▁spart	-5672
▁swept	-5673
▁vault	-5674
amation	-5675
▁dining	-5676
▁endure	-5677
▁establ	-5678
▁handle	-5679
▁weapon	-5680
▁writer	-5681
▁abandon	-5682
▁anybody	-5683
▁despite	-5684
▁painted	-5685
▁tremble	-5686
▁visitor	-5687
ification	-5688
▁abruptly	-5689
▁drinking	-5690
▁sherlock	-5691
▁agitation	-5692
▁seriously	-5693
▁descending	-5694
8.	-5695
box	-5696
omy	-5697
oqu	-5698
ork	-5699
▁ix	-5700
emed	-5701
ques	-5702
rant	-5703
▁ske	-5704
othed	-5705
▁hers	-5706
▁text	-5707
▁tide	-5708
▁vall	-5709
ferent	-5710
ifying	-5711
▁balls	-5712
▁honey	-5713
▁tight	-5714
▁vivid	-5715
▁lovers	-5716
▁masses	-5717
▁ruined	-5718
▁victor	-5719
ointment	-5720
▁anticip	-5721
▁funeral	-5722
▁million	-5723
▁pursuit	-5724
▁redoubt	-5725
▁sentine	-5726
▁sincere	-5727
▁slipped	-5728
▁virtues	-5729
▁animated	-5730
▁compared	-5731
▁hitherto	-5732
▁practice	-5733
▁bourienne	-5734
▁courtyard	-5735
▁slightest	-5736
▁constantly	-5737
▁interested	-5738
▁recollection	-5739
7.	-5740
gic	-5741
rom	-5742
zed	-5743
▁ec	-5744
itty	-5745
ived	-5746
otte	-5747
▁aby	-5748
▁gam	-5749
▁lane	-5750
▁melt	-5751
▁roar	-5752
▁trad	-5753
▁wash	-5754
ilight	-5755
▁baker	-5756
▁bands	-5757
▁cheek	-5758
▁faria	-5759
▁instr	-5760
▁leads	-5761
▁pains	-5762
▁queer	-5763
▁steep	-5764
▁auster	-5765
▁begged	-5766
▁commit	-5767
▁dishon	-5768
▁firmly	-5769
▁habits	-5770
▁harker	-5771
▁sighed	-5772
▁sombre	-5773
▁telegr	-5774
▁theory	-5775
attering	-5776
fortunes	-5777
▁borodin	-5778
▁chiefly	-5779
▁quality	-5780
▁physical	-5781
▁probable	-5782
▁sentence	-5783
▁completed	-5784
▁preserved	-5785
▁ridiculous	-5786
▁indifferent	-5787
3.	-5788
dy	-5789
aon	-5790
ials	-5791
▁fil	-5792
▁rub	-5793
amped	-5794
ially	-5795
olnsk	-5796
oress	-5797
▁clam	-5798
▁duke	-5799
▁encl	-5800
▁jail	-5801
▁lake	-5802
estial	-5803
▁alike	-5804
▁gifts	-5805
▁valet	-5806
▁wasnt	-5807
looking	-5808
▁accent	-5809
▁anchor	-5810
▁lament	-5811
▁repose	-5812
▁applied	-5813
▁complex	-5814
▁conquer	-5815
▁disturb	-5816
▁members	-5817
▁patient	-5818
▁sublime	-5819
▁suspect	-5820
▁valiant	-5821
▁bestowed	-5822
▁cosettes	-5823
▁disgrace	-5824
▁grateful	-5825
▁intimate	-5826
▁material	-5827
▁reverend	-5828
▁assembled	-5829
▁attracted	-5830
▁celestial	-5831
▁elsewhere	-5832
▁extremely	-5833
▁hurriedly	-5834
▁indicated	-5835
▁shuddered	-5836
▁misfortunes	-5837
ox	-5838
bes	-5839
col	-5840
gin	-5841
hop	-5842
uch	-5843
pers	-5844
uals	-5845
yard	-5846
▁180	-5847
▁bru	-5848
▁nav	-5849
▁owl	-5850
▁ped	-5851
▁unp	-5852
ocrat	-5853
▁cock	-5854
▁july	-5855
▁lone	-5856
▁nois	-5857
▁rays	-5858
cribed	-5859
isting	-5860
▁amuse	-5861
▁chose	-5862
▁deeds	-5863
▁dozen	-5864
▁error	-5865
▁image	-5866
▁naked	-5867
▁sweep	-5868
raction	-5869
▁active	-5870
▁banker	-5871
▁eldest	-5872
▁extrem	-5873
▁folded	-5874
▁propos	-5875
▁relief	-5876
▁reward	-5877
▁series	-5878
▁cottage	-5879
▁crushed	-5880
▁obvious	-5881
▁readily	-5882
▁torment	-5883
▁visited	-5884
▁attended	-5885
▁describe	-5886
▁politics	-5887
▁sensible	-5888
▁agamemnon	-5889
▁disappear	-5890
▁furnished	-5891
▁household	-5892
▁permitted	-5893
▁historical	-5894
▁indifference	-5895
1.	-5896
gen	-5897
off	-5898
ante	-5899
leus	-5900
abeuf	-5901
inent	-5902
▁cave	-5903
▁fain	-5904
▁hath	-5905
▁plum	-5906
▁tend	-5907
▁wils	-5908
▁heaps	-5909
▁kinds	-5910
▁stead	-5911
▁theat	-5912
▁thras	-5913
▁xviii	-5914
▁chines	-5915
▁contri	-5916
▁daring	-5917
▁disple	-5918
▁highly	-5919
▁mabeuf	-5920
▁marble	-5921
▁smooth	-5922
▁unlike	-5923
▁breathe	-5924
▁letting	-5925
▁smolnsk	-5926
▁corridor	-5927
▁definite	-5928
▁disorder	-5929
▁opinions	-5930
▁reaching	-5931
▁trousers	-5932
▁twilight	-5933
▁amazement	-5934
▁favourite	-5935
▁recovered	-5936
▁scattered	-5937
▁glittering	-5938
oe	-5939
aks	-5940
hem	-5941
see	-5942
▁16	-5943
▁az	-5944
ishd	-5945
outs	-5946
▁ade	-5947
▁wip	-5948
escri	-5949
rides	-5950
ulars	-5951
▁cult	-5952
▁libr	-5953
▁milk	-5954
▁sche	-5955
▁steam	-5956
▁toils	-5957
▁whirl	-5958
inction	-5959
▁abroad	-5960
▁attain	-5961
▁barbar	-5962
▁dispos	-5963
▁inevit	-5964
▁prayed	-5965
▁prompt	-5966
▁senses	-5967
▁steady	-5968
▁doctors	-5969
▁javelin	-5970
▁anywhere	-5971
▁disposed	-5972
▁faubourg	-5973
▁helpless	-5974
▁indescri	-5975
▁prospect	-5976
▁dmtrievna	-5977
▁rostopchn	-5978
▁thoughtful	-5979
oft	-5980
gent	-5981
omin	-5982
▁egg	-5983
▁gig	-5984
▁vel	-5985
ernal	-5986
ville	-5987
▁coin	-5988
▁doom	-5989
▁ecst	-5990
▁kung	-5991
▁rags	-5992
nsible	-5993
ograph	-5994
▁disgu	-5995
▁harsh	-5996
▁lodge	-5997
▁basket	-5998
▁fairly	-5999
▁losing	-6000
▁notary	-6001
▁sailed	-6002
▁settle	-6003
▁string	-6004
▁unwill	-6005
▁gregors	-6006
▁sounded	-6007
▁acquired	-6008
▁armchair	-6009
▁ascended	-6010
▁conflict	-6011
▁independ	-6012
▁consisted	-6013
▁celebrated	-6014
▁punishment	-6015
▁established	-6016
jac	-6017
oes	-6018
yes	-6019
etto	-6020
▁...	-6021
▁kar	-6022
▁tun	-6023
▁wif	-6024
ashes	-6025
iring	-6026
piece	-6027
▁baby	-6028
▁eyeb	-6029
▁glow	-6030
▁pear	-6031
▁pool	-6032
▁tsao	-6033
▁unre	-6034
00,000	-6035
▁bened	-6036
▁owing	-6037
▁scrut	-6038
▁wives	-6039
▁admire	-6040
▁assume	-6041
▁attach	-6042
▁beasts	-6043
▁incred	-6044
▁obeyed	-6045
▁perpet	-6046
▁reappe	-6047
▁signed	-6048
▁united	-6049
▁volume	-6050
▁womans	-6051
▁apprehe	-6052
▁audible	-6053
▁chinese	-6054
▁concent	-6055
▁couldnt	-6056
▁glimpse	-6057
▁madness	-6058
▁martial	-6059
▁pontmer	-6060
▁results	-6061
▁executed	-6062
▁headlong	-6063
▁insisted	-6064
▁landlord	-6065
▁solitude	-6066
▁summoned	-6067
▁wherever	-6068
▁discovery	-6069
▁encounter	-6070
▁performed	-6071
mas	-6072
gers	-6073
itor	-6074
iven	-6075
litz	-6076
▁pir	-6077
uable	-6078
▁boss	-6079
▁gore	-6080
▁perf	-6081
▁puzz	-6082
▁tact	-6083
ential	-6084
▁clerk	-6085
▁craft	-6086
▁dimin	-6087
▁inher	-6088
▁phant	-6089
▁quant	-6090
rection	-6091
▁hiding	-6092
▁hoarse	-6093
▁modest	-6094
▁narrat	-6095
▁polite	-6096
▁refuge	-6097
▁serene	-6098
▁yonder	-6099
▁amiable	-6100
▁atrides	-6101
▁bending	-6102
▁lightly	-6103
▁panting	-6104
▁captains	-6105
▁captured	-6106
▁district	-6107
▁mournful	-6108
▁pressing	-6109
▁situated	-6110
▁contented	-6111
▁magistrate	-6112
▁individuals	-6113
bb	-6114
hor	-6115
lym	-6116
arks	-6117
▁cro	-6118
▁cyl	-6119
▁eum	-6120
▁fem	-6121
▁mud	-6122
after	-6123
uming	-6124
volio	-6125
▁asse	-6126
▁este	-6127
▁germ	-6128
▁lizz	-6129
▁nept	-6130
▁runs	-6131
uously	-6132
▁cares	-6133
▁charl	-6134
▁fiery	-6135
▁helen	-6136
▁incap	-6137
▁jonah	-6138
▁merit	-6139
▁mixed	-6140
▁ninet	-6141
▁eleven	-6142
▁lasted	-6143
▁cleared	-6144
▁contain	-6145
▁disdain	-6146
▁dismiss	-6147
▁display	-6148
▁lantern	-6149
▁library	-6150
▁odyssey	-6151
▁seconds	-6152
▁imperial	-6153
▁inspired	-6154
▁national	-6155
▁patience	-6156
▁compelled	-6157
▁slaughter	-6158
▁traversed	-6159
▁disposition	-6160
▁observation	-6161
vre	-6162
hern	-6163
othe	-6164
▁bez	-6165
▁ray	-6166
▁sam	-6167
enced	-6168
ourse	-6169
ovich	-6170
sters	-6171
▁hind	-6172
▁toto	-6173
headed	-6174
▁agent	-6175
▁ample	-6176
▁brass	-6177
▁colle	-6178
▁disag	-6179
▁elbow	-6180
▁intim	-6181
▁lizzy	-6182
▁risen	-6183
▁bestow	-6184
▁bewild	-6185
▁brazen	-6186
▁crimes	-6187
▁detail	-6188
▁notion	-6189
▁thresh	-6190
▁created	-6191
▁cutting	-6192
▁flushed	-6193
▁illness	-6194
▁inquire	-6195
▁lieuten	-6196
▁restore	-6197
▁unusual	-6198
▁benvolio	-6199
▁destined	-6200
▁embraced	-6201
▁families	-6202
▁farewell	-6203
▁gardiner	-6204
▁learning	-6205
▁maintain	-6206
▁persuade	-6207
▁messenger	-6208
▁sentiment	-6209
▁spectacles	-6210
▁particulars	-6211
▁instructions	-6212
4.	-6213
wr	-6214
bon	-6215
rep	-6216
bler	-6217
cipl	-6218
edly	-6219
llen	-6220
▁dol	-6221
▁brid	-6222
▁damp	-6223
▁impe	-6224
▁ling	-6225
▁silk	-6226
▁stom	-6227
▁temp	-6228
▁vest	-6229
▁whip	-6230
manuel	-6231
ounted	-6232
strous	-6233
▁apply	-6234
▁dirty	-6235
▁flour	-6236
▁folly	-6237
▁surre	-6238
▁trick	-6239
▁calmly	-6240
▁cellar	-6241
▁dashed	-6242
▁haught	-6243
▁incomp	-6244
▁mercut	-6245
▁skelet	-6246
▁speaks	-6247
▁sprung	-6248
▁sunday	-6249
▁survey	-6250
lessness	-6251
▁battery	-6252
▁belongs	-6253
▁bezkhov	-6254
▁convuls	-6255
▁corrupt	-6256
▁defence	-6257
▁embrace	-6258
▁harness	-6259
▁leaders	-6260
▁parties	-6261
▁recover	-6262
▁smoking	-6263
▁awaiting	-6264
▁likewise	-6265
▁realized	-6266
▁somebody	-6267
▁collected	-6268
▁footsteps	-6269
▁pontmercy	-6270
▁supposing	-6271
▁violently	-6272
▁austerlitz	-6273
▁englishman	-6274
▁tenderness	-6275
▁intelligent	-6276
▁civilization	-6277
bu	-6278
sk	-6279
lor	-6280
gthe	-6281
itch	-6282
ober	-6283
otes	-6284
wind	-6285
▁unb	-6286
▁blew	-6287
▁resc	-6288
▁rubb	-6289
mother	-6290
rences	-6291
▁behav	-6292
▁blank	-6293
▁greet	-6294
▁ingen	-6295
▁marks	-6296
▁organ	-6297
▁slang	-6298
▁stret	-6299
▁stuck	-6300
▁tales	-6301
▁track	-6302
▁vampa	-6303
▁wifes	-6304
natural	-6305
▁absurd	-6306
▁amidst	-6307
▁danced	-6308
▁instit	-6309
▁ponine	-6310
▁propri	-6311
▁smiles	-6312
▁specul	-6313
▁wolves	-6314
▁emerged	-6315
▁godlike	-6316
▁journal	-6317
▁pockets	-6318
▁departed	-6319
▁interior	-6320
▁strongly	-6321
▁impatient	-6322
▁monstrous	-6323
▁moonlight	-6324
▁prevented	-6325
▁resembled	-6326
▁suspicion	-6327
▁threshold	-6328
▁sufferings	-6329
▁comfortable	-6330
▁translation	-6331
isk	-6332
▁ech	-6333
▁vac	-6334
verty	-6335
▁aint	-6336
▁bath	-6337
▁bind	-6338
▁deny	-6339
▁dram	-6340
▁foes	-6341
▁gets	-6342
▁gymn	-6343
▁olym	-6344
icable	-6345
itudes	-6346
▁combe	-6347
▁depos	-6348
▁flock	-6349
▁incon	-6350
▁insol	-6351
▁suite	-6352
▁brings	-6353
▁coarse	-6354
▁conven	-6355
▁doesnt	-6356
▁member	-6357
▁record	-6358
▁safely	-6359
▁control	-6360
▁current	-6361
▁harpoon	-6362
▁perspir	-6363
▁poverty	-6364
▁reports	-6365
▁resting	-6366
▁reverie	-6367
▁somehow	-6368
▁spanish	-6369
▁stomach	-6370
▁creation	-6371
▁evidence	-6372
▁sounding	-6373
▁squadron	-6374
▁ventured	-6375
▁childhood	-6376
▁enthusias	-6377
▁establish	-6378
▁fortunate	-6379
▁preparing	-6380
▁uncertain	-6381
▁wondering	-6382
▁commission	-6383
▁compassion	-6384
ael	-6385
cus	-6386
edy	-6387
gon	-6388
she	-6389
▁ug	-6390
▁xi	-6391
ford	-6392
lets	-6393
oman	-6394
plex	-6395
pper	-6396
▁bah	-6397
▁jer	-6398
▁lur	-6399
▁orn	-6400
▁woo	-6401
atisf	-6402
pring	-6403
▁dece	-6404
▁dwar	-6405
▁mens	-6406
▁onto	-6407
ailing	-6408
igneur	-6409
ington	-6410
liness	-6411
▁abyss	-6412
▁boxes	-6413
▁couch	-6414
▁daily	-6415
▁peter	-6416
▁venus	-6417
▁actual	-6418
▁bloody	-6419
▁bodily	-6420
▁chairs	-6421
▁gretel	-6422
▁hussar	-6423
▁musket	-6424
▁passes	-6425
▁summit	-6426
▁conject	-6427
▁cossack	-6428
▁grasped	-6429
▁neptune	-6430
▁october	-6431
▁peppino	-6432
▁replies	-6433
▁shelter	-6434
▁species	-6435
▁studied	-6436
▁wanting	-6437
urrection	-6438
▁combefer	-6439
▁contract	-6440
▁cossacks	-6441
▁decision	-6442
▁deprived	-6443
▁devotion	-6444
▁external	-6445
▁floating	-6446
▁gigantic	-6447
▁medicine	-6448
▁merchant	-6449
▁passions	-6450
▁troubles	-6451
▁hesitated	-6452
▁strangely	-6453
▁substance	-6454
aux	-6455
jud	-6456
phe	-6457
rin	-6458
ste	-6459
ussi	-6460
▁asc	-6461
▁cha	-6462
▁les	-6463
▁vap	-6464
eenth	-6465
pinay	-6466
▁kang	-6467
▁puff	-6468
▁stol	-6469
▁appar	-6470
▁decor	-6471
▁hears	-6472
▁remor	-6473
▁serfs	-6474
▁burden	-6475
▁charms	-6476
▁domest	-6477
▁dpinay	-6478
▁freely	-6479
▁harmon	-6480
▁hospit	-6481
▁joyful	-6482
▁market	-6483
▁perish	-6484
▁portra	-6485
▁reckon	-6486
▁tables	-6487
▁tailor	-6488
ceptible	-6489
ountered	-6490
▁andrews	-6491
▁comrade	-6492
▁fatigue	-6493
▁leagues	-6494
▁martian	-6495
▁montpar	-6496
▁perplex	-6497
▁prolong	-6498
▁pulling	-6499
▁breathed	-6500
▁contents	-6501
▁emmanuel	-6502
▁exchange	-6503
▁mercutio	-6504
▁quantity	-6505
▁revealed	-6506
▁youthful	-6507
▁admirable	-6508
▁anxiously	-6509
▁multitude	-6510
▁hesitation	-6511
▁reasonable	-6512
▁encountered	-6513
▁overwhelmed	-6514
asm	-6515
hum	-6516
alog	-6517
lest	-6518
onic	-6519
plom	-6520
rons	-6521
▁cru	-6522
▁ily	-6523
▁ink	-6524
▁jew	-6525
▁lav	-6526
▁wax	-6527
bourn	-6528
ilful	-6529
▁doll	-6530
▁enjo	-6531
▁pile	-6532
▁pine	-6533
▁warn	-6534
▁whir	-6535
akened	-6536
idents	-6537
iences	-6538
otions	-6539
ranean	-6540
usions	-6541
▁aloft	-6542
▁appet	-6543
▁crest	-6544
▁godal	-6545
▁grows	-6546
▁reass	-6547
▁rules	-6548
▁store	-6549
▁assert	-6550
▁beaten	-6551
▁closer	-6552
▁darted	-6553
▁decide	-6554
▁diplom	-6555
▁lively	-6556
▁resour	-6557
▁watson	-6558
▁baptist	-6559
▁candles	-6560
▁degrees	-6561
▁discipl	-6562
▁hunting	-6563
▁message	-6564
▁sinking	-6565
▁favorite	-6566
▁offering	-6567
▁sergeant	-6568
▁treacher	-6569
▁withdraw	-6570
▁carpenter	-6571
▁construct	-6572
▁longbourn	-6573
▁sensation	-6574
▁tolerably	-6575
▁comparison	-6576
▁enthusiasm	-6577
▁harpooneer	-6578
▁lieutenant	-6579
▁reputation	-6580
▁travelling	-6581
▁acknowledge	-6582
▁illuminated	-6583
▁represented	-6584
▁significance	-6585
▁thrasymachus	-6586
5,	-6587
fo	-6588
ped	-6589
pes	-6590
rah	-6591
emet	-6592
iour	-6593
mber	-6594
reci	-6595
▁apt	-6596
▁non	-6597
▁bend	-6598
▁cham	-6599
▁elev	-6600
▁hipp	-6601
▁moby	-6602
▁ugly	-6603
ensity	-6604
ground	-6605
ighted	-6606
ipping	-6607
▁cemet	-6608
▁fount	-6609
▁halfp	-6610
▁kanga	-6611
▁perse	-6612
▁pitch	-6613
▁ruler	-6614
▁torch	-6615
ceiving	-6616
▁catast	-6617
▁motive	-6618
▁nether	-6619
▁curtain	-6620
▁earlier	-6621
▁emerald	-6622
▁feather	-6623
▁michael	-6624
▁missing	-6625
▁swiftly	-6626
▁changing	-6627
▁confined	-6628
▁graceful	-6629
▁preserve	-6630
▁replaced	-6631
▁community	-6632
▁obscurity	-6633
▁breathless	-6634
▁thnardiers	-6635
occ	-6636
▁py	-6637
ldom	-6638
mbly	-6639
meil	-6640
text	-6641
▁cig	-6642
▁ded	-6643
▁pyl	-6644
▁tig	-6645
▁tkh	-6646
▁yon	-6647
akers	-6648
▁bone	-6649
▁lawn	-6650
▁lawy	-6651
▁mile	-6652
▁rasc	-6653
▁ruff	-6654
ension	-6655
▁acted	-6656
▁arrow	-6657
▁bloom	-6658
▁chape	-6659
▁eleph	-6660
▁gover	-6661
▁ivory	-6662
▁joves	-6663
▁monse	-6664
▁seats	-6665
▁skull	-6666
▁snuff	-6667
▁swarm	-6668
▁thund	-6669
fermeil	-6670
hearted	-6671
▁borrow	-6672
▁ladder	-6673
▁lately	-6674
▁quince	-6675
▁seldom	-6676
▁transp	-6677
▁wilson	-6678
▁awaited	-6679
▁battles	-6680
▁ceiling	-6681
▁guessed	-6682
▁improve	-6683
▁intense	-6684
▁wealthy	-6685
▁assembly	-6686
▁piercing	-6687
▁catastrop	-6688
▁examining	-6689
▁procureur	-6690
▁tranquill	-6691
▁unwilling	-6692
▁combeferre	-6693
▁villeforts	-6694
▁montfermeil	-6695
zh	-6696
zes	-6697
▁cs	-6698
gest	-6699
gged	-6700
rase	-6701
when	-6702
▁deb	-6703
▁fow	-6704
▁jac	-6705
▁stu	-6706
▁tyb	-6707
▁xiv	-6708
liest	-6709
stone	-6710
▁ange	-6711
▁diff	-6712
▁foul	-6713
▁hare	-6714
▁jest	-6715
▁meal	-6716
▁park	-6717
iation	-6718
▁altar	-6719
▁banks	-6720
▁crept	-6721
▁feroc	-6722
▁limit	-6723
▁ruins	-6724
ilities	-6725
▁adored	-6726
▁autumn	-6727
▁barrel	-6728
▁deeper	-6729
▁detach	-6730
▁inward	-6731
▁pillow	-6732
▁reject	-6733
▁theyre	-6734
▁congrat	-6735
▁discern	-6736
▁draught	-6737
▁elegant	-6738
▁endless	-6739
▁envelop	-6740
▁newspap	-6741
▁slender	-6742
▁william	-6743
▁announce	-6744
▁frequent	-6745
▁gracious	-6746
▁memories	-6747
▁godalming	-6748
▁obedience	-6749
▁reasoning	-6750
▁religious	-6751
▁directions	-6752
▁proceeding	-6753
▁threatening	-6754
who	-6755
umps	-6756
▁bea	-6757
▁fab	-6758
▁flu	-6759
▁gri	-6760
▁roo	-6761
0,000	-6762
break	-6763
eling	-6764
guard	-6765
icken	-6766
nasse	-6767
▁gulf	-6768
▁lust	-6769
▁mond	-6770
▁noon	-6771
▁olig	-6772
▁publ	-6773
▁rude	-6774
▁shih	-6775
▁slip	-6776
▁sobs	-6777
▁trip	-6778
▁demon	-6779
▁lucky	-6780
▁scept	-6781
▁ashore	-6782
▁collar	-6783
▁exting	-6784
▁havent	-6785
▁horrid	-6786
▁mirror	-6787
▁missed	-6788
▁supply	-6789
▁traces	-6790
▁tragic	-6791
▁valley	-6792
▁virgil	-6793
ulations	-6794
▁admired	-6795
▁barrier	-6796
▁benevol	-6797
▁charged	-6798
▁demands	-6799
▁disease	-6800
▁haughty	-6801
▁impulse	-6802
▁inquiry	-6803
▁killing	-6804
▁kutzovs	-6805
▁sadness	-6806
▁springs	-6807
▁superst	-6808
▁upright	-6809
▁whoever	-6810
▁incident	-6811
▁marrying	-6812
▁oligarch	-6813
▁restrain	-6814
▁shepherd	-6815
▁sinister	-6816
▁transfer	-6817
rehensible	-6818
▁answering	-6819
▁behaviour	-6820
▁immediate	-6821
▁incapable	-6822
▁repeating	-6823
▁retreated	-6824
▁waistcoat	-6825
▁characters	-6826
▁discussion	-6827
▁simplicity	-6828
▁constitution	-6829
▁montparnasse	-6830
▁unexpectedly	-6831
▁contemplation	-6832
▁indescribable	-6833
ai	-6834
gs	-6835
rm	-6836
met	-6837
pan	-6838
keys	-6839
▁nes	-6840
▁ori	-6841
▁sne	-6842
▁xvi	-6843
attle	-6844
unken	-6845
▁chem	-6846
▁dine	-6847
▁grav	-6848
▁rese	-6849
▁scru	-6850
▁spin	-6851
master	-6852
worthy	-6853
▁barro	-6854
▁beach	-6855
▁giant	-6856
▁gleam	-6857
▁hated	-6858
▁indef	-6859
▁mathe	-6860
▁patri	-6861
▁petit	-6862
▁spout	-6863
▁tkhon	-6864
▁unity	-6865
▁veins	-6866
▁wines	-6867
ciously	-6868
▁insist	-6869
▁lesson	-6870
▁morris	-6871
▁balloon	-6872
▁bennigs	-6873
▁encoura	-6874
▁lowered	-6875
▁seizing	-6876
▁thanked	-6877
▁venture	-6878
▁criminal	-6879
▁elements	-6880
▁exercise	-6881
▁hospital	-6882
▁increase	-6883
▁intently	-6884
▁irresist	-6885
▁tranquil	-6886
▁accompany	-6887
▁confident	-6888
▁suspended	-6889
▁swallowed	-6890
▁apartments	-6891
▁invitation	-6892
▁authorities	-6893
▁monseigneur	-6894
▁probability	-6895
▁consequently	-6896
▁neighborhood	-6897
kv	-6898
reg	-6899
rue	-6900
▁ku	-6901
▁hsi	-6902
▁nic	-6903
▁phy	-6904
▁sem	-6905
olded	-6906
▁clut	-6907
▁enqu	-6908
▁matt	-6909
▁prim	-6910
▁type	-6911
▁unhe	-6912
angled	-6913
icious	-6914
▁cards	-6915
▁chari	-6916
▁color	-6917
▁depth	-6918
▁elect	-6919
▁exhib	-6920
▁goods	-6921
▁guilt	-6922
▁hosts	-6923
▁lucys	-6924
▁manly	-6925
▁older	-6926
▁owner	-6927
▁screw	-6928
▁thief	-6929
▁using	-6930
▁boldly	-6931
▁doubts	-6932
▁humble	-6933
▁prussi	-6934
▁resign	-6935
▁swords	-6936
▁thrice	-6937
▁virgin	-6938
▁adopted	-6939
▁answers	-6940
▁barrois	-6941
▁drunken	-6942
▁energet	-6943
▁eumaeus	-6944
▁sixteen	-6945
▁tremend	-6946
▁wrapped	-6947
▁cemetery	-6948
▁interrog	-6949
▁mischief	-6950
▁offended	-6951
▁swimming	-6952
▁youngest	-6953
▁conducted	-6954
▁fortnight	-6955
▁interview	-6956
▁reference	-6957
▁uneasiness	-6958
sm	-6959
ban	-6960
bys	-6961
his	-6962
pul	-6963
rim	-6964
▁19	-6965
anim	-6966
boat	-6967
ints	-6968
more	-6969
olom	-6970
▁axe	-6971
▁bee	-6972
▁jan	-6973
▁oak	-6974
▁tsh	-6975
▁xii	-6976
occup	-6977
▁boul	-6978
▁deaf	-6979
▁foam	-6980
▁isol	-6981
▁joke	-6982
▁phar	-6983
▁sage	-6984
▁soph	-6985
▁stam	-6986
▁surm	-6987
▁woke	-6988
▁apple	-6989
▁colum	-6990
▁fiend	-6991
▁frost	-6992
▁scrat	-6993
eration	-6994
umbling	-6995
▁confir	-6996
▁facing	-6997
▁fitted	-6998
▁income	-6999
▁mental	-7000
▁region	-7001
▁relate	-7002
▁seward	-7003
▁waking	-7004
aneously	-7005
▁changes	-7006
▁footman	-7007
▁marshal	-7008
▁oppress	-7009
▁scrutin	-7010
▁smaller	-7011
▁tempest	-7012
▁bleeding	-7013
▁cylinder	-7014
▁disagree	-7015
▁emotions	-7016
▁frowning	-7017
▁investig	-7018
▁peaceful	-7019
▁pleasing	-7020
▁screamed	-7021
▁skeleton	-7022
▁stopping	-7023
▁democracy	-7024
▁extremity	-7025
▁grantaire	-7026
▁narrative	-7027
▁examination	-7028
▁difficulties	-7029
▁introduction	-7030
fee	-7031
iqu	-7032
uet	-7033
▁25	-7034
anth	-7035
oyed	-7036
pooh	-7037
upon	-7038
▁sex	-7039
isure	-7040
ucing	-7041
uting	-7042
▁beds	-7043
▁carn	-7044
▁peep	-7045
▁proc	-7046
▁rent	-7047
▁sack	-7048
▁viii	-7049
▁woes	-7050
▁bayon	-7051
▁belly	-7052
▁check	-7053
▁exert	-7054
▁funny	-7055
▁intox	-7056
▁mates	-7057
▁slope	-7058
ulating	-7059
▁chains	-7060
▁eighty	-7061
▁elbows	-7062
▁indian	-7063
▁murmur	-7064
▁overth	-7065
▁sunset	-7066
▁winged	-7067
▁costume	-7068
▁declare	-7069
▁harbour	-7070
▁hectors	-7071
▁labours	-7072
▁leisure	-7073
▁partner	-7074
▁problem	-7075
▁quincey	-7076
▁respond	-7077
▁returns	-7078
▁arriving	-7079
▁attained	-7080
▁hencefor	-7081
▁interval	-7082
▁official	-7083
▁reported	-7084
▁reserved	-7085
▁innocence	-7086
▁tremendous	-7087
▁yourselves	-7088
▁attentively	-7089
▁netherfield	-7090
▁tranquillity	-7091
agon	-7092
back	-7093
zing	-7094
▁182	-7095
▁hal	-7096
▁pad	-7097
mered	-7098
▁amph	-7099
▁bowl	-7100
▁crou	-7101
▁fixd	-7102
▁flut	-7103
▁page	-7104
▁sque	-7105
itious	-7106
▁abode	-7107
▁ahabs	-7108
▁brisk	-7109
▁brows	-7110
▁desol	-7111
▁goats	-7112
▁scale	-7113
▁skirt	-7114
▁waved	-7115
▁ascend	-7116
▁herald	-7117
▁jailer	-7118
▁laying	-7119
▁scenes	-7120
▁signor	-7121
▁stolen	-7122
▁tossed	-7123
▁accused	-7124
▁connect	-7125
▁corners	-7126
▁elapsed	-7127
▁examine	-7128
▁flaming	-7129
▁glasses	-7130
▁gravely	-7131
▁grieved	-7132
▁marvell	-7133
▁refrain	-7134
▁sharply	-7135
▁temples	-7136
▁variety	-7137
▁austrian	-7138
▁bitterly	-7139
▁cloister	-7140
▁conquest	-7141
▁manifest	-7142
▁purchase	-7143
▁sciences	-7144
▁solemnly	-7145
▁assurance	-7146
▁centuries	-7147
▁exchanged	-7148
▁suspected	-7149
▁comprehend	-7150
▁distinction	-7151
▁affectionate	-7152
ada	-7153
bel	-7154
cap	-7155
iol	-7156
lar	-7157
lld	-7158
uts	-7159
vts	-7160
asty	-7161
gian	-7162
▁err	-7163
▁gir	-7164
▁hem	-7165
▁lip	-7166
▁map	-7167
orney	-7168
▁heir	-7169
▁idle	-7170
▁jaws	-7171
▁jord	-7172
▁mask	-7173
▁nort	-7174
▁pink	-7175
▁thom	-7176
olomys	-7177
ourage	-7178
resses	-7179
spring	-7180
▁adieu	-7181
▁chuan	-7182
▁etern	-7183
▁kitty	-7184
▁scorn	-7185
▁simon	-7186
▁spern	-7187
▁tones	-7188
chamber	-7189
▁altern	-7190
▁cities	-7191
▁critic	-7192
▁driver	-7193
▁ecstas	-7194
▁female	-7195
▁graved	-7196
▁nesvts	-7197
▁paying	-7198
▁profit	-7199
▁punish	-7200
▁raging	-7201
▁review	-7202
▁rights	-7203
▁roused	-7204
▁vanity	-7205
▁aroused	-7206
▁bossuet	-7207
▁closing	-7208
▁dispers	-7209
▁happily	-7210
▁placing	-7211
▁upwards	-7212
▁domestic	-7213
▁noticing	-7214
▁startled	-7215
▁valuable	-7216
▁ascertain	-7217
▁certainty	-7218
▁statement	-7219
▁strengthe	-7220
▁transform	-7221
▁advantages	-7222
▁discipline	-7223
▁downstairs	-7224
▁incessantly	-7225
▁reflections	-7226
▁unconscious	-7227
iac	-7228
oir	-7229
uil	-7230
▁ya	-7231
atch	-7232
iate	-7233
quar	-7234
aging	-7235
nders	-7236
▁bast	-7237
▁echo	-7238
▁juno	-7239
▁load	-7240
▁male	-7241
▁nigh	-7242
▁tart	-7243
▁upro	-7244
▁wink	-7245
▁alter	-7246
▁analy	-7247
▁dried	-7248
▁fates	-7249
▁henry	-7250
▁milit	-7251
▁roads	-7252
▁satur	-7253
▁sends	-7254
▁spies	-7255
iration	-7256
ressing	-7257
▁amazed	-7258
▁appeal	-7259
▁artist	-7260
▁crownd	-7261
▁heroic	-7262
▁prejud	-7263
▁recent	-7264
▁travel	-7265
▁velvet	-7266
▁vulgar	-7267
inations	-7268
▁capture	-7269
▁deliver	-7270
▁marquis	-7271
▁opposed	-7272
▁pistols	-7273
▁prosper	-7274
▁rightly	-7275
▁sending	-7276
▁timidly	-7277
▁twisted	-7278
▁warning	-7279
▁washing	-7280
▁whereon	-7281
▁combined	-7282
▁communic	-7283
▁foremost	-7284
▁halfpast	-7285
▁masthead	-7286
▁passages	-7287
▁secondly	-7288
▁whalemen	-7289
▁belonging	-7290
▁essential	-7291
▁happening	-7292
▁persuaded	-7293
▁reception	-7294
▁senseless	-7295
▁transport	-7296
▁adventures	-7297
▁commanders	-7298
▁protection	-7299
▁exceedingly	-7300
▁exclamation	-7301
▁insurrection	-7302
▁characteristic	-7303
.1	-7304
aid	-7305
net	-7306
▁ti	-7307
▁abo	-7308
▁cul	-7309
▁dwe	-7310
▁lac	-7311
▁lap	-7312
▁lem	-7313
▁pup	-7314
dides	-7315
erate	-7316
iated	-7317
llers	-7318
urred	-7319
▁bild	-7320
▁bust	-7321
▁gasp	-7322
▁goss	-7323
▁imit	-7324
▁lads	-7325
▁luig	-7326
▁phen	-7327
▁push	-7328
▁subs	-7329
othing	-7330
▁achie	-7331
▁china	-7332
▁darts	-7333
▁dilig	-7334
▁eloqu	-7335
▁heels	-7336
▁hovel	-7337
▁infam	-7338
▁keeps	-7339
▁marsh	-7340
atively	-7341
▁career	-7342
▁chapel	-7343
▁hurrah	-7344
▁orient	-7345
▁phrase	-7346
▁shared	-7347
▁towers	-7348
▁tybalt	-7349
▁aristot	-7350
▁counted	-7351
▁darling	-7352
▁exagger	-7353
▁forming	-7354
▁gallant	-7355
▁howling	-7356
▁privile	-7357
▁dwelling	-7358
▁gardener	-7359
▁properly	-7360
▁tholomys	-7361
▁falsehood	-7362
▁practical	-7363
▁attributed	-7364
▁expectation	-7365
2,	-7366
car	-7367
ops	-7368
oles	-7369
phon	-7370
udge	-7371
wing	-7372
▁fan	-7373
▁rug	-7374
▁ult	-7375
▁vra	-7376
armes	-7377
imant	-7378
tends	-7379
▁arab	-7380
▁brut	-7381
▁grin	-7382
▁meas	-7383
▁serp	-7384
▁tops	-7385
orable	-7386
▁haunt	-7387
▁holds	-7388
▁impet	-7389
▁livid	-7390
▁luigi	-7391
▁miser	-7392
▁nephe	-7393
▁procl	-7394
▁sixth	-7395
▁teres	-7396
▁trade	-7397
▁trump	-7398
▁trunk	-7399
▁upset	-7400
▁geomet	-7401
▁hunter	-7402
▁issued	-7403
▁maiden	-7404
▁mouths	-7405
▁mutual	-7406
▁pallas	-7407
▁ponder	-7408
▁simult	-7409
▁spears	-7410
▁submit	-7411
▁subtle	-7412
▁artific	-7413
▁classes	-7414
▁exposed	-7415
▁grating	-7416
▁policem	-7417
▁thicket	-7418
▁vaguely	-7419
▁vehicle	-7420
▁accounts	-7421
▁adeimant	-7422
▁commence	-7423
▁daybreak	-7424
▁feverish	-7425
▁gravedig	-7426
▁hurrying	-7427
▁lawrence	-7428
▁perished	-7429
▁phenomen	-7430
▁portrait	-7431
▁rapidity	-7432
▁relieved	-7433
▁reminded	-7434
▁services	-7435
▁surround	-7436
▁wondrous	-7437
▁physician	-7438
▁quivering	-7439
▁treasures	-7440
▁marvellous	-7441
▁precaution	-7442
▁acknowledged	-7443
▁perspiration	-7444
▁respectfully	-7445
oni	-7446
ray	-7447
ula	-7448
fish	-7449
gypt	-7450
hire	-7451
post	-7452
▁ath	-7453
▁dug	-7454
▁tid	-7455
▁asks	-7456
▁bars	-7457
▁cape	-7458
▁dict	-7459
▁dies	-7460
▁drug	-7461
▁hull	-7462
▁hush	-7463
▁lyci	-7464
▁neas	-7465
▁plot	-7466
▁pope	-7467
▁rein	-7468
▁rows	-7469
▁scor	-7470
▁spec	-7471
▁sung	-7472
▁thre	-7473
acians	-7474
necess	-7475
▁crush	-7476
▁dense	-7477
▁dwarf	-7478
▁union	-7479
▁beggar	-7480
▁corsic	-7481
▁defect	-7482
▁denied	-7483
▁helmet	-7484
▁leaped	-7485
▁mantle	-7486
▁remote	-7487
▁scheme	-7488
▁sleepy	-7489
▁washed	-7490
quarters	-7491
▁amusing	-7492
▁appreci	-7493
▁blushed	-7494
▁chances	-7495
▁clasped	-7496
▁compare	-7497
▁dungeon	-7498
▁effects	-7499
▁faculty	-7500
▁gatsbys	-7501
▁injured	-7502
▁partial	-7503
▁pharaon	-7504
▁prefect	-7505
▁pushing	-7506
▁remorse	-7507
▁sailing	-7508
▁staying	-7509
▁sternly	-7510
▁torture	-7511
▁alcinous	-7512
▁conceive	-7513
▁conveyed	-7514
▁mourning	-7515
▁murdered	-7516
▁supplied	-7517
▁uttering	-7518
▁bennigsen	-7519
▁endeavour	-7520
▁gathering	-7521
▁offspring	-7522
▁adeimantus	-7523
▁contradict	-7524
▁intentions	-7525
▁wellington	-7526
▁consolation	-7527
▁intellectual	-7528
▁neighbourhood	-7529
▁unconsciously	-7530
,1	-7531
ari	-7532
boy	-7533
cys	-7534
ands	-7535
inth	-7536
mast	-7537
mind	-7538
orus	-7539
reet	-7540
usal	-7541
▁duc	-7542
▁pac	-7543
alect	-7544
faced	-7545
ieves	-7546
nings	-7547
shine	-7548
white	-7549
▁conj	-7550
▁csar	-7551
▁empt	-7552
▁hamm	-7553
▁oxen	-7554
▁spar	-7555
▁tort	-7556
▁vien	-7557
▁yawn	-7558
porary	-7559
▁await	-7560
▁azure	-7561
▁blast	-7562
▁chast	-7563
▁folds	-7564
▁ilion	-7565
▁magic	-7566
▁oppon	-7567
▁paced	-7568
▁pilot	-7569
▁salon	-7570
▁sympt	-7571
▁unite	-7572
iveness	-7573
▁aboard	-7574
▁betray	-7575
▁bowing	-7576
▁cavern	-7577
▁defeat	-7578
▁devour	-7579
▁insurg	-7580
▁judges	-7581
▁rarely	-7582
▁subter	-7583
▁teresa	-7584
standing	-7585
▁benefit	-7586
▁doorway	-7587
▁gallery	-7588
▁hawkins	-7589
▁landing	-7590
▁secrets	-7591
▁selfish	-7592
▁terrors	-7593
▁undoubt	-7594
▁awakened	-7595
▁betrayed	-7596
▁nesvtski	-7597
▁delivered	-7598
▁displayed	-7599
▁earnestly	-7600
▁gendarmes	-7601
▁gymnastic	-7602
▁interpret	-7603
▁occasions	-7604
▁venerable	-7605
▁willingly	-7606
▁convention	-7607
▁generation	-7608
▁politeness	-7609
▁struggling	-7610
▁triumphant	-7611
7,	-7612
omb	-7613
six	-7614
atev	-7615
bell	-7616
eans	-7617
hole	-7618
mosp	-7619
▁bri	-7620
▁cof	-7621
▁dus	-7622
▁ivn	-7623
▁lee	-7624
▁lun	-7625
▁rhy	-7626
eless	-7627
loire	-7628
▁bilb	-7629
▁dial	-7630
▁gale	-7631
▁gild	-7632
▁papa	-7633
▁tool	-7634
igning	-7635
rating	-7636
teenth	-7637
▁aided	-7638
▁burnt	-7639
▁delir	-7640
▁goose	-7641
▁physi	-7642
▁reins	-7643
▁roast	-7644
▁smart	-7645
▁swung	-7646
▁towns	-7647
▁angels	-7648
▁atmosp	-7649
▁bullet	-7650
▁bushes	-7651
▁cursed	-7652
▁devils	-7653
▁impert	-7654
▁intend	-7655
▁meadow	-7656
▁metaph	-7657
▁riches	-7658
▁slaves	-7659
▁snatch	-7660
▁warmth	-7661
▁worlds	-7662
▁climbed	-7663
▁consist	-7664
▁deceive	-7665
▁dialect	-7666
▁dispute	-7667
▁enjoyed	-7668
▁gardens	-7669
▁glances	-7670
▁karatev	-7671
▁pretend	-7672
▁pretext	-7673
▁prophet	-7674
▁shortly	-7675
▁writers	-7676
▁audience	-7677
▁counsels	-7678
▁hundreds	-7679
▁majestic	-7680
▁mathemat	-7681
▁recently	-7682
▁relative	-7683
▁sunshine	-7684
▁assuredly	-7685
▁benedetto	-7686
▁imitation	-7687
▁respected	-7688
▁spectacle	-7689
▁supported	-7690
▁bewildered	-7691
▁increasing	-7692
▁successful	-7693
▁arrangements	-7694
▁disagreeable	-7695
▁communication	-7696
vo	-7697
bur	-7698
dam	-7699
nel	-7700
umm	-7701
upt	-7702
rise	-7703
▁awe	-7704
▁cub	-7705
▁gas	-7706
▁net	-7707
▁rud	-7708
▁shy	-7709
anded	-7710
iners	-7711
urned	-7712
▁bees	-7713
▁fits	-7714
▁phae	-7715
▁stif	-7716
▁tiny	-7717
▁unac	-7718
stones	-7719
vering	-7720
▁admin	-7721
▁drift	-7722
▁lucas	-7723
▁mason	-7724
▁mould	-7725
▁panic	-7726
▁prose	-7727
▁stove	-7728
▁veget	-7729
▁carpet	-7730
▁childs	-7731
▁coldly	-7732
▁divide	-7733
▁exquis	-7734
▁groups	-7735
▁insign	-7736
▁knight	-7737
▁landed	-7738
▁lonely	-7739
▁planks	-7740
▁rubles	-7741
▁sheets	-7742
▁sphere	-7743
▁theirs	-7744
▁unseen	-7745
▁waving	-7746
▁attacks	-7747
▁augment	-7748
▁chanced	-7749
▁citizen	-7750
▁deserve	-7751
▁mortals	-7752
▁ringing	-7753
▁thieves	-7754
▁villain	-7755
▁weapons	-7756
▁whistle	-7757
▁complain	-7758
▁descends	-7759
▁eyebrows	-7760
▁highness	-7761
▁magloire	-7762
▁preoccup	-7763
▁punished	-7764
▁valjeans	-7765
▁wineshop	-7766
▁arguments	-7767
▁enveloped	-7768
▁philosoph	-7769
▁compliment	-7770
▁foundation	-7771
▁instrument	-7772
▁opposition	-7773
▁respectful	-7774
▁battlefield	-7775
▁entertained	-7776
▁dispositions	-7777
▁establishment	-7778
sp	-7779
bac	-7780
isl	-7781
mar	-7782
▁rh	-7783
bery	-7784
iday	-7785
kers	-7786
leys	-7787
ogue	-7788
they	-7789
▁dyn	-7790
▁jes	-7791
▁unw	-7792
▁voc	-7793
glass	-7794
ifted	-7795
▁bond	-7796
▁bund	-7797
▁copy	-7798
▁dorm	-7799
▁doth	-7800
▁leap	-7801
▁prel	-7802
▁spid	-7803
▁turk	-7804
ctions	-7805
▁avail	-7806
▁coron	-7807
▁embro	-7808
▁moist	-7809
▁ornam	-7810
▁phbus	-7811
▁range	-7812
▁revel	-7813
▁rolls	-7814
▁scent	-7815
▁score	-7816
▁swine	-7817
▁theft	-7818
▁widow	-7819
▁acting	-7820
▁affirm	-7821
▁arrows	-7822
▁avenue	-7823
▁bathed	-7824
▁butter	-7825
▁cattle	-7826
▁indust	-7827
▁jacket	-7828
▁joyous	-7829
▁occupy	-7830
▁philip	-7831
▁saddle	-7832
▁seamen	-7833
▁circles	-7834
▁columns	-7835
▁derived	-7836
▁forests	-7837
▁furnish	-7838
▁gravity	-7839
▁harkers	-7840
▁realize	-7841
▁seventh	-7842
necessary	-7843
▁huntsman	-7844
▁lowering	-7845
▁retained	-7846
▁saturday	-7847
▁sentinel	-7848
▁uncommon	-7849
▁wandered	-7850
▁withdrew	-7851
▁attempted	-7852
▁charlotte	-7853
▁observing	-7854
▁preferred	-7855
▁searching	-7856
▁travelled	-7857
▁describing	-7858
▁forgetting	-7859
▁occupation	-7860
▁passionate	-7861
▁accordingly	-7862
▁catastrophe	-7863
was	-7864
▁21	-7865
▁ot	-7866
anny	-7867
lles	-7868
▁cam	-7869
▁cob	-7870
▁fog	-7871
▁jet	-7872
▁tut	-7873
asion	-7874
▁boot	-7875
▁bulk	-7876
▁cruc	-7877
▁feed	-7878
▁goal	-7879
▁horn	-7880
▁jury	-7881
▁kurg	-7882
▁liqu	-7883
▁lung	-7884
▁neat	-7885
▁nove	-7886
▁sout	-7887
▁tash	-7888
▁xiii	-7889
ulties	-7890
▁cliff	-7891
▁egypt	-7892
▁exter	-7893
▁grain	-7894
▁groom	-7895
▁innum	-7896
▁issue	-7897
▁rises	-7898
ouncing	-7899
▁advise	-7900
▁bounds	-7901
▁copper	-7902
▁esteem	-7903
▁images	-7904
▁legisl	-7905
▁oppose	-7906
▁plumet	-7907
▁provin	-7908
▁remove	-7909
▁saving	-7910
▁volunt	-7911
▁watery	-7912
▁bullets	-7913
▁endured	-7914
▁enthusi	-7915
▁flashed	-7916
▁grounds	-7917
▁lifting	-7918
▁machine	-7919
▁reverse	-7920
▁slumber	-7921
▁tydides	-7922
▁ambition	-7923
▁backward	-7924
▁contains	-7925
▁covering	-7926
▁dragging	-7927
▁educated	-7928
▁fourteen	-7929
▁parisian	-7930
▁prioress	-7931
▁viscount	-7932
▁customary	-7933
▁exquisite	-7934
▁faculties	-7935
▁introduce	-7936
▁unnatural	-7937
▁wandering	-7938
▁containing	-7939
▁henceforth	-7940
▁maintained	-7941
▁resistance	-7942
▁retreating	-7943
▁surprising	-7944
▁application	-7945
▁innumerable	-7946
03	-7947
cat	-7948
ims	-7949
ouch	-7950
pass	-7951
ping	-7952
▁jup	-7953
▁sed	-7954
aeans	-7955
allel	-7956
eshot	-7957
isive	-7958
ooked	-7959
pends	-7960
saint	-7961
▁adjo	-7962
▁borz	-7963
▁dame	-7964
▁duck	-7965
▁genu	-7966
▁luci	-7967
▁nuns	-7968
▁stal	-7969
factor	-7970
▁backs	-7971
▁dusty	-7972
▁faire	-7973
▁hadnt	-7974
▁luxem	-7975
▁newly	-7976
▁slipp	-7977
▁vanqu	-7978
▁vexed	-7979
▁vicom	-7980
natured	-7981
▁cultiv	-7982
▁groans	-7983
▁hammer	-7984
▁hasten	-7985
▁humili	-7986
▁infall	-7987
▁jordan	-7988
▁league	-7989
▁nephew	-7990
▁pounds	-7991
▁resent	-7992
▁scound	-7993
▁shores	-7994
▁talent	-7995
▁trench	-7996
▁uproar	-7997
▁verses	-7998
▁vulcan	-7999
▁altered	-8000
▁charity	-8001
▁enlight	-8002
▁passers	-8003
▁persist	-8004
▁propose	-8005
▁reduced	-8006
▁shields	-8007
▁theatre	-8008
▁thereby	-8009
▁yielded	-8010
▁bursting	-8011
▁delicacy	-8012
▁desirous	-8013
▁doubtful	-8014
▁drooping	-8015
▁forecast	-8016
▁joyfully	-8017
▁released	-8018
▁retorted	-8019
▁sunlight	-8020
▁battalion	-8021
▁betrothed	-8022
▁decidedly	-8023
▁forbidden	-8024
▁grapeshot	-8025
▁objection	-8026
▁luxembourg	-8027
▁perfection	-8028
▁procession	-8029
▁provisions	-8030
▁suspicious	-8031
▁temperance	-8032
▁threatened	-8033
▁complicated	-8034
▁fortunately	-8035
▁harpooneers	-8036
▁impatiently	-8037
▁undoubtedly	-8038
aul	-8039
bow	-8040
gue	-8041
ppd	-8042
uss	-8043
aise	-8044
erer	-8045
ieth	-8046
lini	-8047
sect	-8048
▁doc	-8049
▁ecc	-8050
▁fug	-8051
▁gry	-8052
▁job	-8053
▁mun	-8054
▁wiz	-8055
might	-8056
warks	-8057
▁acts	-8058
▁barg	-8059
▁bisc	-8060
▁clad	-8061
▁dess	-8062
▁econ	-8063
▁fath	-8064
▁init	-8065
▁knot	-8066
▁nail	-8067
▁puts	-8068
▁slew	-8069
▁surv	-8070
▁tsar	-8071
▁blade	-8072
▁climb	-8073
▁debts	-8074
▁dined	-8075
▁irreg	-8076
▁nails	-8077
▁nostr	-8078
▁outst	-8079
▁shine	-8080
▁solic	-8081
▁songs	-8082
▁thumb	-8083
▁tobac	-8084
▁awaken	-8085
▁bildad	-8086
▁cheese	-8087
▁coffee	-8088
▁coloss	-8089
▁dissol	-8090
▁divers	-8091
▁gladly	-8092
▁immort	-8093
▁jewell	-8094
▁lawyer	-8095
▁plains	-8096
▁quiver	-8097
▁reluct	-8098
▁sharks	-8099
▁shower	-8100
▁stated	-8101
▁tavern	-8102
▁termed	-8103
▁turtle	-8104
▁vienna	-8105
▁commiss	-8106
▁dislike	-8107
▁dreamed	-8108
▁fancies	-8109
▁fishery	-8110
▁islands	-8111
▁largest	-8112
▁olympus	-8113
▁priests	-8114
▁strikes	-8115
▁thirsty	-8116
▁achaeans	-8117
▁antinous	-8118
▁bulwarks	-8119
▁chariots	-8120
▁converse	-8121
▁invented	-8122
▁measures	-8123
▁relating	-8124
▁standard	-8125
▁suitable	-8126
▁apprehens	-8127
▁passersby	-8128
▁purchased	-8129
▁scoundrel	-8130
▁spreading	-8131
▁stationed	-8132
▁perceiving	-8133
▁illustrious	-8134
▁unnecessary	-8135
▁wretchedness	-8136
▁unfortunately	-8137
aft	-8138
jon	-8139
kov	-8140
lon	-8141
tis	-8142
apes	-8143
cons	-8144
ignd	-8145
ront	-8146
▁omn	-8147
▁rat	-8148
abled	-8149
allen	-8150
chers	-8151
erval	-8152
isons	-8153
ovnas	-8154
pulch	-8155
▁buzz	-8156
▁chan	-8157
▁cycl	-8158
▁dost	-8159
▁duel	-8160
▁exit	-8161
▁fist	-8162
▁fund	-8163
▁muse	-8164
▁shun	-8165
▁sket	-8166
▁subd	-8167
▁suck	-8168
▁tous	-8169
▁tram	-8170
▁winn	-8171
athieu	-8172
istrat	-8173
strate	-8174
▁alley	-8175
▁anter	-8176
▁chill	-8177
▁clung	-8178
▁eagle	-8179
▁fools	-8180
▁opera	-8181
▁priam	-8182
▁raven	-8183
▁reent	-8184
▁roofs	-8185
▁silly	-8186
▁stoop	-8187
▁tshin	-8188
▁walks	-8189
ordered	-8190
▁condes	-8191
▁deemed	-8192
▁dismay	-8193
▁edward	-8194
▁enters	-8195
▁louder	-8196
▁pember	-8197
▁strife	-8198
▁traged	-8199
▁woking	-8200
▁bandits	-8201
▁banquet	-8202
▁carries	-8203
▁doubted	-8204
▁fearing	-8205
▁gryphon	-8206
▁orderly	-8207
▁pastrin	-8208
▁phantom	-8209
▁recomme	-8210
▁sepulch	-8211
▁skilful	-8212
▁american	-8213
▁assassin	-8214
▁attempts	-8215
▁dreaming	-8216
▁included	-8217
▁encourage	-8218
▁horseback	-8219
▁literally	-8220
▁pemberley	-8221
▁pretended	-8222
▁stammered	-8223
▁tormented	-8224
▁uncomfort	-8225
▁apparition	-8226
▁expressing	-8227
▁insignific	-8228
▁literature	-8229
▁personally	-8230
▁questioned	-8231
▁respecting	-8232
▁sentiments	-8233
ho	-8234
ige	-8235
ril	-8236
▁cf	-8237
arts	-8238
bons	-8239
cest	-8240
five	-8241
inks	-8242
jean	-8243
rawn	-8244
yton	-8245
▁haz	-8246
▁lif	-8247
▁xxx	-8248
▁yan	-8249
ensed	-8250
mates	-8251
thats	-8252
vaire	-8253
▁ante	-8254
▁cats	-8255
▁hing	-8256
▁owed	-8257
▁swam	-8258
▁trib	-8259
▁verd	-8260
alling	-8261
atives	-8262
brance	-8263
ifully	-8264
ribute	-8265
uesday	-8266
▁abund	-8267
▁accus	-8268
▁bells	-8269
▁brist	-8270
▁dares	-8271
▁defin	-8272
▁dimly	-8273
▁discl	-8274
▁dutch	-8275
▁enlar	-8276
▁fence	-8277
▁holes	-8278
▁laert	-8279
▁lions	-8280
▁locks	-8281
▁recon	-8282
▁redou	-8283
▁scand	-8284
▁spell	-8285
▁stole	-8286
▁tenth	-8287
▁thigh	-8288
▁weigh	-8289
ression	-8290
▁basque	-8291
▁center	-8292
▁champs	-8293
▁flowed	-8294
▁fulfil	-8295
▁growth	-8296
▁hoping	-8297
▁inches	-8298
▁induce	-8299
▁longed	-8300
▁nerves	-8301
▁newcom	-8302
▁pallor	-8303
▁revolt	-8304
▁saints	-8305
▁stores	-8306
▁symbol	-8307
▁transf	-8308
▁welcom	-8309
▁condemn	-8310
▁dangers	-8311
▁dazzled	-8312
▁ecstasy	-8313
▁essence	-8314
▁extingu	-8315
▁jupiter	-8316
▁lacking	-8317
▁lessons	-8318
▁meryton	-8319
▁nowhere	-8320
▁regards	-8321
▁rewards	-8322
▁serving	-8323
▁spartan	-8324
▁victims	-8325
▁winding	-8326
▁afforded	-8327
▁alarming	-8328
▁appetite	-8329
▁calmness	-8330
▁capacity	-8331
▁frontier	-8332
▁grandeur	-8333
▁groaning	-8334
▁proposal	-8335
▁rattling	-8336
▁referred	-8337
▁security	-8338
▁spernski	-8339
▁stirring	-8340
▁vicinity	-8341
▁wrinkled	-8342
▁baptistin	-8343
▁discussed	-8344
▁eagerness	-8345
▁ferocious	-8346
▁irregular	-8347
▁regiments	-8348
▁resembles	-8349
▁sparkling	-8350
▁spiritual	-8351
▁whiteness	-8352
▁atmosphere	-8353
▁complexion	-8354
▁discharged	-8355
▁expressive	-8356
▁impatience	-8357
▁phaeacians	-8358
▁pocketbook	-8359
▁respectable	-8360
▁superiority	-8361
▁transferred	-8362
▁instinctively	-8363
▁simultaneously	-8364
0,	-8365
3,	-8366
eer	-8367
pri	-8368
pro	-8369
sha	-8370
two	-8371
cont	-8372
gage	-8373
ilet	-8374
omme	-8375
open	-8376
riel	-8377
rier	-8378
▁dew	-8379
▁lid	-8380
▁wil	-8381
ients	-8382
inals	-8383
othes	-8384
smith	-8385
▁agon	-8386
▁bids	-8387
▁bron	-8388
▁desc	-8389
▁intr	-8390
▁mute	-8391
▁nave	-8392
▁unin	-8393
▁vile	-8394
affold	-8395
estern	-8396
herent	-8397
picpus	-8398
urable	-8399
▁abhor	-8400
▁blaze	-8401
▁campf	-8402
▁draws	-8403
▁globe	-8404
▁grott	-8405
▁ladys	-8406
▁plump	-8407
▁rigid	-8408
▁roses	-8409
▁schol	-8410
▁seeks	-8411
▁smoll	-8412
▁spoil	-8413
▁sweat	-8414
itively	-8415
ocratic	-8416
▁advers	-8417
▁amused	-8418
▁bilbin	-8419
▁bucket	-8420
▁busoni	-8421
▁deaths	-8422
▁easter	-8423
▁faster	-8424
▁hounds	-8425
▁indisp	-8426
▁livres	-8427
▁morrow	-8428
▁paraly	-8429
▁ration	-8430
▁repent	-8431
▁robbed	-8432
▁rubbed	-8433
▁stable	-8434
▁tasted	-8435
▁avoided	-8436
▁clerval	-8437
▁descent	-8438
▁drowned	-8439
▁flatter	-8440
▁glowing	-8441
▁guarded	-8442
▁inherit	-8443
▁inspire	-8444
▁marched	-8445
▁planted	-8446
▁praying	-8447
▁protest	-8448
▁satisfy	-8449
▁secured	-8450
▁seeming	-8451
▁stamped	-8452
▁tobacco	-8453
▁anothers	-8454
▁bingleys	-8455
▁childish	-8456
▁dropping	-8457
▁elephant	-8458
▁inconven	-8459
▁measured	-8460
▁overhead	-8461
▁rejoiced	-8462
▁scaffold	-8463
▁shutters	-8464
▁steadily	-8465
▁arranging	-8466
▁conceived	-8467
▁confirmed	-8468
▁converted	-8469
▁extending	-8470
▁hereafter	-8471
▁honorable	-8472
▁neglected	-8473
▁possesses	-8474
▁prevailed	-8475
▁stockings	-8476
▁tradition	-8477
▁insurgents	-8478
▁tumultuous	-8479
▁twentyfour	-8480
▁gravedigger	-8481
▁petitpicpus	-8482
▁preparation	-8483
▁significant	-8484
▁acquaintances	-8485
▁disappointment	-8486
sc	-8487
ano	-8488
bec	-8489
why	-8490
▁24	-8491
▁ay	-8492
▁bi	-8493
▁um	-8494
bors	-8495
clay	-8496
ifix	-8497
iola	-8498
▁feb	-8499
▁tub	-8500
▁viv	-8501
lyses	-8502
otism	-8503
ucked	-8504
▁aute	-8505
▁beam	-8506
▁belt	-8507
▁bolt	-8508
▁cens	-8509
▁dand	-8510
▁dron	-8511
▁emph	-8512
▁fasc	-8513
▁fors	-8514
▁mudd	-8515
▁ramp	-8516
▁reco	-8517
▁ward	-8518
illing	-8519
▁entry	-8520
▁knoll	-8521
▁liken	-8522
▁local	-8523
▁novel	-8524
▁petty	-8525
▁punct	-8526
▁rhyth	-8527
▁rings	-8528
▁ropes	-8529
▁selfs	-8530
▁spain	-8531
▁total	-8532
▁tread	-8533
▁wiped	-8534
oration	-8535
paniola	-8536
▁adding	-8537
▁create	-8538
▁guided	-8539
▁hatter	-8540
▁hearth	-8541
▁hunted	-8542
▁lucien	-8543
▁needle	-8544
▁rivers	-8545
▁statue	-8546
▁tashte	-8547
▁assault	-8548
▁auteuil	-8549
▁baggage	-8550
▁begging	-8551
▁bravest	-8552
▁charles	-8553
▁cracked	-8554
▁densovs	-8555
▁halfway	-8556
▁handful	-8557
▁horrors	-8558
▁methods	-8559
▁prudent	-8560
▁puzzled	-8561
▁readers	-8562
▁reigned	-8563
▁serpent	-8564
▁stirred	-8565
▁trained	-8566
▁vicomte	-8567
▁alliance	-8568
▁approved	-8569
▁catching	-8570
▁crucifix	-8571
▁effected	-8572
▁festival	-8573
▁involved	-8574
▁polished	-8575
▁replying	-8576
▁respects	-8577
▁selected	-8578
▁smallest	-8579
▁stepping	-8580
▁stooping	-8581
▁wondered	-8582
▁aristotle	-8583
▁attendant	-8584
▁countries	-8585
▁dissatisf	-8586
▁divisions	-8587
▁fantastic	-8588
▁fulfilled	-8589
▁galloping	-8590
▁innkeeper	-8591
▁sorrowful	-8592
▁swineherd	-8593
▁telegraph	-8594
▁toussaint	-8595
▁wellknown	-8596
▁battalions	-8597
▁displeased	-8598
▁hispaniola	-8599
▁penetrated	-8600
▁victorious	-8601
▁champslyses	-8602
▁constructed	-8603
▁necessarily	-8604
▁neighboring	-8605
▁recognizing	-8606
6,	-8607
9,	-8608
ems	-8609
iel	-8610
noe	-8611
▁27	-8612
▁dw	-8613
▁lh	-8614
▁vl	-8615
aind	-8616
arme	-8617
uity	-8618
ylus	-8619
▁ree	-8620
▁sar	-8621
▁shu	-8622
▁vow	-8623
ansas	-8624
▁font	-8625
▁lege	-8626
▁limb	-8627
▁navy	-8628
▁rely	-8629
▁riot	-8630
▁scot	-8631
▁tack	-8632
▁tipt	-8633
▁usur	-8634
▁wilt	-8635
▁xvii	-8636
encies	-8637
rained	-8638
remony	-8639
uteous	-8640
▁beams	-8641
▁bliss	-8642
▁ditch	-8643
▁felix	-8644
▁ghast	-8645
▁inval	-8646
▁meets	-8647
▁pious	-8648
▁tramp	-8649
▁abomin	-8650
▁alarms	-8651
▁ambush	-8652
▁barely	-8653
▁brandy	-8654
▁deform	-8655
▁diomed	-8656
▁ghosts	-8657
▁gloves	-8658
▁justly	-8659
▁merion	-8660
▁overfl	-8661
▁patter	-8662
▁polish	-8663
▁rescue	-8664
▁thetis	-8665
▁authors	-8666
▁casting	-8667
▁challen	-8668
▁floated	-8669
▁genuine	-8670
▁granted	-8671
▁livesey	-8672
▁renewed	-8673
▁reserve	-8674
▁spectre	-8675
▁torrent	-8676
▁warlike	-8677
▁weighed	-8678
▁winniet	-8679
▁ceremony	-8680
▁cowardly	-8681
▁fortunes	-8682
▁fountain	-8683
▁marching	-8684
▁pastrini	-8685
▁preceded	-8686
▁speedily	-8687
▁terribly	-8688
▁vigorous	-8689
▁assistant	-8690
▁attacking	-8691
▁believing	-8692
▁determine	-8693
▁dispersed	-8694
▁fireplace	-8695
▁frenchmen	-8696
▁instances	-8697
▁irritated	-8698
▁regarding	-8699
▁artificial	-8700
▁calculated	-8701
▁churchyard	-8702
▁detachment	-8703
▁favourable	-8704
▁objections	-8705
▁travellers	-8706
▁endeavoured	-8707
▁hospitality	-8708
▁subterranean	-8709
ee	-8710
ait	-8711
alf	-8712
pel	-8713
eyed	-8714
lass	-8715
lope	-8716
oked	-8717
shka	-8718
▁tol	-8719
▁tru	-8720
arian	-8721
ilion	-8722
press	-8723
ruary	-8724
▁alle	-8725
▁bite	-8726
▁carb	-8727
▁cash	-8728
▁cove	-8729
▁cure	-8730
▁dumb	-8731
▁ejac	-8732
▁haul	-8733
▁hood	-8734
▁keel	-8735
▁myth	-8736
▁orph	-8737
▁rapt	-8738
▁rash	-8739
▁recl	-8740
▁vine	-8741
▁wang	-8742
▁zeal	-8743
erving	-8744
haired	-8745
hepooh	-8746
retion	-8747
▁bache	-8748
▁catal	-8749
▁decre	-8750
▁folks	-8751
▁hasty	-8752
▁poems	-8753
▁posts	-8754
▁shaft	-8755
▁shots	-8756
▁stupe	-8757
▁apples	-8758
▁brujon	-8759
▁easier	-8760
▁faults	-8761
▁intrig	-8762
▁kansas	-8763
▁learnt	-8764
▁midday	-8765
▁pearls	-8766
▁pressd	-8767
▁prover	-8768
▁ribbon	-8769
▁salute	-8770
▁spared	-8771
▁visits	-8772
▁approve	-8773
▁barclay	-8774
▁blazing	-8775
▁blowing	-8776
▁buttons	-8777
▁disgust	-8778
▁dresses	-8779
▁frantic	-8780
▁germans	-8781
▁ghastly	-8782
▁healthy	-8783
▁merrily	-8784
▁mixture	-8785
▁motives	-8786
▁outward	-8787
▁pequods	-8788
▁refresh	-8789
▁refusal	-8790
▁scatter	-8791
▁sleeves	-8792
▁sunrise	-8793
▁swaying	-8794
▁tuesday	-8795
▁articles	-8796
▁countrys	-8797
▁dazzling	-8798
▁deserved	-8799
▁detached	-8800
▁diamonds	-8801
▁equality	-8802
▁february	-8803
▁gendarme	-8804
▁likeness	-8805
▁monument	-8806
▁nobility	-8807
▁proceeds	-8808
▁shrugged	-8809
▁stretchd	-8810
▁tenderly	-8811
▁beauteous	-8812
▁civilized	-8813
▁enclosure	-8814
▁governors	-8815
▁impressed	-8816
▁intending	-8817
▁operation	-8818
▁prolonged	-8819
▁readiness	-8820
▁recommend	-8821
▁responded	-8822
▁confession	-8823
▁diningroom	-8824
▁expedition	-8825
▁forecastle	-8826
▁prodigious	-8827
▁spectators	-8828
▁appearances	-8829
▁embarrassed	-8830
▁impressions	-8831
▁inclination	-8832
▁remembrance	-8833
▁resemblance	-8834
▁concentrated	-8835
▁enthusiastic	-8836
▁irresistible	-8837
▁mechanically	-8838
▁embarrassment	-8839
▁uncomfortable	-8840
hat	-8841
lou	-8842
mor	-8843
nut	-8844
oph	-8845
rus	-8846
ulp	-8847
▁22	-8848
▁hs	-8849
bear	-8850
born	-8851
maid	-8852
▁lum	-8853
▁sly	-8854
▁tar	-8855
▁vag	-8856
adays	-8857
andtw	-8858
aning	-8859
iless	-8860
inger	-8861
itect	-8862
lings	-8863
oting	-8864
terns	-8865
▁athe	-8866
▁bury	-8867
▁cane	-8868
▁clay	-8869
▁leve	-8870
▁manu	-8871
▁soup	-8872
▁twit	-8873
▁urge	-8874
▁whos	-8875
▁york	-8876
actory	-8877
aneous	-8878
iverse	-8879
mighty	-8880
minded	-8881
▁argos	-8882
▁based	-8883
▁evils	-8884
▁freem	-8885
▁humor	-8886
▁idiot	-8887
▁jesus	-8888
▁marqu	-8889
▁maybe	-8890
▁negro	-8891
▁passd	-8892
▁peleg	-8893
▁perch	-8894
▁sable	-8895
▁shell	-8896
▁slack	-8897
▁snowy	-8898
▁stake	-8899
▁verge	-8900
▁verse	-8901
▁boulat	-8902
▁crowds	-8903
▁crowns	-8904
▁drawer	-8905
▁drives	-8906
▁ensued	-8907
▁escort	-8908
▁gossip	-8909
▁hearty	-8910
▁impass	-8911
▁injury	-8912
▁judged	-8913
▁melted	-8914
▁observ	-8915
▁offers	-8916
▁paving	-8917
▁reform	-8918
▁roared	-8919
▁trades	-8920
▁warned	-8921
▁contact	-8922
▁crimson	-8923
▁crowned	-8924
▁defined	-8925
▁elderly	-8926
▁frowned	-8927
▁kissing	-8928
▁parting	-8929
▁railway	-8930
▁sewards	-8931
▁stature	-8932
▁studies	-8933
▁surpass	-8934
▁tactics	-8935
▁tyranny	-8936
▁anteroom	-8937
▁blessing	-8938
▁blushing	-8939
▁counting	-8940
▁eternity	-8941
▁fragment	-8942
▁grecians	-8943
▁mustache	-8944
▁nostrils	-8945
▁nowadays	-8946
▁propriet	-8947
▁shooting	-8948
▁sideways	-8949
▁symptoms	-8950
▁tashtego	-8951
▁training	-8952
▁uniforms	-8953
▁universe	-8954
▁unworthy	-8955
▁villages	-8956
▁adjoining	-8957
▁attentive	-8958
▁clearness	-8959
▁continual	-8960
▁deposited	-8961
▁energetic	-8962
▁fragments	-8963
▁greatness	-8964
▁noirtiers	-8965
▁personage	-8966
▁ponderous	-8967
▁shivering	-8968
▁sweetness	-8969
▁whistling	-8970
▁benefactor	-8971
▁commanding	-8972
▁neighbours	-8973
▁newspapers	-8974
▁reappeared	-8975
▁regimental	-8976
▁resembling	-8977
▁sensations	-8978
▁goodnatured	-8979
▁corresponding	-8980
▁winniethepooh	-8981
94	-8982
ero	-8983
▁gy	-8984
fold	-8985
neys	-8986
oofs	-8987
wart	-8988
ymph	-8989
▁alb	-8990
▁cud	-8991
ammed	-8992
asper	-8993
atted	-8994
conte	-8995
ubber	-8996
▁buff	-8997
▁cage	-8998
▁canv	-8999
▁capn	-9000
▁cere	-9001
▁clen	-9002
▁cuir	-9003
▁dard	-9004
▁dash	-9005
▁enig	-9006
▁frog	-9007
▁joys	-9008
▁lend	-9009
▁lent	-9010
▁palm	-9011
▁pite	-9012
▁pled	-9013
▁pomp	-9014
▁raft	-9015
▁redd	-9016
▁scan	-9017
▁shag	-9018
▁volt	-9019
▁weve	-9020
▁youd	-9021
inking	-9022
ridges	-9023
▁attic	-9024
▁coinc	-9025
▁duche	-9026
▁entre	-9027
▁estim	-9028
▁exile	-9029
▁fairy	-9030
▁hedge	-9031
▁heros	-9032
▁insen	-9033
▁intol	-9034
▁maire	-9035
▁moves	-9036
▁pages	-9037
▁pilgr	-9038
▁rival	-9039
▁token	-9040
renched	-9041
▁antiqu	-9042
▁compet	-9043
▁finest	-9044
▁limits	-9045
▁madman	-9046
▁medium	-9047
▁overhe	-9048
▁owners	-9049
▁retain	-9050
▁shirts	-9051
▁sleigh	-9052
▁spoils	-9053
▁tyrann	-9054
▁vainly	-9055
▁wander	-9056
▁weaker	-9057
▁yanina	-9058
cription	-9059
▁balance	-9060
▁confirm	-9061
▁crawled	-9062
▁delayed	-9063
▁feature	-9064
▁heading	-9065
▁laertes	-9066
▁mission	-9067
▁monkeys	-9068
▁notwith	-9069
▁strides	-9070
▁subsequ	-9071
▁sweetly	-9072
▁allusion	-9073
▁brightly	-9074
▁carconte	-9075
▁consists	-9076
▁decisive	-9077
▁dragoons	-9078
▁eighteen	-9079
▁electric	-9080
▁montague	-9081
▁northern	-9082
▁parallel	-9083
▁procured	-9084
▁pursuing	-9085
▁receives	-9086
▁renfield	-9087
▁restless	-9088
▁severity	-9089
▁softened	-9090
▁strained	-9091
▁sufficed	-9092
▁vehicles	-9093
▁wrinkles	-9094
▁architect	-9095
▁boulatrue	-9096
▁inhabited	-9097
▁matchless	-9098
▁ministers	-9099
▁policeman	-9100
▁signature	-9101
▁struggled	-9102
▁accomplish	-9103
▁accordance	-9104
▁attentions	-9105
▁encouraged	-9106
▁explaining	-9107
▁incredible	-9108
▁resolutely	-9109
▁indignation	-9110
▁commentators	-9111
▁communicated	-9112
▁determination	-9113
▁inevitability	-9114
▁notwithstanding	-9115
agg	-9116
axe	-9117
cks	-9118
oug	-9119
vat	-9120
acon	-9121
agne	-9122
ders	-9123
hall	-9124
uary	-9125
▁caf	-9126
▁eve	-9127
▁hue	-9128
▁pyr	-9129
▁sul	-9130
athed	-9131
dling	-9132
ecamp	-9133
gered	-9134
icide	-9135
ochus	-9136
ograp	-9137
uated	-9138
urous	-9139
▁beer	-9140
▁chao	-9141
▁claw	-9142
▁eyel	-9143
▁gran	-9144
▁hail	-9145
▁idol	-9146
▁loaf	-9147
▁mice	-9148
▁muff	-9149
▁quad	-9150
▁seal	-9151
▁sits	-9152
soever	-9153
velope	-9154
▁brick	-9155
▁brush	-9156
▁brute	-9157
▁burns	-9158
▁clust	-9159
▁gamin	-9160
▁irony	-9161
▁jolly	-9162
▁lamps	-9163
▁lords	-9164
▁manus	-9165
▁overp	-9166
▁pylos	-9167
▁quart	-9168
▁renew	-9169
▁sober	-9170
▁swore	-9171
▁tools	-9172
▁vigor	-9173
▁wills	-9174
aration	-9175
mathieu	-9176
▁behalf	-9177
▁behave	-9178
▁cudgel	-9179
▁heaved	-9180
▁imprud	-9181
▁kurgin	-9182
▁proofs	-9183
▁repair	-9184
▁shaken	-9185
▁shroud	-9186
▁sprink	-9187
▁suited	-9188
▁toilet	-9189
▁traced	-9190
▁antique	-9191
▁bargain	-9192
▁billows	-9193
▁confine	-9194
▁cuirass	-9195
▁depends	-9196
▁enterpr	-9197
▁exhaust	-9198
▁glories	-9199
▁groaned	-9200
▁homeric	-9201
▁leaping	-9202
▁liberal	-9203
▁muskets	-9204
▁nodding	-9205
▁notions	-9206
▁rosings	-9207
▁swallow	-9208
▁trusted	-9209
▁western	-9210
▁abstract	-9211
▁allowing	-9212
▁almighty	-9213
▁careless	-9214
▁disappro	-9215
▁disguise	-9216
▁firmness	-9217
▁garments	-9218
▁jealousy	-9219
▁produces	-9220
▁resemble	-9221
▁searched	-9222
▁striving	-9223
▁tattered	-9224
▁welcomed	-9225
▁yielding	-9226
▁appearing	-9227
▁backwards	-9228
▁complaint	-9229
▁ingenious	-9230
▁penetrate	-9231
▁pronounce	-9232
▁staggered	-9233
▁witnesses	-9234
▁aidedecamp	-9235
▁carelessly	-9236
▁gentleness	-9237
▁inevitably	-9238
▁peculiarly	-9239
▁positively	-9240
▁succession	-9241
▁whispering	-9242
▁arrangement	-9243
▁restoration	-9244
▁surrounding	-9245
▁extinguished	-9246
▁philosophical	-9247
,2	-9248
ody	-9249
▁pf	-9250
cend	-9251
last	-9252
look	-9253
odes	-9254
otic	-9255
time	-9256
vial	-9257
▁lug	-9258
▁pha	-9259
▁pis	-9260
blest	-9261
itors	-9262
osity	-9263
three	-9264
ulsed	-9265
woman	-9266
▁bark	-9267
▁caly	-9268
▁desk	-9269
▁dome	-9270
▁keys	-9271
▁phry	-9272
▁plut	-9273
▁shor	-9274
▁sore	-9275
▁unav	-9276
▁vult	-9277
▁wits	-9278
llable	-9279
▁blond	-9280
▁brood	-9281
▁crawl	-9282
▁flint	-9283
▁frock	-9284
▁herds	-9285
▁logic	-9286
▁niece	-9287
▁relax	-9288
▁robes	-9289
▁seine	-9290
▁shops	-9291
▁tiger	-9292
▁twink	-9293
▁uncon	-9294
ibility	-9295
ilochus	-9296
▁analog	-9297
▁ancest	-9298
▁anyhow	-9299
▁apolog	-9300
▁arises	-9301
▁blouse	-9302
▁carved	-9303
▁lesser	-9304
▁monkey	-9305
▁pacing	-9306
▁proves	-9307
▁rattle	-9308
▁recomp	-9309
▁reveal	-9310
▁shiver	-9311
▁subord	-9312
▁swayed	-9313
▁veiled	-9314
▁whitby	-9315
▁wizard	-9316
▁america	-9317
▁article	-9318
▁beaming	-9319
▁college	-9320
▁corpses	-9321
▁decline	-9322
▁earthly	-9323
▁exasper	-9324
▁expense	-9325
▁flowing	-9326
▁frankly	-9327
▁happier	-9328
▁judging	-9329
▁jumping	-9330
▁longing	-9331
▁modesty	-9332
▁pattern	-9333
▁provide	-9334
▁seventy	-9335
▁sighing	-9336
▁stuffed	-9337
▁assigned	-9338
▁ballroom	-9339
▁concerns	-9340
▁curtains	-9341
▁lanterns	-9342
▁oriental	-9343
▁politely	-9344
▁smollett	-9345
▁supplies	-9346
▁dismissed	-9347
▁harnessed	-9348
▁indignant	-9349
▁inquiring	-9350
▁neighbors	-9351
▁nightfall	-9352
▁salvation	-9353
▁sincerely	-9354
▁stillness	-9355
▁undertake	-9356
▁attendants	-9357
▁honourable	-9358
▁appointment	-9359
▁precautions	-9360
▁preparations	-9361
.;	-9362
ga	-9363
any	-9364
cut	-9365
eng	-9366
fth	-9367
ike	-9368
sis	-9369
▁2.	-9370
▁28	-9371
arth	-9372
eous	-9373
good	-9374
olic	-9375
sels	-9376
▁ich	-9377
▁mei	-9378
▁sic	-9379
▁upl	-9380
▁vit	-9381
inthe	-9382
irect	-9383
itory	-9384
lying	-9385
notes	-9386
odule	-9387
oving	-9388
▁brit	-9389
▁choo	-9390
▁envy	-9391
▁gunn	-9392
▁lace	-9393
▁lots	-9394
▁nick	-9395
▁pigs	-9396
▁root	-9397
▁terr	-9398
▁vibr	-9399
vrerie	-9400
▁april	-9401
▁brook	-9402
▁games	-9403
▁hoofs	-9404
▁lungs	-9405
▁luxur	-9406
▁marys	-9407
▁merch	-9408
▁opens	-9409
▁plank	-9410
▁smugg	-9411
▁unequ	-9412
▁assail	-9413
▁breaks	-9414
▁client	-9415
▁courts	-9416
▁cravat	-9417
▁curate	-9418
▁detest	-9419
▁enable	-9420
▁hailed	-9421
▁incons	-9422
▁indist	-9423
▁insuff	-9424
▁luxury	-9425
▁peleus	-9426
▁rascal	-9427
▁scream	-9428
▁stormy	-9429
▁strate	-9430
▁viewed	-9431
▁warmly	-9432
▁wasted	-9433
itations	-9434
▁concier	-9435
▁courtes	-9436
▁duchess	-9437
▁dynasty	-9438
▁enabled	-9439
▁estates	-9440
▁extract	-9441
▁founded	-9442
▁heaving	-9443
▁hippoly	-9444
▁meadows	-9445
▁mercury	-9446
▁pacific	-9447
▁plaster	-9448
▁pouring	-9449
▁rejoice	-9450
▁rubbish	-9451
▁teacher	-9452
▁thodule	-9453
▁attorney	-9454
▁civility	-9455
▁colossal	-9456
▁escaping	-9457
▁huntsmen	-9458
▁knocking	-9459
▁nineteen	-9460
▁november	-9461
▁pressure	-9462
▁rational	-9463
▁ruffians	-9464
▁swinging	-9465
▁alongside	-9466
▁animation	-9467
▁buildings	-9468
▁enchanted	-9469
▁excessive	-9470
▁invention	-9471
▁obviously	-9472
▁perpetual	-9473
▁squadrons	-9474
▁thrusting	-9475
▁whirlwind	-9476
▁witnessed	-9477
▁chanvrerie	-9478
▁convenient	-9479
▁manuscript	-9480
▁meditation	-9481
▁originally	-9482
▁perplexity	-9483
▁independent	-9484
▁questioning	-9485
▁recommended	-9486
▁boulatruelle	-9487
▁champmathieu	-9488
.2	-9489
ik	-9490
awl	-9491
bey	-9492
elf	-9493
hel	-9494
ora	-9495
tee	-9496
▁eg	-9497
▁ju	-9498
▁ps	-9499
aret	-9500
aths	-9501
dled	-9502
fare	-9503
hile	-9504
irst	-9505
mate	-9506
opes	-9507
rown	-9508
▁asp	-9509
▁dur	-9510
▁dye	-9511
▁gal	-9512
▁mak	-9513
▁mob	-9514
▁pic	-9515
▁sag	-9516
▁tax	-9517
ettes	-9518
force	-9519
fords	-9520
neath	-9521
stead	-9522
usive	-9523
▁bred	-9524
▁didn	-9525
▁doct	-9526
▁epic	-9527
▁file	-9528
▁goat	-9529
▁hagg	-9530
▁heel	-9531
▁herd	-9532
▁icon	-9533
▁ilyn	-9534
▁nour	-9535
▁sequ	-9536
▁ting	-9537
▁ungr	-9538
▁afric	-9539
▁annoy	-9540
▁cared	-9541
▁corse	-9542
▁creep	-9543
▁dwelt	-9544
▁gaily	-9545
▁hairs	-9546
▁ineff	-9547
▁latin	-9548
▁likes	-9549
▁lunch	-9550
▁owned	-9551
▁polem	-9552
▁popul	-9553
▁ruled	-9554
▁sinks	-9555
▁steal	-9556
▁subur	-9557
▁surve	-9558
▁tooth	-9559
▁unpre	-9560
▁wield	-9561
▁worry	-9562
▁access	-9563
▁adjust	-9564
▁astron	-9565
▁canvas	-9566
▁cathed	-9567
▁chorus	-9568
▁excite	-9569
▁grotto	-9570
▁harder	-9571
▁hearse	-9572
▁hinges	-9573
▁invite	-9574
▁openly	-9575
▁planet	-9576
▁plants	-9577
▁purity	-9578
▁schoon	-9579
▁seaman	-9580
▁strove	-9581
▁struct	-9582
▁tiptoe	-9583
▁toulon	-9584
▁uncles	-9585
interest	-9586
▁advised	-9587
▁briskly	-9588
▁clothed	-9589
▁colours	-9590
▁dreaded	-9591
▁fishing	-9592
▁flashes	-9593
▁imitate	-9594
▁induced	-9595
▁joining	-9596
▁justine	-9597
▁oneself	-9598
▁peering	-9599
▁pelides	-9600
▁pensive	-9601
▁product	-9602
▁proverb	-9603
▁resound	-9604
▁sobbing	-9605
▁stately	-9606
▁student	-9607
▁substit	-9608
▁superfl	-9609
▁therein	-9610
▁workman	-9611
▁wrought	-9612
andtwenty	-9613
▁assuming	-9614
▁borrowed	-9615
▁carnival	-9616
▁chapters	-9617
▁convince	-9618
▁cupboard	-9619
▁dlokhovs	-9620
▁honoured	-9621
▁internal	-9622
▁isolated	-9623
▁luminous	-9624
▁monarchs	-9625
▁monsters	-9626
▁promises	-9627
▁radiance	-9628
▁requires	-9629
▁romantic	-9630
▁sweeping	-9631
▁thirteen	-9632
▁thunders	-9633
▁virtuous	-9634
▁blackened	-9635
▁imperfect	-9636
▁overboard	-9637
▁privilege	-9638
▁screaming	-9639
▁seemingly	-9640
▁sleepless	-9641
▁treatment	-9642
▁courageous	-9643
▁despairing	-9644
▁distracted	-9645
▁ejaculated	-9646
▁inevitable	-9647
▁infinitely	-9648
▁thundering	-9649
▁underneath	-9650
▁valentines	-9651
▁executioner	-9652
▁disappointed	-9653
▁contradiction	-9654
po	-9655
vy	-9656
end	-9657
gre	-9658
lag	-9659
lis	-9660
van	-9661
vil	-9662
ager	-9663
angs	-9664
ball	-9665
chev	-9666
eded	-9667
enic	-9668
idel	-9669
isms	-9670
shot	-9671
thus	-9672
▁bub	-9673
▁esp	-9674
▁hyd	-9675
▁jap	-9676
▁jar	-9677
▁oft	-9678
▁pag	-9679
aired	-9680
armed	-9681
enses	-9682
rical	-9683
ridge	-9684
stein	-9685
▁bern	-9686
▁cake	-9687
▁chal	-9688
▁depl	-9689
▁dieu	-9690
▁dove	-9691
▁elba	-9692
▁gust	-9693
▁hack	-9694
▁ithe	-9695
▁lair	-9696
▁lark	-9697
▁mane	-9698
▁pane	-9699
▁pars	-9700
▁paul	-9701
▁prem	-9702
▁rans	-9703
▁ripp	-9704
▁sets	-9705
▁shoe	-9706
▁twas	-9707
atched	-9708
inence	-9709
▁athen	-9710
▁beats	-9711
▁circl	-9712
▁crows	-9713
▁cryst	-9714
▁femin	-9715
▁fills	-9716
▁geese	-9717
▁glist	-9718
▁murat	-9719
▁pluck	-9720
▁saber	-9721
▁seals	-9722
▁spurs	-9723
▁tries	-9724
▁wrist	-9725
umption	-9726
▁ardent	-9727
▁awhile	-9728
▁bandit	-9729
▁bonnet	-9730
▁bundle	-9731
▁coquet	-9732
▁corpor	-9733
▁daniel	-9734
▁darcys	-9735
▁hurled	-9736
▁mounts	-9737
▁plates	-9738
▁ranged	-9739
▁reconc	-9740
▁rhythm	-9741
▁scared	-9742
▁theyll	-9743
▁boiling	-9744
▁bounded	-9745
▁eastern	-9746
▁filling	-9747
▁gaining	-9748
▁hoisted	-9749
▁humming	-9750
▁indulge	-9751
▁painter	-9752
▁pleases	-9753
▁prevail	-9754
▁rubbing	-9755
▁shocked	-9756
▁sparrow	-9757
▁streams	-9758
▁tempted	-9759
▁vividly	-9760
fordshire	-9761
▁banished	-9762
▁bayonets	-9763
▁churches	-9764
▁crushing	-9765
▁delirium	-9766
▁existing	-9767
▁fiercely	-9768
▁geometry	-9769
▁hesitate	-9770
▁historic	-9771
▁insulted	-9772
▁jeweller	-9773
▁ladyship	-9774
▁magnanim	-9775
▁marquise	-9776
▁petition	-9777
▁physiogn	-9778
▁populace	-9779
▁schooner	-9780
▁severely	-9781
▁snatched	-9782
▁visiting	-9783
▁adversary	-9784
▁composure	-9785
▁conquered	-9786
▁downwards	-9787
▁enjoyment	-9788
▁fisherman	-9789
▁flattered	-9790
▁prostrate	-9791
▁realities	-9792
▁resources	-9793
▁secretary	-9794
▁solemnity	-9795
▁abominable	-9796
▁cheerfully	-9797
▁contracted	-9798
▁excellence	-9799
▁indefinite	-9800
▁operations	-9801
▁population	-9802
▁restrained	-9803
▁bonapartist	-9804
▁differently	-9805
▁grandmother	-9806
▁inquiringly	-9807
▁penetrating	-9808
▁recollected	-9809
▁headquarters	-9810
▁insignificant	-9811
▁investigation	-9812
ux	-9813
arn	-9814
lay	-9815
lov	-9816
mun	-9817
anto	-9818
beau	-9819
dens	-9820
gork	-9821
iard	-9822
itus	-9823
pool	-9824
prit	-9825
tico	-9826
vous	-9827
▁aeg	-9828
▁cic	-9829
▁exe	-9830
▁nod	-9831
▁oar	-9832
▁ruc	-9833
▁sie	-9834
▁soc	-9835
▁tip	-9836
anter	-9837
arers	-9838
evich	-9839
groom	-9840
icker	-9841
idity	-9842
iliar	-9843
rates	-9844
works	-9845
▁chat	-9846
▁chen	-9847
▁drac	-9848
▁folk	-9849
▁noct	-9850
▁odor	-9851
▁orch	-9852
▁pots	-9853
▁prou	-9854
▁scam	-9855
▁tour	-9856
▁utop	-9857
▁weyr	-9858
anders	-9859
coming	-9860
erated	-9861
gorkov	-9862
▁adore	-9863
▁argue	-9864
▁array	-9865
▁babet	-9866
▁bonds	-9867
▁bunch	-9868
▁chart	-9869
▁clums	-9870
▁deuce	-9871
▁engra	-9872
▁explo	-9873
▁famed	-9874
▁flows	-9875
▁horns	-9876
▁noted	-9877
▁nymph	-9878
▁prone	-9879
▁rites	-9880
▁spots	-9881
▁troys	-9882
▁turnd	-9883
▁vigil	-9884
▁vital	-9885
▁agents	-9886
▁allies	-9887
▁barefo	-9888
▁bolted	-9889
▁deject	-9890
▁eighth	-9891
▁enquir	-9892
▁fruits	-9893
▁garret	-9894
▁gayety	-9895
▁hinted	-9896
▁lastly	-9897
▁latest	-9898
▁naples	-9899
▁occurs	-9900
▁perils	-9901
▁pupils	-9902
▁quarre	-9903
▁recess	-9904
▁renown	-9905
▁repugn	-9906
▁repuls	-9907
▁rucast	-9908
▁shrill	-9909
▁trifle	-9910
▁westen	-9911
▁wheres	-9912
▁wiping	-9913
bilities	-9914
istratus	-9915
▁afflict	-9916
▁bottles	-9917
▁central	-9918
▁checked	-9919
▁comprom	-9920
▁deepest	-9921
▁despise	-9922
▁disconc	-9923
▁fetched	-9924
▁forster	-9925
▁hunters	-9926
▁pettico	-9927
▁proudly	-9928
▁sceptre	-9929
▁spoiled	-9930
▁thyself	-9931
▁tragedy	-9932
▁workmen	-9933
▁worship	-9934
▁despised	-9935
▁distrust	-9936
▁envelope	-9937
▁everlast	-9938
▁explains	-9939
▁feminine	-9940
▁frighten	-9941
▁heartily	-9942
▁imprison	-9943
▁inserted	-9944
▁majority	-9945
▁refusing	-9946
▁serenity	-9947
▁southern	-9948
▁swelling	-9949
▁whistled	-9950
▁attending	-9951
▁	-9952
e	-9953
t	-9954
a	-9955
o	-9956
n	-9957
i	-9958
h	-9959
s	-9960
r	-9961
d	-9962
l	-9963
u	-9964
m	-9965
c	-9966
w	-9967
f	-9968
g	-9969
y	-9970
,	-9971
p	-9972
b	-9973
.	-9974
v	-9975
k	-9976
;	-9977
x	-9978
j	-9979
?	-9980
!	-9981
q	-9982
z	-9983
:	-9984
"	-9985
1	-9986
0	-9987
2	-9988
3	-9989
8	-9990
5	-9991
4	-9992
7	-9993
6	-9994
9	-9995
'	-9996
