<unk>	0
<s>	0
</s>	0
[PAD]	0
▁t	-0
he	-1
▁a	-2
▁the	-3
in	-4
▁s	-5
▁w	-6
▁o	-7
re	-8
nd	-9
om	-10
▁h	-11
on	-12
le	-13
▁"	-14
▁b	-15
er	-16
▁m	-17
ou	-18
is	-19
at	-20
▁c	-21
▁f	-22
it	-23
ed	-24
▁and	-25
en	-26
omp	-27
▁of	-28
ing	-29
":	-30
▁to	-31
▁d	-32
▁th	-33
▁p	-34
▁he	-35
or	-36
an	-37
ar	-38
as	-39
ion	-40
es	-41
▁in	-42
▁n	-43
ll	-44
▁i	-45
▁l	-46
tion	-47
▁g	-48
▁ha	-49
pr	-50
▁wh	-51
▁be	-52
▁e	-53
comp	-54
▁y	-55
ompt	-56
comple	-57
",	-58
completion	-59
prompt	-60
"}	-61
{"	-62
▁{"	-63
ot	-64
ic	-65
ow	-66
st	-67
se	-68
ve	-69
ut	-70
id	-71
▁that	-72
▁on	-73
ly	-74
▁you	-75
▁re	-76
im	-77
ld	-78
▁his	-79
▁it	-80
ce	-81
gh	-82
▁was	-83
ent	-84
ith	-85
al	-86
ay	-87
▁u	-88
▁r	-89
▁with	-90
ver	-91
▁as	-92
ad	-93
ir	-94
▁st	-95
▁we	-96
▁is	-97
▁for	-98
ur	-99
et	-100
▁not	-101
ght	-102
▁sa	-103
her	-104
▁at	-105
ch	-106
▁had	-107
▁an	-108
▁him	-109
oo	-110
▁fr	-111
ter	-112
▁se	-113
ain	-114
▁but	-115
▁sh	-116
▁her	-117
am	-118
ich	-119
ill	-120
ac	-121
▁me	-122
ould	-123
ke	-124
▁so	-125
▁v	-126
ight	-127
ss	-128
▁de	-129
il	-130
red	-131
▁my	-132
▁which	-133
▁su	-134
▁pr	-135
▁all	-136
and	-137
▁have	-138
▁le	-139
th	-140
ore	-141
▁this	-142
all	-143
▁whe	-144
ri	-145
▁she	-146
▁k	-147
us	-148
▁ch	-149
▁said	-150
ap	-151
▁by	-152
ble	-153
▁who	-154
nt	-155
ard	-156
qu	-157
▁from	-158
▁con	-159
ome	-160
pe	-161
▁li	-162
▁do	-163
▁they	-164
ul	-165
ant	-166
ge	-167
ct	-168
▁j	-169
▁al	-170
ess	-171
▁or	-172
▁ex	-173
▁one	-174
▁no	-175
ust	-176
to	-177
ous	-178
▁ne	-179
▁there	-180
▁man	-181
ie	-182
▁are	-183
ers	-184
▁what	-185
lf	-186
te	-187
▁up	-188
▁were	-189
▁fe	-190
our	-191
very	-192
ound	-193
▁go	-194
ast	-195
▁will	-196
ation	-197
ind	-198
ol	-199
▁when	-200
▁ar	-201
fe	-202
out	-203
ong	-204
the	-205
▁tr	-206
▁them	-207
ood	-208
op	-209
art	-210
em	-211
ak	-212
one	-213
est	-214
▁then	-215
ist	-216
▁kn	-217
un	-218
led	-219
self	-220
um	-221
ate	-222
▁their	-223
▁br	-224
▁ab	-225
ost	-226
ame	-227
au	-228
ig	-229
▁your	-230
ose	-231
ven	-232
pp	-233
ort	-234
▁if	-235
ure	-236
ked	-237
▁would	-238
os	-239
ther	-240
ough	-241
▁been	-242
▁out	-243
▁wor	-244
hed	-245
▁un	-246
ag	-247
▁ag	-248
ace	-249
▁gr	-250
▁pre	-251
ity	-252
if	-253
ive	-254
reat	-255
own	-256
▁am	-257
▁qu	-258
▁pl	-259
▁po	-260
ine	-261
▁now	-262
▁sp	-263
ck	-264
ile	-265
▁more	-266
urn	-267
ount	-268
▁af	-269
el	-270
ved	-271
ack	-272
ass	-273
able	-274
itt	-275
ove	-276
▁some	-277
hing	-278
▁im	-279
li	-280
ire	-281
ice	-282
▁into	-283
▁en	-284
are	-285
nder	-286
▁tw	-287
▁has	-288
ep	-289
ance	-290
od	-291
ake	-292
▁mad	-293
▁tim	-294
▁other	-295
ry	-296
ide	-297
▁any	-298
ars	-299
▁ad	-300
ab	-301
▁can	-302
▁ro	-303
▁did	-304
other	-305
ook	-306
▁like	-307
▁know	-308
way	-309
▁hand	-310
▁could	-311
▁com	-312
▁see	-313
▁how	-314
ought	-315
▁only	-316
ite	-317
ci	-318
▁cr	-319
▁cl	-320
▁dis	-321
▁us	-322
▁bl	-323
we	-324
ue	-325
▁te	-326
▁very	-327
fore	-328
▁say	-329
▁again	-330
ang	-331
age	-332
ave	-333
▁mar	-334
▁str	-335
ather	-336
de	-337
ving	-338
ree	-339
of	-340
▁than	-341
▁ac	-342
..	-343
ies	-344
me	-345
▁over	-346
wn	-347
pt	-348
ert	-349
▁time	-350
▁well	-351
ish	-352
▁thr	-353
▁dr	-354
ink	-355
ress	-356
ond	-357
▁day	-358
▁about	-359
ier	-360
▁should	-361
▁too	-362
▁every	-363
▁our	-364
ment	-365
ans	-366
ings	-367
ren	-368
▁pe	-369
ach	-370
▁count	-371
▁fl	-372
ves	-373
ated	-374
▁fir	-375
ally	-376
▁per	-377
ale	-378
▁good	-379
▁rep	-380
▁two	-381
▁must	-382
▁long	-383
▁great	-384
▁after	-385
▁men	-386
▁these	-387
ward	-388
▁its	-389
▁himself	-390
ness	-391
▁may	-392
▁rem	-393
ful	-394
ious	-395
▁off	-396
ence	-397
ittle	-398
▁before	-399
▁let	-400
sh	-401
▁ey	-402
▁des	-403
▁sm	-404
ath	-405
▁gl	-406
▁where	-407
,",	-408
per	-409
▁under	-410
▁little	-411
,"}	-412
▁old	-413
▁down	-414
▁first	-415
▁prin	-416
▁ap	-417
▁even	-418
ft	-419
ors	-420
oy	-421
ont	-422
ds	-423
▁made	-424
ise	-425
▁fo	-426
anc	-427
▁such	-428
▁just	-429
▁come	-430
\"	-431
▁beg	-432
▁arm	-433
▁bec	-434
▁sc	-435
▁upon	-436
▁spe	-437
▁here	-438
cl	-439
▁thought	-440
▁shall	-441
▁seem	-442
ried	-443
ild	-444
less	-445
ip	-446
av	-447
ons	-448
ary	-449
ng	-450
▁mu	-451
old	-452
▁cont	-453
ouse	-454
▁pass	-455
air	-456
▁comp	-457
aw	-458
int	-459
les	-460
ning	-461
▁em	-462
▁head	-463
llow	-464
▁still	-465
rew	-466
▁came	-467
▁way	-468
▁ret	-469
▁went	-470
▁pro	-471
ull	-472
be	-473
▁own	-474
ened	-475
▁ent	-476
▁res	-477
▁part	-478
▁eyes	-479
ud	-480
iz	-481
▁look	-482
so	-483
ick	-484
ty	-485
▁turn	-486
▁mor	-487
je	-488
▁those	-489
▁back	-490
▁think	-491
iv	-492
act	-493
ign	-494
cess	-495
▁much	-496
▁never	-497
▁through	-498
omet	-499
read	-500
▁without	-501
ber	-502
▁bet	-503
ro	-504
▁father	-505
ord	-506
▁nat	-507
▁op	-508
▁car	-509
▁yes	-510
▁ye	-511
▁ob	-512
ible	-513
▁same	-514
uc	-515
▁exp	-516
▁might	-517
wh	-518
ied	-519
▁house	-520
ff	-521
▁somet	-522
▁mon	-523
ark	-524
▁away	-525
▁nothing	-526
ne	-527
ared	-528
▁imp	-529
ily	-530
man	-531
▁life	-532
▁comm	-533
▁pres	-534
ase	-535
▁young	-536
▁wat	-537
thing	-538
ause	-539
▁ser	-540
aking	-541
▁cons	-542
iend	-543
aid	-544
▁last	-545
ian	-546
pect	-547
▁happ	-548
oth	-549
oment	-550
▁tell	-551
▁chap	-552
▁co	-553
▁most	-554
not	-555
▁att	-556
▁sl	-557
hes	-558
▁while	-559
▁friend	-560
▁bel	-561
▁being	-562
▁lo	-563
▁yet	-564
arm	-565
▁saw	-566
▁moment	-567
ory	-568
▁night	-569
▁another	-570
▁bo	-571
▁make	-572
▁though	-573
ition	-574
▁wr	-575
▁room	-576
ole	-577
▁once	-578
▁take	-579
▁chapter	-580
▁gen	-581
for	-582
ult	-583
▁cour	-584
lied	-585
▁cal	-586
▁ru	-587
▁door	-588
atter	-589
▁end	-590
▁left	-591
ertain	-592
.",	-593
▁right	-594
▁light	-595
▁cap	-596
▁get	-597
ction	-598
lt	-599
ret	-600
."}	-601
▁took	-602
▁seemed	-603
▁dist	-604
▁ke	-605
▁pier	-606
ished	-607
▁face	-608
▁loo	-609
ained	-610
row	-611
▁ple	-612
vent	-613
ner	-614
der	-615
oke	-616
wards	-617
▁1	-618
amp	-619
ens	-620
igh	-621
▁found	-622
▁child	-623
▁rec	-624
▁return	-625
▁god	-626
ix	-627
ks	-628
ants	-629
sel	-630
▁heard	-631
▁three	-632
ever	-633
▁read	-634
▁form	-635
▁mo	-636
aught	-637
▁appe	-638
▁acc	-639
ling	-640
iss	-641
▁prince	-642
ither	-643
▁wom	-644
▁mr	-645
den	-646
▁peop	-647
▁why	-648
fort	-649
▁inst	-650
▁gu	-651
▁vo	-652
king	-653
▁wa	-654
▁ear	-655
▁replied	-656
ov	-657
▁sec	-658
▁looked	-659
ered	-660
up	-661
▁sw	-662
▁asked	-663
ways	-664
ys	-665
▁hands	-666
▁something	-667
▁heart	-668
▁place	-669
get	-670
▁began	-671
ius	-672
▁whom	-673
▁mind	-674
▁pers	-675
▁gener	-676
▁cor	-677
▁whole	-678
▁love	-679
ations	-680
▁pierre	-681
ock	-682
▁kne	-683
▁ph	-684
▁ill	-685
▁ter	-686
▁people	-687
▁wind	-688
ille	-689
ower	-690
▁each	-691
▁hor	-692
▁poss	-693
▁put	-694
▁nor	-695
ict	-696
▁ass	-697
▁round	-698
▁certain	-699
ange	-700
▁ho	-701
▁hu	-702
ently	-703
az	-704
▁cle	-705
▁rest	-706
cc	-707
▁side	-708
▁many	-709
ls	-710
ched	-711
▁ans	-712
▁beh	-713
▁\"	-714
▁feel	-715
▁give	-716
▁new	-717
that	-718
▁seen	-719
▁supp	-720
▁sou	-721
▁war	-722
▁gi	-723
▁having	-724
ped	-725
▁ind	-726
ub	-727
ail	-728
▁sat	-729
▁sur	-730
ows	-731
▁add	-732
▁follow	-733
uck	-734
▁oh	-735
og	-736
▁far	-737
▁set	-738
▁soon	-739
▁always	-740
▁mother	-741
fect	-742
most	-743
▁bar	-744
ired	-745
▁thus	-746
ced	-747
▁reg	-748
▁underst	-749
▁par	-750
▁because	-751
ject	-752
▁sle	-753
▁want	-754
oss	-755
▁ins	-756
ps	-757
aken	-758
▁tre	-759
▁ben	-760
att	-761
ince	-762
▁also	-763
▁felt	-764
▁dear	-765
ised	-766
ple	-767
▁ever	-768
ief	-769
isto	-770
ined	-771
▁dif	-772
▁against	-773
▁sub	-774
▁val	-775
▁conf	-776
ield	-777
▁min	-778
ern	-779
▁whale	-780
pl	-781
iness	-782
ating	-783
ions	-784
▁find	-785
▁ev	-786
ody	-787
▁things	-788
▁ah	-789
▁point	-790
vers	-791
▁near	-792
▁going	-793
▁voice	-794
als	-795
▁inte	-796
ade	-797
ung	-798
▁death	-799
aps	-800
▁thing	-801
▁words	-802
ten	-803
▁told	-804
▁both	-805
...	-806
its	-807
ting	-808
▁gre	-809
▁pur	-810
ates	-811
men	-812
▁quite	-813
nce	-814
cei	-815
▁je	-816
ical	-817
pro	-818
▁son	-819
▁dang	-820
▁sir	-821
ute	-822
ween	-823
tions	-824
▁turned	-825
rench	-826
▁name	-827
▁occ	-828
eth	-829
ides	-830
▁tal	-831
ters	-832
let	-833
▁pleas	-834
▁does	-835
▁done	-836
▁world	-837
▁hum	-838
ited	-839
▁char	-840
med	-841
rest	-842
▁ship	-843
▁sun	-844
▁between	-845
dden	-846
▁ste	-847
ug	-848
uth	-849
▁inter	-850
▁el	-851
aven	-852
osed	-853
▁exce	-854
br	-855
▁sudden	-856
ins	-857
▁true	-858
▁hour	-859
ial	-860
whe	-861
▁care	-862
▁lad	-863
ains	-864
selves	-865
▁adv	-866
▁mean	-867
▁cried	-868
aint	-869
ying	-870
▁rel	-871
▁fore	-872
▁thy	-873
▁vis	-874
▁myself	-875
bt	-876
ank	-877
▁hear	-878
itu	-879
▁hel	-880
▁knew	-881
ged	-882
▁bed	-883
▁ref	-884
▁morning	-885
▁present	-886
▁contin	-887
ures	-888
ued	-889
▁app	-890
▁order	-891
▁open	-892
▁che	-893
xt	-894
▁half	-895
▁dou	-896
▁dont	-897
ler	-898
▁full	-899
res	-900
▁sn	-901
ured	-902
▁ide	-903
▁dead	-904
▁among	-905
▁poor	-906
▁called	-907
oud	-908
▁sk	-909
▁towards	-910
▁four	-911
cy	-912
▁col	-913
▁stand	-914
▁es	-915
▁hard	-916
▁since	-917
by	-918
▁inf	-919
▁work	-920
▁bre	-921
▁stre	-922
was	-923
▁state	-924
nded	-925
▁word	-926
▁french	-927
ason	-928
▁years	-929
▁mer	-930
▁however	-931
ready	-932
▁home	-933
owed	-934
▁sim	-935
▁marius	-936
▁hon	-937
▁kind	-938
▁sort	-939
ats	-940
lic	-941
▁water	-942
▁behind	-943
▁fire	-944
▁gave	-945
ular	-946
▁fam	-947
cri	-948
▁almost	-949
▁sile	-950
▁dark	-951
ib	-952
▁wo	-953
▁heaven	-954
▁understand	-955
aut	-956
▁cur	-957
▁few	-958
ering	-959
▁air	-960
▁cannot	-961
▁wal	-962
▁others	-963
▁express	-964
his	-965
▁inc	-966
ife	-967
▁gir	-968
ets	-969
▁black	-970
▁ques	-971
ces	-972
▁art	-973
iet	-974
▁bes	-975
▁already	-976
▁matter	-977
▁got	-978
▁inde	-979
▁arms	-980
▁passed	-981
▁herself	-982
▁stood	-983
▁sound	-984
▁eng	-985
▁lay	-986
▁anything	-987
▁woman	-988
you	-989
▁speak	-990
▁serv	-991
ached	-992
▁disc	-993
aced	-994
▁alone	-995
ok	-996
▁king	-997
▁capt	-998
▁everything	-999
sha	-1000
▁sent	-1001
▁white	-1002
▁better	-1003
▁taken	-1004
▁soul	-1005
ia	-1006
che	-1007
len	-1008
▁belie	-1009
▁aw	-1010
ual	-1011
▁call	-1012
▁whose	-1013
▁lar	-1014
iled	-1015
▁sign	-1016
irt	-1017
▁dire	-1018
▁prop	-1019
used	-1020
ph	-1021
cted	-1022
▁fear	-1023
ister	-1024
ceived	-1025
day	-1026
▁sleep	-1027
tr	-1028
▁sold	-1029
▁till	-1030
▁best	-1031
▁high	-1032
gether	-1033
illed	-1034
▁days	-1035
orm	-1036
▁thir	-1037
▁jean	-1038
oc	-1039
▁pol	-1040
▁mis	-1041
▁sing	-1042
▁general	-1043
ents	-1044
haps	-1045
jean	-1046
▁fur	-1047
ians	-1048
rel	-1049
▁gent	-1050
▁offic	-1051
ably	-1052
ctor	-1053
▁fall	-1054
bert	-1055
▁list	-1056
▁x	-1057
▁andrew	-1058
ully	-1059
▁ra	-1060
oun	-1061
▁jo	-1062
with	-1063
but	-1064
▁beaut	-1065
▁longer	-1066
▁person	-1067
▁suddenly	-1068
▁ed	-1069
light	-1070
ized	-1071
aughter	-1072
▁along	-1073
ns	-1074
▁power	-1075
▁sea	-1076
▁wall	-1077
▁cristo	-1078
▁inv	-1079
▁monte	-1080
▁ce	-1081
▁red	-1082
▁thou	-1083
oset	-1084
▁ma	-1085
uring	-1086
▁natsha	-1087
▁perhaps	-1088
▁rost	-1089
▁whether	-1090
▁command	-1091
▁gentle	-1092
ash	-1093
rie	-1094
▁fell	-1095
ii	-1096
▁ir	-1097
orrow	-1098
▁second	-1099
▁sure	-1100
▁next	-1101
▁use	-1102
▁ville	-1103
▁madame	-1104
aces	-1105
wer	-1106
aring	-1107
▁fact	-1108
▁ground	-1109
▁brought	-1110
▁ran	-1111
tered	-1112
ately	-1113
▁unt	-1114
akes	-1115
▁less	-1116
▁act	-1117
▁cond	-1118
▁fre	-1119
▁keep	-1120
▁princess	-1121
▁army	-1122
▁villefort	-1123
na	-1124
▁leave	-1125
riage	-1126
ison	-1127
▁run	-1128
▁hold	-1129
iting	-1130
▁saying	-1131
00	-1132
ru	-1133
▁table	-1134
fully	-1135
▁swe	-1136
ines	-1137
▁step	-1138
▁small	-1139
tem	-1140
▁abs	-1141
▁real	-1142
▁2	-1143
bed	-1144
land	-1145
rent	-1146
▁wife	-1147
▁stop	-1148
▁batt	-1149
▁looking	-1150
▁valjean	-1151
une	-1152
▁chief	-1153
▁ang	-1154
▁adm	-1155
▁themselves	-1156
wered	-1157
▁det	-1158
▁reason	-1159
▁wood	-1160
osition	-1161
imes	-1162
▁evening	-1163
▁suff	-1164
iers	-1165
▁fin	-1166
▁coset	-1167
▁obs	-1168
▁rather	-1169
rible	-1170
▁arri	-1171
▁aff	-1172
▁book	-1173
▁wish	-1174
▁enough	-1175
▁indeed	-1176
▁dep	-1177
▁doubt	-1178
▁human	-1179
▁help	-1180
ense	-1181
▁opp	-1182
▁large	-1183
irc	-1184
▁dec	-1185
ott	-1186
▁bus	-1187
▁given	-1188
▁returned	-1189
▁country	-1190
▁together	-1191
▁need	-1192
aster	-1193
▁deep	-1194
▁rostv	-1195
▁really	-1196
▁answered	-1197
▁gold	-1198
▁tom	-1199
ndred	-1200
gr	-1201
ances	-1202
▁lau	-1203
fic	-1204
▁gone	-1205
ime	-1206
lars	-1207
ousand	-1208
▁brother	-1209
▁sight	-1210
▁law	-1211
ments	-1212
▁draw	-1213
▁ut	-1214
ching	-1215
▁enem	-1216
ane	-1217
ream	-1218
▁paris	-1219
iew	-1220
▁mid	-1221
▁smile	-1222
▁fa	-1223
▁remem	-1224
▁question	-1225
▁land	-1226
▁feet	-1227
▁earth	-1228
ater	-1229
ool	-1230
▁lost	-1231
▁hundred	-1232
▁tou	-1233
▁around	-1234
▁thousand	-1235
▁close	-1236
aim	-1237
oney	-1238
▁div	-1239
▁body	-1240
▁live	-1241
▁evid	-1242
▁course	-1243
▁prof	-1244
ided	-1245
▁case	-1246
cap	-1247
▁entered	-1248
▁hur	-1249
▁spr	-1250
▁spoke	-1251
▁contr	-1252
▁cosette	-1253
▁bur	-1254
sses	-1255
▁nap	-1256
ities	-1257
owing	-1258
▁ask	-1259
▁danglars	-1260
str	-1261
▁circ	-1262
▁blood	-1263
▁bene	-1264
▁times	-1265
ceed	-1266
▁num	-1267
▁pat	-1268
▁dest	-1269
▁believe	-1270
ned	-1271
▁bu	-1272
▁above	-1273
ote	-1274
▁tri	-1275
▁horse	-1276
▁strong	-1277
▁den	-1278
▁hus	-1279
▁either	-1280
▁strange	-1281
▁certainly	-1282
▁six	-1283
▁foot	-1284
▁hope	-1285
▁letter	-1286
▁therefore	-1287
▁diffe	-1288
▁expect	-1289
▁dev	-1290
▁fle	-1291
▁five	-1292
▁girl	-1293
ressed	-1294
awn	-1295
ois	-1296
▁appro	-1297
▁appear	-1298
▁expl	-1299
▁fort	-1300
▁front	-1301
▁road	-1302
▁ve	-1303
head	-1304
▁fellow	-1305
ster	-1306
ising	-1307
▁met	-1308
▁least	-1309
▁nature	-1310
▁joy	-1311
ility	-1312
▁emper	-1313
▁continued	-1314
▁held	-1315
▁grand	-1316
airs	-1317
peri	-1318
▁until	-1319
▁move	-1320
▁gard	-1321
▁during	-1322
▁vi	-1323
▁gree	-1324
▁idea	-1325
▁hist	-1326
▁friends	-1327
no	-1328
▁become	-1329
▁opened	-1330
itting	-1331
▁consid	-1332
▁captain	-1333
▁interest	-1334
▁eye	-1335
▁unc	-1336
▁miss	-1337
▁fight	-1338
▁short	-1339
▁clear	-1340
▁yourself	-1341
▁ca	-1342
bled	-1343
ually	-1344
overed	-1345
▁wound	-1346
po	-1347
▁begin	-1348
▁guard	-1349
▁happy	-1350
▁prom	-1351
▁mist	-1352
ased	-1353
▁rue	-1354
alent	-1355
band	-1356
▁quick	-1357
▁manner	-1358
olu	-1359
▁gods	-1360
▁necess	-1361
▁leg	-1362
▁coming	-1363
▁sometimes	-1364
ex	-1365
over	-1366
▁dri	-1367
▁battle	-1368
▁children	-1369
osc	-1370
ages	-1371
▁else	-1372
yr	-1373
▁pap	-1374
▁russ	-1375
▁itself	-1376
▁suc	-1377
▁exc	-1378
▁fal	-1379
itted	-1380
ror	-1381
nding	-1382
ushed	-1383
erm	-1384
▁albert	-1385
▁sum	-1386
▁eli	-1387
what	-1388
▁eas	-1389
▁shout	-1390
▁breat	-1391
▁start	-1392
▁possible	-1393
que	-1394
▁field	-1395
▁napole	-1396
ize	-1397
▁play	-1398
▁within	-1399
▁cut	-1400
anced	-1401
▁di	-1402
▁pray	-1403
▁added	-1404
▁compan	-1405
ils	-1406
ific	-1407
▁phil	-1408
▁remained	-1409
lysses	-1410
▁dem	-1411
▁tem	-1412
iar	-1413
▁mur	-1414
▁money	-1415
▁truth	-1416
▁excl	-1417
▁daughter	-1418
iful	-1419
▁view	-1420
▁became	-1421
▁sil	-1422
abeth	-1423
where	-1424
▁says	-1425
▁conce	-1426
▁window	-1427
mb	-1428
vert	-1429
▁eliz	-1430
▁la	-1431
▁cold	-1432
▁husband	-1433
him	-1434
▁trans	-1435
erous	-1436
▁rose	-1437
▁sever	-1438
▁lear	-1439
▁hair	-1440
▁bring	-1441
lem	-1442
▁able	-1443
▁obser	-1444
▁often	-1445
▁ulysses	-1446
form	-1447
oscow	-1448
▁crow	-1449
▁lead	-1450
▁shad	-1451
▁ten	-1452
▁family	-1453
▁terrible	-1454
su	-1455
▁morrel	-1456
like	-1457
▁meet	-1458
▁exist	-1459
▁elizabeth	-1460
ths	-1461
▁ele	-1462
▁van	-1463
ury	-1464
▁fair	-1465
▁dants	-1466
oken	-1467
▁bad	-1468
par	-1469
▁force	-1470
▁possess	-1471
▁sad	-1472
▁stay	-1473
cept	-1474
▁que	-1475
▁sister	-1476
aged	-1477
rence	-1478
▁repe	-1479
▁spir	-1480
▁imag	-1481
had	-1482
oom	-1483
▁cross	-1484
▁conv	-1485
▁equ	-1486
▁ord	-1487
▁lady	-1488
▁moscow	-1489
cul	-1490
dle	-1491
ift	-1492
▁inqu	-1493
ening	-1494
▁desp	-1495
▁making	-1496
▁.	-1497
▁past	-1498
▁instant	-1499
▁women	-1500
.\"	-1501
con	-1502
ety	-1503
▁means	-1504
▁appeared	-1505
ption	-1506
▁thats	-1507
▁stren	-1508
▁bir	-1509
▁rap	-1510
▁followed	-1511
cious	-1512
▁respect	-1513
orses	-1514
▁escap	-1515
▁mount	-1516
▁answer	-1517
alth	-1518
▁cat	-1519
ledge	-1520
iously	-1521
▁gaz	-1522
▁mag	-1523
▁pet	-1524
▁taking	-1525
▁feeling	-1526
fr	-1527
ogn	-1528
▁low	-1529
▁stud	-1530
aving	-1531
▁18	-1532
now	-1533
ught	-1534
itude	-1535
▁mary	-1536
▁mus	-1537
▁quar	-1538
▁town	-1539
▁street	-1540
use	-1541
appe	-1542
▁known	-1543
rig	-1544
▁requ	-1545
▁consider	-1546
▁streng	-1547
ric	-1548
▁surpr	-1549
▁fix	-1550
anged	-1551
▁soci	-1552
▁emperor	-1553
▁subject	-1554
this	-1555
▁rev	-1556
▁talk	-1557
▁excel	-1558
enty	-1559
arch	-1560
ches	-1561
olas	-1562
room	-1563
▁conc	-1564
ping	-1565
which	-1566
ices	-1567
ones	-1568
▁several	-1569
vel	-1570
iver	-1571
▁dream	-1572
▁wonder	-1573
▁received	-1574
▁fine	-1575
▁ready	-1576
▁prison	-1577
ask	-1578
▁hes	-1579
▁free	-1580
▁drew	-1581
icholas	-1582
isf	-1583
▁die	-1584
iling	-1585
fer	-1586
vern	-1587
body	-1588
▁seems	-1589
▁napoleon	-1590
▁cry	-1591
▁squ	-1592
▁horses	-1593
▁neither	-1594
ining	-1595
▁cent	-1596
▁age	-1597
▁beautiful	-1598
▁mou	-1599
▁kept	-1600
ym	-1601
ross	-1602
▁franc	-1603
▁reached	-1604
▁city	-1605
▁plain	-1606
iment	-1607
ossible	-1608
▁diffic	-1609
ots	-1610
▁flo	-1611
▁prod	-1612
▁har	-1613
▁pale	-1614
▁cast	-1615
▁stri	-1616
▁silent	-1617
▁expression	-1618
▁fif	-1619
illes	-1620
▁prob	-1621
▁placed	-1622
ffect	-1623
▁garden	-1624
medi	-1625
▁partic	-1626
▁nicholas	-1627
ger	-1628
▁enemy	-1629
▁tor	-1630
ush	-1631
▁boy	-1632
▁laugh	-1633
▁valent	-1634
▁silence	-1635
orn	-1636
aimed	-1637
ley	-1638
▁pleasure	-1639
osop	-1640
▁pen	-1641
▁vict	-1642
▁third	-1643
▁different	-1644
she	-1645
▁pain	-1646
▁raised	-1647
ient	-1648
▁soldiers	-1649
oes	-1650
▁acqu	-1651
▁creat	-1652
▁3	-1653
▁remain	-1654
ention	-1655
lect	-1656
▁beneath	-1657
lish	-1658
nard	-1659
▁seeing	-1660
my	-1661
▁wis	-1662
▁desire	-1663
▁strength	-1664
ards	-1665
tend	-1666
utes	-1667
▁strang	-1668
▁perfect	-1669
▁bit	-1670
▁disp	-1671
▁forg	-1672
▁twenty	-1673
▁justice	-1674
▁mere	-1675
▁philosop	-1676
hy	-1677
▁drink	-1678
sp	-1679
▁ext	-1680
▁francs	-1681
mes	-1682
....	-1683
tern	-1684
ublic	-1685
ra	-1686
ney	-1687
▁mil	-1688
▁fast	-1689
ms	-1690
▁cause	-1691
▁saint	-1692
▁bear	-1693
▁thee	-1694
just	-1695
▁hardly	-1696
▁countess	-1697
▁remember	-1698
ieur	-1699
▁int	-1700
though	-1701
▁master	-1702
▁ach	-1703
▁lord	-1704
▁ones	-1705
▁turning	-1706
mer	-1707
ging	-1708
▁charac	-1709
▁comple	-1710
▁carriage	-1711
▁dut	-1712
▁hung	-1713
▁fright	-1714
▁account	-1715
▁crowd	-1716
ination	-1717
inct	-1718
▁mod	-1719
▁line	-1720
▁tried	-1721
▁recogn	-1722
▁struck	-1723
anz	-1724
side	-1725
▁bright	-1726
▁doctor	-1727
▁secret	-1728
▁position	-1729
dered	-1730
▁visit	-1731
▁heav	-1732
▁eat	-1733
▁enj	-1734
▁hol	-1735
▁laid	-1736
▁used	-1737
▁destr	-1738
lling	-1739
▁opin	-1740
▁natur	-1741
▁peace	-1742
onsieur	-1743
▁beside	-1744
▁thnard	-1745
▁valentine	-1746
▁impossible	-1747
elle	-1748
▁burn	-1749
▁prov	-1750
bs	-1751
▁further	-1752
▁doing	-1753
▁dog	-1754
▁business	-1755
rupt	-1756
▁led	-1757
▁por	-1758
oof	-1759
▁const	-1760
▁convers	-1761
cr	-1762
▁fav	-1763
under	-1764
▁carried	-1765
amed	-1766
▁trou	-1767
▁drop	-1768
▁immedi	-1769
ope	-1770
▁var	-1771
▁silver	-1772
▁happiness	-1773
clock	-1774
▁hast	-1775
▁common	-1776
▁effect	-1777
owers	-1778
▁youth	-1779
erv	-1780
icked	-1781
▁auth	-1782
▁break	-1783
▁comes	-1784
▁later	-1785
ead	-1786
▁pie	-1787
▁ball	-1788
▁evidently	-1789
bour	-1790
▁delight	-1791
▁sitting	-1792
▁franz	-1793
▁ought	-1794
▁monsieur	-1795
▁hat	-1796
▁pay	-1797
▁hill	-1798
▁accord	-1799
▁gun	-1800
▁suppose	-1801
ery	-1802
iced	-1803
uous	-1804
▁mrs	-1805
arent	-1806
▁event	-1807
▁across	-1808
▁standing	-1809
▁sail	-1810
▁satisf	-1811
▁happened	-1812
tempt	-1813
▁post	-1814
▁dread	-1815
ues	-1816
▁jud	-1817
▁stra	-1818
▁tears	-1819
▁object	-1820
▁exclaimed	-1821
▁sol	-1822
▁stopped	-1823
▁wit	-1824
▁mans	-1825
▁year	-1826
▁import	-1827
▁officer	-1828
▁attention	-1829
ident	-1830
▁dress	-1831
▁sweet	-1832
▁mem	-1833
asion	-1834
▁eight	-1835
▁descri	-1836
▁living	-1837
▁speaking	-1838
▁ja	-1839
▁forth	-1840
mon	-1841
▁hours	-1842
▁accomp	-1843
▁number	-1844
▁oclock	-1845
▁forward	-1846
bo	-1847
ames	-1848
ative	-1849
▁iron	-1850
▁rich	-1851
▁vain	-1852
▁knowledge	-1853
▁inn	-1854
ges	-1855
▁dar	-1856
▁slow	-1857
▁green	-1858
ya	-1859
utz	-1860
ingly	-1861
▁host	-1862
▁wild	-1863
▁watch	-1864
▁fig	-1865
▁fat	-1866
▁rid	-1867
▁arr	-1868
▁maj	-1869
utzov	-1870
▁leng	-1871
▁carry	-1872
olute	-1873
▁bound	-1874
have	-1875
▁din	-1876
▁worth	-1877
▁calm	-1878
▁coun	-1879
▁jove	-1880
▁wait	-1881
▁prep	-1882
▁scar	-1883
▁sense	-1884
ts	-1885
ene	-1886
vere	-1887
▁mouth	-1888
▁corner	-1889
▁id	-1890
ored	-1891
▁def	-1892
▁steps	-1893
ality	-1894
▁evil	-1895
▁lips	-1896
▁press	-1897
nds	-1898
▁sal	-1899
ceive	-1900
▁est	-1901
▁wanted	-1902
▁remark	-1903
▁av	-1904
they	-1905
▁rapid	-1906
▁character	-1907
kn	-1908
▁bott	-1909
▁desce	-1910
▁knows	-1911
,\"	-1912
uced	-1913
▁del	-1914
▁anim	-1915
▁former	-1916
▁princi	-1917
ted	-1918
▁none	-1919
ement	-1920
▁grie	-1921
▁kutzov	-1922
▁4	-1923
▁charm	-1924
ode	-1925
▁story	-1926
▁regard	-1927
unt	-1928
▁besides	-1929
▁ge	-1930
pped	-1931
fered	-1932
▁glad	-1933
▁occup	-1934
▁length	-1935
▁arrived	-1936
▁fly	-1937
there	-1938
▁ahab	-1939
▁enter	-1940
▁attack	-1941
avel	-1942
▁show	-1943
▁med	-1944
▁mention	-1945
bit	-1946
oops	-1947
▁lie	-1948
▁plat	-1949
▁drawing	-1950
▁following	-1951
;",	-1952
▁glass	-1953
▁honor	-1954
▁necessary	-1955
ooh	-1956
umed	-1957
▁moved	-1958
app	-1959
▁blue	-1960
▁trees	-1961
▁immediately	-1962
▁enc	-1963
▁pock	-1964
▁closed	-1965
▁experi	-1966
▁proceed	-1967
▁although	-1968
▁thnardier	-1969
lly	-1970
▁try	-1971
emois	-1972
▁entire	-1973
▁pret	-1974
▁self	-1975
▁minutes	-1976
▁5	-1977
uff	-1978
oyed	-1979
▁chr	-1980
▁eff	-1981
▁mat	-1982
▁late	-1983
▁rome	-1984
▁govern	-1985
emoiselle	-1986
ki	-1987
▁killed	-1988
wor	-1989
▁band	-1990
▁fate	-1991
▁mass	-1992
▁soft	-1993
yond	-1994
▁vill	-1995
▁straight	-1996
▁opinion	-1997
▁thoughts	-1998
▁tomorrow	-1999
▁particular	-2000
usion	-2001
▁fixed	-2002
ics	-2003
▁author	-2004
▁sorrow	-2005
cer	-2006
▁meant	-2007
▁whis	-2008
▁occur	-2009
▁thick	-2010
val	-2011
▁arg	-2012
▁quiet	-2013
ours	-2014
raid	-2015
▁disappe	-2016
▁beginning	-2017
af	-2018
▁ast	-2019
▁suit	-2020
▁afraid	-2021
ah	-2022
▁cant	-2023
▁purp	-2024
▁history	-2025
▁anx	-2026
itary	-2027
▁virt	-2028
▁wished	-2029
iter	-2030
▁pri	-2031
▁harm	-2032
▁circum	-2033
▁complete	-2034
▁mademoiselle	-2035
▁tone	-2036
;"}	-2037
hov	-2038
▁prev	-2039
retched	-2040
▁beyond	-2041
▁holmes	-2042
▁russian	-2043
from	-2044
ship	-2045
▁ven	-2046
▁court	-2047
▁change	-2048
▁forget	-2049
▁occasion	-2050
bl	-2051
lies	-2052
▁lab	-2053
cient	-2054
▁mine	-2055
▁presence	-2056
▁direction	-2057
▁lou	-2058
▁du	-2059
▁loved	-2060
▁shore	-2061
▁gloom	-2062
▁viole	-2063
olution	-2064
▁single	-2065
▁distance	-2066
ny	-2067
els	-2068
▁lim	-2069
▁oer	-2070
▁fresh	-2071
itation	-2072
will	-2073
▁rob	-2074
▁maid	-2075
▁neigh	-2076
▁reply	-2077
▁instead	-2078
▁talking	-2079
▁ant	-2080
▁cre	-2081
▁fathers	-2082
oad	-2083
▁warm	-2084
▁noble	-2085
sov	-2086
▁big	-2087
ortal	-2088
▁fing	-2089
ration	-2090
▁caught	-2091
▁thinking	-2092
▁please	-2093
net	-2094
▁bow	-2095
ustom	-2096
▁merc	-2097
▁orders	-2098
co	-2099
ries	-2100
antly	-2101
▁makes	-2102
▁except	-2103
▁troops	-2104
▁darkness	-2105
well	-2106
▁camp	-2107
▁society	-2108
ilt	-2109
ume	-2110
▁plan	-2111
▁dinner	-2112
▁walked	-2113
ye	-2114
ivid	-2115
▁bou	-2116
▁nar	-2117
▁top	-2118
inary	-2119
▁kill	-2120
▁neck	-2121
▁star	-2122
▁boat	-2123
▁fier	-2124
▁slight	-2125
ises	-2126
▁pal	-2127
▁jour	-2128
▁repeated	-2129
gn	-2130
ists	-2131
▁demand	-2132
▁conversation	-2133
ec	-2134
▁pa	-2135
▁ships	-2136
▁chance	-2137
▁cad	-2138
▁troy	-2139
▁breast	-2140
▁understood	-2141
▁box	-2142
▁imm	-2143
▁loud	-2144
▁waiting	-2145
ented	-2146
▁sens	-2147
aining	-2148
do	-2149
ze	-2150
▁ago	-2151
▁hop	-2152
itten	-2153
▁belong	-2154
▁forest	-2155
anch	-2156
▁luc	-2157
▁lived	-2158
▁stone	-2159
▁breath	-2160
▁broken	-2161
▁island	-2162
▁und	-2163
▁weak	-2164
pty	-2165
▁win	-2166
ancing	-2167
cience	-2168
▁paper	-2169
▁javert	-2170
▁nearly	-2171
▁simple	-2172
arer	-2173
▁myster	-2174
▁service	-2175
ax	-2176
asure	-2177
▁kiss	-2178
▁threw	-2179
lection	-2180
▁fortune	-2181
eds	-2182
urg	-2183
aves	-2184
▁dor	-2185
▁hig	-2186
▁news	-2187
▁rock	-2188
▁direct	-2189
oved	-2190
▁comb	-2191
▁floor	-2192
uss	-2193
ague	-2194
hood	-2195
▁quickly	-2196
▁trouble	-2197
uct	-2198
come	-2199
said	-2200
▁alarm	-2201
▁reach	-2202
▁filled	-2203
▁seized	-2204
▁success	-2205
▁achilles	-2206
lig	-2207
ager	-2208
ives	-2209
isted	-2210
ically	-2211
fection	-2212
ek	-2213
ails	-2214
▁densov	-2215
▁listen	-2216
ony	-2217
▁fau	-2218
▁lift	-2219
▁marry	-2220
how	-2221
▁sch	-2222
▁wrong	-2223
▁escape	-2224
▁toward	-2225
▁stranger	-2226
acy	-2227
▁nur	-2228
▁decl	-2229
▁depart	-2230
▁soldier	-2231
uce	-2232
▁ann	-2233
▁hom	-2234
▁coat	-2235
▁mart	-2236
▁snya	-2237
▁exact	-2238
▁utter	-2239
▁motion	-2240
ply	-2241
alle	-2242
▁glance	-2243
▁pretty	-2244
▁result	-2245
▁natural	-2246
▁acquaint	-2247
▁probably	-2248
rat	-2249
iant	-2250
amber	-2251
▁peas	-2252
leep	-2253
ouses	-2254
▁grew	-2255
round	-2256
▁seven	-2257
▁officers	-2258
here	-2259
▁today	-2260
▁action	-2261
▁anyone	-2262
▁english	-2263
▁heavy	-2264
▁marriage	-2265
when	-2266
▁mut	-2267
▁approach	-2268
▁circumst	-2269
▁whatever	-2270
ades	-2271
ively	-2272
known	-2273
▁prec	-2274
cially	-2275
▁whales	-2276
▁purpose	-2277
▁condition	-2278
ism	-2279
osing	-2280
▁shut	-2281
▁wine	-2282
▁below	-2283
▁courage	-2284
ugg	-2285
▁sky	-2286
uction	-2287
▁shouted	-2288
ump	-2289
uture	-2290
idence	-2291
▁slowly	-2292
vi	-2293
achus	-2294
anging	-2295
▁allow	-2296
erousse	-2297
▁appearance	-2298
▁unh	-2299
▁smoke	-2300
▁usual	-2301
▁wounded	-2302
com	-2303
▁ere	-2304
▁study	-2305
▁address	-2306
▁chur	-2307
▁blind	-2308
go	-2309
ding	-2310
lent	-2311
▁duty	-2312
culiar	-2313
▁illust	-2314
▁latter	-2315
aled	-2316
angu	-2317
▁pit	-2318
▁drag	-2319
▁easy	-2320
▁port	-2321
▁lower	-2322
▁report	-2323
ras	-2324
teen	-2325
then	-2326
▁cou	-2327
ories	-2328
▁spot	-2329
▁accept	-2330
▁middle	-2331
▁scarce	-2332
pit	-2333
▁exam	-2334
▁gall	-2335
▁infl	-2336
▁intr	-2337
yd	-2338
who	-2339
ancy	-2340
ulty	-2341
▁bold	-2342
▁giving	-2343
▁iv	-2344
▁shr	-2345
▁send	-2346
lected	-2347
▁effort	-2348
▁pocket	-2349
▁hid	-2350
while	-2351
▁coll	-2352
▁lives	-2353
▁forgot	-2354
▁covered	-2355
ey	-2356
aval	-2357
ests	-2358
▁firm	-2359
▁pooh	-2360
action	-2361
▁alice	-2362
▁leaving	-2363
▁movement	-2364
▁save	-2365
erable	-2366
▁merely	-2367
▁spirit	-2368
▁spread	-2369
▁everyone	-2370
▁peculiar	-2371
jo	-2372
non	-2373
ires	-2374
father	-2375
▁broad	-2376
▁darcy	-2377
▁meaning	-2378
ton	-2379
cerf	-2380
idge	-2381
▁lean	-2382
▁clot	-2383
▁wide	-2384
▁apart	-2385
▁brave	-2386
▁early	-2387
▁attempt	-2388
▁absolute	-2389
▁expected	-2390
pend	-2391
▁emb	-2392
tended	-2393
▁future	-2394
▁greater	-2395
▁afterwards	-2396
▁od	-2397
▁cab	-2398
▁pun	-2399
▁caderousse	-2400
ald	-2401
reme	-2402
were	-2403
ishop	-2404
ously	-2405
▁grow	-2406
dr	-2407
gg	-2408
aff	-2409
off	-2410
lers	-2411
rehe	-2412
▁race	-2413
und	-2414
▁ver	-2415
▁cart	-2416
▁wont	-2417
▁getting	-2418
▁running	-2419
▁servant	-2420
▁lu	-2421
▁tro	-2422
▁deal	-2423
▁becom	-2424
▁conne	-2425
▁morcerf	-2426
held	-2427
ibly	-2428
▁died	-2429
▁shar	-2430
▁formed	-2431
▁ancient	-2432
yl	-2433
ified	-2434
▁aston	-2435
▁grave	-2436
▁fallen	-2437
▁blow	-2438
▁extr	-2439
▁incl	-2440
▁france	-2441
▁public	-2442
▁smiled	-2443
pecially	-2444
▁gentleman	-2445
▁passage	-2446
any	-2447
oly	-2448
ience	-2449
oured	-2450
▁concl	-2451
▁pity	-2452
▁baron	-2453
▁beauty	-2454
▁noticed	-2455
ae	-2456
lov	-2457
▁mel	-2458
▁une	-2459
ision	-2460
▁bank	-2461
▁sett	-2462
▁snow	-2463
▁walls	-2464
▁despair	-2465
▁profess	-2466
▁furn	-2467
▁troj	-2468
▁asleep	-2469
▁doroth	-2470
▁golden	-2471
▁trying	-2472
▁succeed	-2473
▁er	-2474
▁perm	-2475
▁walk	-2476
▁months	-2477
ays	-2478
▁bol	-2479
itated	-2480
▁burst	-2481
▁river	-2482
▁thank	-2483
▁danger	-2484
▁police	-2485
ming	-2486
▁abb	-2487
▁angry	-2488
▁polit	-2489
▁hector	-2490
▁outside	-2491
iles	-2492
▁bor	-2493
▁dust	-2494
▁scene	-2495
▁treat	-2496
▁gentlemen	-2497
bered	-2498
mbling	-2499
▁married	-2500
ners	-2501
▁sons	-2502
▁stern	-2503
▁divine	-2504
▁passing	-2505
gu	-2506
mbled	-2507
▁prevent	-2508
fl	-2509
▁civ	-2510
▁ign	-2511
▁bless	-2512
▁noise	-2513
▁barric	-2514
unk	-2515
wise	-2516
▁hot	-2517
eness	-2518
▁gate	-2519
▁paid	-2520
▁teeth	-2521
▁houses	-2522
lls	-2523
iety	-2524
them	-2525
▁deg	-2526
▁note	-2527
▁advant	-2528
▁holding	-2529
▁commander	-2530
bers	-2531
elve	-2532
▁pig	-2533
▁hunt	-2534
▁heads	-2535
dom	-2536
▁bal	-2537
▁dim	-2538
▁jul	-2539
▁hero	-2540
▁lies	-2541
▁comfort	-2542
▁greatest	-2543
▁according	-2544
▁shoulders	-2545
gy	-2546
▁cand	-2547
▁situ	-2548
▁kings	-2549
aded	-2550
ract	-2551
▁ves	-2552
▁empl	-2553
▁separ	-2554
▁quarter	-2555
rs	-2556
ishing	-2557
▁plato	-2558
▁church	-2559
▁perfectly	-2560
ais	-2561
▁sit	-2562
▁rage	-2563
▁eager	-2564
▁swift	-2565
▁retreat	-2566
▁excellen	-2567
▁listened	-2568
ev	-2569
ma	-2570
otion	-2571
▁caval	-2572
▁grief	-2573
ference	-2574
▁honour	-2575
▁dorothy	-2576
▁persons	-2577
xim	-2578
ences	-2579
▁chair	-2580
▁super	-2581
▁figure	-2582
000	-2583
▁pop	-2584
▁food	-2585
▁seat	-2586
▁hence	-2587
▁sides	-2588
▁promise	-2589
▁especially	-2590
ingu	-2591
▁mill	-2592
▁health	-2593
▁surprise	-2594
▁difficult	-2595
uly	-2596
▁ow	-2597
osite	-2598
▁amid	-2599
▁dare	-2600
▁main	-2601
▁rese	-2602
ushing	-2603
▁faith	-2604
▁lying	-2605
▁thunder	-2606
can	-2607
eks	-2608
▁bent	-2609
▁mont	-2610
▁incre	-2611
▁tender	-2612
uel	-2613
▁ble	-2614
acing	-2615
inite	-2616
▁educ	-2617
▁flew	-2618
formed	-2619
pected	-2620
▁spect	-2621
▁twelve	-2622
ior	-2623
fast	-2624
▁obe	-2625
▁safe	-2626
▁tree	-2627
▁spring	-2628
mond	-2629
night	-2630
▁poet	-2631
▁bread	-2632
▁false	-2633
▁piece	-2634
▁spite	-2635
▁train	-2636
▁smiling	-2637
avro	-2638
okhov	-2639
▁march	-2640
▁bishop	-2641
▁theres	-2642
▁regiment	-2643
▁surround	-2644
enced	-2645
▁hels	-2646
▁hide	-2647
▁mark	-2648
▁proud	-2649
▁easily	-2650
▁written	-2651
▁contrary	-2652
set	-2653
ases	-2654
lokhov	-2655
▁greek	-2656
▁party	-2657
▁company	-2658
▁imagine	-2659
▁pleased	-2660
▁serious	-2661
min	-2662
rid	-2663
▁tur	-2664
▁thin	-2665
▁commun	-2666
▁minute	-2667
▁terror	-2668
▁individ	-2669
▁disappeared	-2670
bing	-2671
sequ	-2672
▁bag	-2673
▁orig	-2674
▁music	-2675
▁noirt	-2676
▁attend	-2677
▁rising	-2678
▁important	-2679
ias	-2680
inal	-2681
▁vol	-2682
arked	-2683
▁ideas	-2684
▁feelings	-2685
ams	-2686
lemn	-2687
ouds	-2688
▁murm	-2689
▁priv	-2690
▁inten	-2691
▁shook	-2692
▁vessel	-2693
▁ur	-2694
▁fun	-2695
acked	-2696
▁dlokhov	-2697
tw	-2698
zz	-2699
bor	-2700
llig	-2701
▁crew	-2702
▁greg	-2703
▁agree	-2704
▁girls	-2705
▁fierce	-2706
bre	-2707
rap	-2708
▁beat	-2709
▁virtue	-2710
fortun	-2711
▁journey	-2712
inted	-2713
▁bare	-2714
▁rise	-2715
▁unhapp	-2716
▁dressed	-2717
▁opposite	-2718
▁scarcely	-2719
ature	-2720
erted	-2721
▁broke	-2722
▁class	-2723
▁shadow	-2724
aud	-2725
athe	-2726
▁langu	-2727
▁pract	-2728
▁determ	-2729
▁affection	-2730
ubb	-2731
pher	-2732
▁ban	-2733
▁bul	-2734
▁sus	-2735
▁sake	-2736
ounced	-2737
▁yield	-2738
▁histor	-2739
▁chamber	-2740
▁distingu	-2741
▁dreadful	-2742
▁military	-2743
▁questions	-2744
▁excellency	-2745
aly	-2746
ien	-2747
esty	-2748
ghed	-2749
▁homer	-2750
ishment	-2751
▁knowing	-2752
▁unknown	-2753
.,	-2754
ha	-2755
iff	-2756
arily	-2757
▁solemn	-2758
▁allowed	-2759
▁observed	-2760
io	-2761
?\"	-2762
rem	-2763
,000	-2764
▁aim	-2765
ashed	-2766
olved	-2767
ument	-2768
▁magn	-2769
▁mars	-2770
▁sword	-2771
ibility	-2772
▁letters	-2773
▁entirely	-2774
ilar	-2775
▁sac	-2776
▁sym	-2777
chief	-2778
▁bore	-2779
▁vast	-2780
▁drawn	-2781
▁drove	-2782
▁bennet	-2783
▁bottom	-2784
▁travel	-2785
▁helsing	-2786
▁started	-2787
▁bing	-2788
▁defe	-2789
idered	-2790
▁events	-2791
▁ourselves	-2792
son	-2793
kind	-2794
▁eld	-2795
▁dart	-2796
▁andre	-2797
▁fifty	-2798
▁oblig	-2799
avroche	-2800
oot	-2801
erved	-2802
▁aust	-2803
▁admir	-2804
▁ignor	-2805
▁write	-2806
▁pointed	-2807
▁streets	-2808
▁servants	-2809
▁wed	-2810
▁hall	-2811
▁legs	-2812
▁trust	-2813
▁introd	-2814
▁seated	-2815
▁princip	-2816
▁difficulty	-2817
long	-2818
ested	-2819
▁deck	-2820
▁compl	-2821
▁knees	-2822
▁visible	-2823
urs	-2824
▁sli	-2825
▁beau	-2826
▁exec	-2827
▁west	-2828
▁maxim	-2829
oon	-2830
aire	-2831
onel	-2832
uded	-2833
ilian	-2834
▁ears	-2835
▁lion	-2836
▁pict	-2837
▁tail	-2838
levent	-2839
▁queen	-2840
▁sacri	-2841
▁beheld	-2842
▁showed	-2843
more	-2844
▁jon	-2845
▁entr	-2846
isters	-2847
▁aside	-2848
▁grace	-2849
▁caused	-2850
▁suffic	-2851
▁moments	-2852
ring	-2853
▁pul	-2854
ander	-2855
athan	-2856
▁alas	-2857
▁barricade	-2858
▁presented	-2859
ech	-2860
iod	-2861
face	-2862
uted	-2863
▁bod	-2864
▁obt	-2865
izing	-2866
retch	-2867
▁louis	-2868
▁touch	-2869
▁edmond	-2870
▁forced	-2871
▁inform	-2872
▁learned	-2873
▁finished	-2874
pered	-2875
▁fool	-2876
▁lose	-2877
▁tall	-2878
ashion	-2879
▁fault	-2880
▁romeo	-2881
▁touched	-2882
▁walking	-2883
▁conscious	-2884
iii	-2885
olog	-2886
▁shot	-2887
▁shoulder	-2888
ament	-2889
▁anna	-2890
▁phys	-2891
▁ring	-2892
▁worse	-2893
▁assist	-2894
▁decided	-2895
▁receive	-2896
chelevent	-2897
ron	-2898
▁moon	-2899
▁board	-2900
▁prote	-2901
▁andrea	-2902
▁ladies	-2903
▁places	-2904
▁changed	-2905
▁inquired	-2906
▁6	-2907
▁tum	-2908
▁path	-2909
▁rode	-2910
▁speci	-2911
▁flight	-2912
▁superi	-2913
▁village	-2914
▁trembling	-2915
▁bors	-2916
▁conqu	-2917
▁clouds	-2918
▁simply	-2919
▁interrupt	-2920
▁illustration	-2921
▁faces	-2922
▁famil	-2923
▁gazed	-2924
theless	-2925
▁behold	-2926
▁various	-2927
ondon	-2928
▁ming	-2929
▁purs	-2930
▁sperm	-2931
▁affair	-2932
▁favour	-2933
▁suffer	-2934
▁windows	-2935
aked	-2936
▁bon	-2937
tering	-2938
▁sacred	-2939
▁concern	-2940
▁violent	-2941
▁existence	-2942
▁satisfied	-2943
▁government	-2944
cure	-2945
▁gar	-2946
▁vent	-2947
▁nurse	-2948
▁mighty	-2949
▁moving	-2950
▁notice	-2951
▁appears	-2952
▁occupied	-2953
lex	-2954
ator	-2955
▁sin	-2956
aming	-2957
iding	-2958
▁dism	-2959
▁jane	-2960
▁begun	-2961
▁inquir	-2962
uls	-2963
ales	-2964
rate	-2965
▁cop	-2966
alled	-2967
▁sple	-2968
▁learn	-2969
▁gloomy	-2970
▁likely	-2971
▁unable	-2972
▁ordered	-2973
▁advanced	-2974
▁intellig	-2975
▁perceived	-2976
▁frightened	-2977
hab	-2978
▁pi	-2979
▁clo	-2980
▁cow	-2981
▁nine	-2982
▁wise	-2983
▁storm	-2984
▁thrown	-2985
▁confess	-2986
▁nevertheless	-2987
oned	-2988
▁ash	-2989
▁ros	-2990
ivers	-2991
▁seek	-2992
▁grant	-2993
▁influ	-2994
▁wrote	-2995
▁exactly	-2996
▁gavroche	-2997
▁advantage	-2998
▁fauchelevent	-2999
ios	-3000
hand	-3001
▁shud	-3002
▁spoken	-3003
▁xx	-3004
look	-3005
▁gro	-3006
▁ris	-3007
▁cloud	-3008
▁empty	-3009
▁london	-3010
▁strugg	-3011
▁thirty	-3012
▁clothes	-3013
▁colonel	-3014
▁heavens	-3015
▁opening	-3016
▁approached	-3017
ham	-3018
▁avo	-3019
▁mas	-3020
▁grou	-3021
ission	-3022
▁noirtier	-3023
▁remarked	-3024
hon	-3025
▁roy	-3026
olras	-3027
▁pard	-3028
terday	-3029
▁alive	-3030
▁civil	-3031
attered	-3032
▁creature	-3033
▁everybody	-3034
▁surprised	-3035
ina	-3036
ulf	-3037
▁sy	-3038
aste	-3039
▁aug	-3040
▁emer	-3041
▁goes	-3042
▁wolf	-3043
▁warri	-3044
▁memory	-3045
▁talked	-3046
▁voices	-3047
▁yellow	-3048
▁clearly	-3049
▁mothers	-3050
▁z	-3051
?"}	-3052
iny	-3053
nat	-3054
cked	-3055
▁awa	-3056
▁mal	-3057
▁weep	-3058
▁shame	-3059
▁telem	-3060
▁superior	-3061
▁forgotten	-3062
▁circumstances	-3063
erve	-3064
oose	-3065
aling	-3066
verse	-3067
▁ende	-3068
▁laughed	-3069
▁suitors	-3070
▁uttered	-3071
pse	-3072
burg	-3073
antic	-3074
▁bird	-3075
▁cheer	-3076
▁harpo	-3077
▁lines	-3078
▁stubb	-3079
▁proper	-3080
▁splend	-3081
▁passion	-3082
▁unhappy	-3083
▁remembered	-3084
crow	-3085
▁vas	-3086
▁gats	-3087
▁enorm	-3088
▁sharp	-3089
ression	-3090
▁double	-3091
▁charming	-3092
ka	-3093
aus	-3094
rif	-3095
ayed	-3096
cing	-3097
▁sav	-3098
lished	-3099
▁offer	-3100
▁bridge	-3101
▁rushed	-3102
▁engaged	-3103
▁wretched	-3104
▁philosophy	-3105
▁revolution	-3106
oman	-3107
▁ali	-3108
▁fet	-3109
their	-3110
▁looks	-3111
▁christ	-3112
▁waited	-3113
▁laughing	-3114
▁occurred	-3115
▁prepared	-3116
▁profound	-3117
▁tyr	-3118
orted	-3119
▁mess	-3120
▁fancy	-3121
▁papers	-3122
▁wicked	-3123
▁excellent	-3124
▁yesterday	-3125
ded	-3126
tle	-3127
bles	-3128
oped	-3129
▁cost	-3130
▁fish	-3131
ternal	-3132
▁beast	-3133
▁greece	-3134
▁horror	-3135
▁rapidly	-3136
▁similar	-3137
▁philosopher	-3138
umb	-3139
▁cit	-3140
▁mir	-3141
▁sor	-3142
champ	-3143
▁mour	-3144
▁recol	-3145
▁speed	-3146
▁madele	-3147
▁affairs	-3148
▁counten	-3149
▁brothers	-3150
▁generally	-3151
▁mentioned	-3152
▁fit	-3153
▁unex	-3154
▁equal	-3155
▁offered	-3156
▁enjolras	-3157
▁handsome	-3158
▁telemachus	-3159
iot	-3160
see	-3161
acle	-3162
keep	-3163
ocked	-3164
stand	-3165
▁cook	-3166
▁obey	-3167
▁didnt	-3168
▁glory	-3169
▁midst	-3170
ancholy	-3171
▁counts	-3172
▁companion	-3173
pir	-3174
tes	-3175
aved	-3176
been	-3177
count	-3178
olled	-3179
▁gras	-3180
▁sire	-3181
ndered	-3182
▁build	-3183
▁parent	-3184
▁melancholy	-3185
▁rain	-3186
▁stir	-3187
iction	-3188
orious	-3189
▁imper	-3190
▁pride	-3191
▁pursu	-3192
▁bitter	-3193
▁period	-3194
▁wealth	-3195
▁advance	-3196
▁glanced	-3197
▁education	-3198
▁considered	-3199
has	-3200
▁tu	-3201
▁fan	-3202
▁devil	-3203
▁spent	-3204
▁happen	-3205
▁burning	-3206
▁reading	-3207
umph	-3208
▁pty	-3209
field	-3210
▁royal	-3211
▁endeav	-3212
▁mercds	-3213
▁fashion	-3214
▁witness	-3215
▁moreover	-3216
rib	-3217
▁dry	-3218
▁east	-3219
▁fant	-3220
▁faint	-3221
▁narrow	-3222
▁hurried	-3223
▁distinct	-3224
▁maximilian	-3225
hn	-3226
ob	-3227
?",	-3228
eque	-3229
▁rag	-3230
lovna	-3231
ulous	-3232
▁sick	-3233
▁aband	-3234
▁crime	-3235
▁repres	-3236
▁served	-3237
▁extreme	-3238
atic	-3239
oted	-3240
▁fold	-3241
▁laws	-3242
▁scare	-3243
▁uneas	-3244
▁affect	-3245
▁fields	-3246
▁paused	-3247
▁sought	-3248
▁square	-3249
▁bingley	-3250
▁station	-3251
▁breakfast	-3252
gl	-3253
▁neg	-3254
▁voy	-3255
equeg	-3256
▁brow	-3257
▁fill	-3258
▁roof	-3259
▁chest	-3260
▁dying	-3261
▁examp	-3262
leg	-3263
some	-3264
▁unf	-3265
mense	-3266
▁ange	-3267
▁pure	-3268
▁week	-3269
icated	-3270
▁haste	-3271
▁month	-3272
▁pisto	-3273
▁saved	-3274
▁peters	-3275
▁powers	-3276
▁threat	-3277
▁hearing	-3278
▁prisoner	-3279
▁ii	-3280
norm	-3281
upid	-3282
ution	-3283
▁gives	-3284
▁prove	-3285
▁height	-3286
▁higher	-3287
▁nearer	-3288
▁consequ	-3289
▁distant	-3290
▁madeleine	-3291
▁mysterious	-3292
reed	-3293
rees	-3294
▁brain	-3295
▁innoc	-3296
▁libert	-3297
aughters	-3298
▁falling	-3299
acks	-3300
pond	-3301
arest	-3302
astic	-3303
would	-3304
▁temper	-3305
▁evident	-3306
▁accompan	-3307
▁meanwhile	-3308
▁il	-3309
hest	-3310
▁aud	-3311
▁bab	-3312
▁scr	-3313
▁coach	-3314
▁uncle	-3315
▁destroy	-3316
▁meeting	-3317
▁resumed	-3318
▁shadows	-3319
▁enormous	-3320
!"}	-3321
loo	-3322
uses	-3323
inced	-3324
olunt	-3325
place	-3326
▁nose	-3327
▁tong	-3328
▁favor	-3329
▁forms	-3330
▁twice	-3331
▁vague	-3332
▁explain	-3333
▁someone	-3334
▁triumph	-3335
oat	-3336
teau	-3337
your	-3338
▁lod	-3339
▁rab	-3340
▁bour	-3341
▁slain	-3342
▁degree	-3343
▁greeks	-3344
▁misery	-3345
▁states	-3346
▁remains	-3347
▁beauchamp	-3348
▁ive	-3349
▁tra	-3350
▁earn	-3351
▁luck	-3352
▁temp	-3353
▁boats	-3354
▁grass	-3355
▁inside	-3356
▁opport	-3357
▁sprang	-3358
▁flowers	-3359
▁apparent	-3360
▁singular	-3361
▁discovered	-3362
ipp	-3363
rep	-3364
▁key	-3365
▁asce	-3366
▁embr	-3367
▁ptya	-3368
▁freed	-3369
▁takes	-3370
▁mortal	-3371
▁supper	-3372
▁immense	-3373
▁science	-3374
▁forehead	-3375
▁produced	-3376
▁ty	-3377
▁tz	-3378
▁aid	-3379
▁forty	-3380
normand	-3381
▁distur	-3382
▁queequeg	-3383
▁carefully	-3384
▁countenance	-3385
cil	-3386
enth	-3387
▁due	-3388
imate	-3389
▁asse	-3390
▁cele	-3391
▁reve	-3392
▁shap	-3393
▁unless	-3394
▁promised	-3395
▁expressed	-3396
▁listening	-3397
▁scarecrow	-3398
illenormand	-3399
into	-3400
▁oce	-3401
unity	-3402
▁alex	-3403
▁aunt	-3404
▁impr	-3405
▁song	-3406
arther	-3407
iently	-3408
▁bowed	-3409
▁drive	-3410
▁frequ	-3411
▁space	-3412
▁curious	-3413
▁obliged	-3414
ik	-3415
cian	-3416
ital	-3417
▁cho	-3418
iform	-3419
igned	-3420
acious	-3421
▁names	-3422
▁share	-3423
▁throw	-3424
▁discuss	-3425
▁pleasant	-3426
ium	-3427
▁xv	-3428
▁hurry	-3429
▁sorry	-3430
▁yours	-3431
▁contem	-3432
▁matters	-3433
▁believed	-3434
▁interrupted	-3435
▁smo	-3436
using	-3437
▁born	-3438
▁comr	-3439
▁halt	-3440
▁lock	-3441
▁prog	-3442
▁sand	-3443
▁susp	-3444
itable	-3445
▁instr	-3446
▁persu	-3447
▁souls	-3448
▁liberty	-3449
▁settled	-3450
▁unexpected	-3451
▁grandfather	-3452
gar	-3453
vey	-3454
case	-3455
ites	-3456
only	-3457
▁mix	-3458
▁dawn	-3459
▁hell	-3460
▁ruin	-3461
▁drunk	-3462
▁ceased	-3463
▁modern	-3464
▁watching	-3465
▁daughters	-3466
▁situation	-3467
ao	-3468
!",	-3469
new	-3470
bray	-3471
▁cover	-3472
▁parts	-3473
▁recei	-3474
▁lifted	-3475
▁trojan	-3476
▁pressed	-3477
▁watched	-3478
▁language	-3479
▁addressed	-3480
▁experience	-3481
▁possession	-3482
▁gh	-3483
erty	-3484
resh	-3485
▁elb	-3486
▁suf	-3487
▁john	-3488
▁sink	-3489
▁farther	-3490
ieu	-3491
reg	-3492
ses	-3493
▁adj	-3494
▁amb	-3495
▁rad	-3496
apped	-3497
▁huss	-3498
▁sigh	-3499
lessly	-3500
▁citiz	-3501
▁crown	-3502
▁habit	-3503
▁worthy	-3504
▁finally	-3505
▁victory	-3506
▁recognized	-3507
▁experienced	-3508
▁ber	-3509
▁anat	-3510
▁fail	-3511
▁galle	-3512
▁grown	-3513
▁repro	-3514
ability	-3515
▁kissed	-3516
▁preced	-3517
▁search	-3518
▁supposed	-3519
isc	-3520
oll	-3521
aise	-3522
cher	-3523
▁foe	-3524
▁holy	-3525
▁rejo	-3526
▁rule	-3527
▁wick	-3528
▁extra	-3529
▁inhab	-3530
▁waves	-3531
▁youre	-3532
▁custom	-3533
▁nation	-3534
▁anxious	-3535
▁spirits	-3536
▁instantly	-3537
▁lof	-3538
▁vir	-3539
board	-3540
chant	-3541
usted	-3542
▁carp	-3543
▁pick	-3544
iosity	-3545
▁books	-3546
▁judge	-3547
▁relig	-3548
▁condem	-3549
▁hearts	-3550
▁weight	-3551
▁assured	-3552
▁fingers	-3553
▁precise	-3554
▁individual	-3555
▁arch	-3556
▁fury	-3557
▁seas	-3558
▁south	-3559
▁leaves	-3560
▁piglet	-3561
▁stupid	-3562
▁absence	-3563
▁dropped	-3564
▁gillenormand	-3565
mit	-3566
aker	-3567
pire	-3568
▁hos	-3569
▁clean	-3570
▁delic	-3571
▁enjoy	-3572
▁hills	-3573
▁stock	-3574
▁advent	-3575
▁shield	-3576
▁thrust	-3577
▁century	-3578
▁growing	-3579
▁sisters	-3580
▁uniform	-3581
▁instinct	-3582
▁property	-3583
▁necessity	-3584
anqu	-3585
▁gay	-3586
▁betr	-3587
▁guns	-3588
▁join	-3589
▁asking	-3590
▁cannon	-3591
▁circle	-3592
▁surely	-3593
▁required	-3594
▁whispered	-3595
rer	-3596
▁et	-3597
ache	-3598
▁bid	-3599
▁nod	-3600
house	-3601
▁amaz	-3602
▁deli	-3603
▁doors	-3604
▁flies	-3605
▁clever	-3606
▁minerv	-3607
▁unjust	-3608
▁example	-3609
▁mankind	-3610
▁telling	-3611
kns	-3612
dess	-3613
road	-3614
▁inj	-3615
▁sty	-3616
▁ton	-3617
inous	-3618
▁cler	-3619
▁grat	-3620
▁guess	-3621
▁hollow	-3622
▁becomes	-3623
▁mingled	-3624
▁somewhat	-3625
▁prisoners	-3626
oh	-3627
lets	-3628
▁cup	-3629
▁bill	-3630
▁dogs	-3631
▁fond	-3632
▁lamp	-3633
▁chteau	-3634
▁fortun	-3635
▁pardon	-3636
▁arrival	-3637
▁motionless	-3638
▁ham	-3639
▁rum	-3640
▁meth	-3641
▁neighbor	-3642
▁wonderful	-3643
▁petersburg	-3644
▁7	-3645
▁181	-3646
▁gift	-3647
▁liked	-3648
▁engage	-3649
▁greatly	-3650
▁monarch	-3651
▁republic	-3652
car	-3653
cle	-3654
buck	-3655
▁wel	-3656
after	-3657
▁nest	-3658
crates	-3659
stairs	-3660
▁hopes	-3661
▁shoes	-3662
▁spear	-3663
▁finger	-3664
▁escaped	-3665
▁excited	-3666
▁majesty	-3667
▁fighting	-3668
▁horrible	-3669
▁curiosity	-3670
▁miserable	-3671
arr	-3672
ips	-3673
atch	-3674
good	-3675
yrac	-3676
▁dom	-3677
eding	-3678
elled	-3679
isher	-3680
▁cell	-3681
▁exer	-3682
▁pant	-3683
inated	-3684
▁impat	-3685
▁truly	-3686
justice	-3687
▁crossed	-3688
▁putting	-3689
▁convinced	-3690
▁absolutely	-3691
▁completely	-3692
gin	-3693
umn	-3694
could	-3695
ernand	-3696
▁slept	-3697
▁vasli	-3698
▁arrest	-3699
▁debray	-3700
▁excuse	-3701
▁honest	-3702
▁priest	-3703
▁rostvs	-3704
▁writing	-3705
▁influence	-3706
▁succeeded	-3707
▁difference	-3708
▁particularly	-3709
did	-3710
rain	-3711
▁cred	-3712
▁huge	-3713
▁birds	-3714
▁whats	-3715
ustomed	-3716
▁gregor	-3717
▁thanks	-3718
▁whence	-3719
▁conduct	-3720
▁special	-3721
▁entering	-3722
▁entrance	-3723
▁principle	-3724
▁reflection	-3725
ino	-3726
uit	-3727
ctors	-3728
▁diss	-3729
▁mina	-3730
▁wore	-3731
▁lofty	-3732
▁north	-3733
▁proof	-3734
▁shown	-3735
▁cather	-3736
▁combat	-3737
▁parents	-3738
ky	-3739
▁ep	-3740
▁ts	-3741
▁tis	-3742
▁uns	-3743
▁gray	-3744
▁lucy	-3745
▁symp	-3746
icious	-3747
▁heroes	-3748
▁pieces	-3749
▁attract	-3750
▁private	-3751
▁useless	-3752
▁concealed	-3753
▁possessed	-3754
▁suffering	-3755
▁everywhere	-3756
▁understanding	-3757
aft	-3758
cant	-3759
oubt	-3760
▁ger	-3761
▁jum	-3762
▁coff	-3763
▁hole	-3764
▁stars	-3765
▁stead	-3766
▁suffered	-3767
▁unfortun	-3768
▁approaching	-3769
hus	-3770
▁aj	-3771
arse	-3772
clus	-3773
▁eur	-3774
about	-3775
ounce	-3776
venge	-3777
▁merry	-3778
▁ocean	-3779
▁flying	-3780
▁guards	-3781
▁hither	-3782
▁sovere	-3783
▁lighted	-3784
▁monster	-3785
bar	-3786
aches	-3787
ounds	-3788
right	-3789
▁heat	-3790
▁oper	-3791
rehens	-3792
▁fatal	-3793
▁shock	-3794
fortune	-3795
▁gatsby	-3796
▁wishes	-3797
▁freedom	-3798
▁goddess	-3799
▁intended	-3800
▁murmured	-3801
▁presently	-3802
aws	-3803
hal	-3804
char	-3805
emed	-3806
hold	-3807
▁gle	-3808
▁lin	-3809
ailed	-3810
ctions	-3811
feyrac	-3812
▁indif	-3813
▁feared	-3814
▁speech	-3815
▁voyage	-3816
ordinary	-3817
▁minerva	-3818
yes	-3819
cent	-3820
▁der	-3821
▁cous	-3822
▁hate	-3823
▁pros	-3824
▁sugg	-3825
▁task	-3826
▁match	-3827
▁minds	-3828
▁agreed	-3829
▁charge	-3830
▁explan	-3831
▁pulled	-3832
▁fernand	-3833
▁mistake	-3834
▁peasant	-3835
▁familiar	-3836
▁mistaken	-3837
▁otherwise	-3838
▁surrounded	-3839
▁opportunity	-3840
ived	-3841
mans	-3842
▁stat	-3843
▁bonap	-3844
▁cloak	-3845
▁advice	-3846
▁bolkns	-3847
▁famous	-3848
▁stream	-3849
▁tranqu	-3850
▁removed	-3851
▁confused	-3852
▁progress	-3853
▁sleeping	-3854
▁splendid	-3855
gan	-3856
ault	-3857
pers	-3858
seen	-3859
upon	-3860
▁dav	-3861
▁sme	-3862
▁dais	-3863
▁leap	-3864
iments	-3865
▁admit	-3866
▁aware	-3867
▁estab	-3868
▁major	-3869
▁stair	-3870
athered	-3871
▁candle	-3872
▁social	-3873
▁sounds	-3874
hen	-3875
chen	-3876
ucket	-3877
▁ease	-3878
▁gain	-3879
▁hark	-3880
▁feast	-3881
▁taste	-3882
▁employ	-3883
▁scream	-3884
▁counsel	-3885
▁reality	-3886
▁possibly	-3887
▁previous	-3888
bid	-3889
ker	-3890
thy	-3891
war	-3892
eral	-3893
iece	-3894
noon	-3895
▁sep	-3896
▁appo	-3897
▁capu	-3898
▁chim	-3899
▁geor	-3900
▁anger	-3901
▁brill	-3902
▁youll	-3903
together	-3904
▁quietly	-3905
▁socrates	-3906
▁treasure	-3907
▁dangerous	-3908
kes	-3909
ods	-3910
two	-3911
arks	-3912
▁ack	-3913
▁fac	-3914
ivity	-3915
▁pron	-3916
▁champ	-3917
▁maint	-3918
▁acknow	-3919
▁winter	-3920
▁continually	-3921
azz	-3922
cal	-3923
thr	-3924
uch	-3925
illy	-3926
port	-3927
▁bell	-3928
▁ener	-3929
▁adjut	-3930
▁madam	-3931
▁shirt	-3932
▁hospit	-3933
▁lovely	-3934
▁office	-3935
▁prefer	-3936
▁wisdom	-3937
▁convent	-3938
▁finding	-3939
▁tonight	-3940
▁wedding	-3941
▁meantime	-3942
▁departure	-3943
▁accompanied	-3944
etr	-3945
irm	-3946
quet	-3947
▁cott	-3948
▁pair	-3949
▁pall	-3950
▁rare	-3951
▁whir	-3952
▁avoid	-3953
▁groan	-3954
▁ideal	-3955
▁ranks	-3956
▁picked	-3957
▁points	-3958
▁reader	-3959
▁authority	-3960
▁described	-3961
▁confidence	-3962
▁extraordinary	-3963
itz	-3964
nas	-3965
▁pv	-3966
▁bas	-3967
asing	-3968
▁shed	-3969
vation	-3970
▁catch	-3971
▁rooms	-3972
▁tired	-3973
▁german	-3974
▁palace	-3975
▁pushed	-3976
▁waters	-3977
▁conceal	-3978
▁fifteen	-3979
▁singing	-3980
▁directly	-3981
▁peasants	-3982
▁descended	-3983
▁8	-3984
ify	-3985
▁17	-3986
rows	-3987
▁fer	-3988
▁mot	-3989
▁pan	-3990
iable	-3991
▁pull	-3992
▁shop	-3993
▁wing	-3994
▁calls	-3995
▁group	-3996
▁miles	-3997
▁steel	-3998
▁stick	-3999
▁upper	-4000
▁desper	-4001
▁stairs	-4002
▁anatole	-4003
▁determined	-4004
▁acquaintance	-4005
gen	-4006
hem	-4007
ture	-4008
▁ing	-4009
▁saf	-4010
ribut	-4011
▁clim	-4012
▁gest	-4013
▁mast	-4014
▁pill	-4015
▁tomb	-4016
roclus	-4017
▁flame	-4018
▁rough	-4019
▁sewer	-4020
▁venge	-4021
▁castle	-4022
▁sailor	-4023
▁school	-4024
▁stands	-4025
▁summer	-4026
▁laughter	-4027
▁mountain	-4028
▁resolved	-4029
▁neighbour	-4030
sm	-4031
key	-4032
ugn	-4033
▁pequ	-4034
▁birth	-4035
▁raise	-4036
▁severe	-4037
▁arrange	-4038
▁content	-4039
▁regular	-4040
▁stepped	-4041
▁starbuck	-4042
▁courfeyrac	-4043
▁hy	-4044
▁oz	-4045
!...	-4046
inte	-4047
take	-4048
▁tin	-4049
▁vig	-4050
again	-4051
▁grad	-4052
▁loss	-4053
▁wear	-4054
rified	-4055
should	-4056
▁level	-4057
▁trave	-4058
▁interv	-4059
▁regret	-4060
▁earnest	-4061
▁equally	-4062
mr	-4063
lin	-4064
ival	-4065
pass	-4066
sing	-4067
unch	-4068
▁hay	-4069
▁lyd	-4070
▁coss	-4071
▁helm	-4072
▁displ	-4073
▁distr	-4074
▁elder	-4075
▁skies	-4076
▁gazing	-4077
▁throat	-4078
▁tongue	-4079
▁transl	-4080
▁hastily	-4081
▁demanded	-4082
▁gathered	-4083
▁magnific	-4084
▁explained	-4085
▁accustomed	-4086
▁conscience	-4087
▁sufficient	-4088
het	-4089
orous	-4090
▁dull	-4091
▁exch	-4092
▁thor	-4093
▁boots	-4094
▁dared	-4095
▁fever	-4096
▁deeply	-4097
▁genius	-4098
▁proved	-4099
▁england	-4100
▁leaning	-4101
▁univers	-4102
▁contempl	-4103
▁catherine	-4104
▁entertain	-4105
!\"	-4106
ude	-4107
zen	-4108
coat	-4109
▁lit	-4110
▁tow	-4111
▁woe	-4112
asted	-4113
▁gaze	-4114
▁mult	-4115
▁nice	-4116
▁sees	-4117
▁blame	-4118
▁lance	-4119
alities	-4120
▁assure	-4121
▁design	-4122
▁juliet	-4123
▁rolled	-4124
▁russia	-4125
▁highest	-4126
▁shining	-4127
▁woodman	-4128
▁rendered	-4129
▁afternoon	-4130
▁cavalcant	-4131
▁sovereign	-4132
rors	-4133
▁bos	-4134
▁don	-4135
▁fee	-4136
▁lat	-4137
▁rub	-4138
acles	-4139
▁arth	-4140
▁wand	-4141
▁whit	-4142
▁chang	-4143
▁skill	-4144
▁terms	-4145
▁amount	-4146
▁coffin	-4147
▁forces	-4148
▁carrying	-4149
▁generals	-4150
▁immortal	-4151
▁relation	-4152
▁shouting	-4153
oms	-4154
fice	-4155
▁ess	-4156
▁tit	-4157
ators	-4158
iance	-4159
▁heap	-4160
▁rate	-4161
ondret	-4162
▁cries	-4163
▁fanci	-4164
▁horiz	-4165
▁turns	-4166
▁whist	-4167
▁europe	-4168
▁handed	-4169
▁tumult	-4170
▁shudder	-4171
▁discover	-4172
▁infinite	-4173
▁regarded	-4174
▁destroyed	-4175
▁injustice	-4176
▁9	-4177
iest	-4178
oses	-4179
rily	-4180
time	-4181
▁glit	-4182
▁lest	-4183
▁trem	-4184
▁yard	-4185
▁frown	-4186
▁fully	-4187
▁robin	-4188
▁straw	-4189
▁infant	-4190
▁rabbit	-4191
▁thirst	-4192
▁grecian	-4193
▁process	-4194
▁arranged	-4195
▁deserted	-4196
▁directed	-4197
▁jonathan	-4198
▁millions	-4199
▁delighted	-4200
▁intention	-4201
▁misfortune	-4202
ule	-4203
mend	-4204
▁dam	-4205
▁pot	-4206
▁spo	-4207
heart	-4208
oused	-4209
▁dign	-4210
▁rush	-4211
▁worn	-4212
itions	-4213
▁staff	-4214
▁useful	-4215
▁bearing	-4216
▁entreat	-4217
▁stronger	-4218
▁sacrifice	-4219
wr	-4220
ann	-4221
cio	-4222
▁mam	-4223
▁fled	-4224
▁wond	-4225
▁aloud	-4226
▁dance	-4227
▁shade	-4228
▁shape	-4229
▁subst	-4230
▁wings	-4231
▁chiefs	-4232
▁hidden	-4233
▁victim	-4234
▁emotion	-4235
▁eternal	-4236
▁nations	-4237
▁numbers	-4238
▁project	-4239
▁retired	-4240
▁signific	-4241
▁patroclus	-4242
aph	-4243
apt	-4244
ese	-4245
lev	-4246
may	-4247
book	-4248
izes	-4249
▁log	-4250
bourg	-4251
itive	-4252
iture	-4253
pping	-4254
▁sway	-4255
▁bones	-4256
▁claim	-4257
▁prize	-4258
▁witch	-4259
▁august	-4260
▁gently	-4261
▁insult	-4262
▁kindly	-4263
istopher	-4264
▁actions	-4265
▁collins	-4266
▁playing	-4267
▁pointing	-4268
▁professor	-4269
▁recognize	-4270
▁somewhere	-4271
01	-4272
uf	-4273
agg	-4274
▁ax	-4275
ques	-4276
attle	-4277
▁ajax	-4278
▁crim	-4279
▁edge	-4280
▁pack	-4281
▁weap	-4282
erning	-4283
▁flesh	-4284
▁paint	-4285
▁purch	-4286
▁driven	-4287
▁eating	-4288
▁poison	-4289
▁strike	-4290
▁wholly	-4291
▁jondret	-4292
▁whisper	-4293
▁working	-4294
▁argument	-4295
▁generous	-4296
▁ordinary	-4297
▁cavalcanti	-4298
▁information	-4299
mar	-4300
say	-4301
sey	-4302
uish	-4303
wood	-4304
▁lux	-4305
▁exha	-4306
▁disap	-4307
▁plans	-4308
▁style	-4309
▁wants	-4310
▁cheeks	-4311
▁depths	-4312
▁goodby	-4313
▁native	-4314
▁pistol	-4315
▁resist	-4316
▁extended	-4317
▁creatures	-4318
▁doubtless	-4319
▁returning	-4320
▁hl	-4321
▁aut	-4322
▁pin	-4323
▁grey	-4324
▁rear	-4325
▁tear	-4326
ortion	-4327
▁corre	-4328
▁facts	-4329
▁animal	-4330
▁aspect	-4331
▁joined	-4332
▁distress	-4333
▁muttered	-4334
▁importance	-4335
▁astonishment	-4336
dy	-4337
cur	-4338
fir	-4339
ral	-4340
spe	-4341
back	-4342
▁aye	-4343
▁hab	-4344
▁kit	-4345
▁net	-4346
▁vic	-4347
acity	-4348
every	-4349
ighed	-4350
owder	-4351
▁card	-4352
▁mate	-4353
▁roll	-4354
▁rope	-4355
▁rust	-4356
▁ways	-4357
ensive	-4358
illery	-4359
▁built	-4360
▁gates	-4361
▁ghost	-4362
▁knife	-4363
▁timid	-4364
▁choose	-4365
▁coward	-4366
▁guests	-4367
onscious	-4368
▁support	-4369
▁weather	-4370
▁bolknski	-4371
▁martians	-4372
▁touching	-4373
▁increased	-4374
alls	-4375
omed	-4376
ords	-4377
these	-4378
▁bree	-4379
▁game	-4380
▁glau	-4381
▁obst	-4382
▁pont	-4383
ounded	-4384
ulated	-4385
▁exerc	-4386
▁centre	-4387
▁sevent	-4388
▁sympath	-4389
▁involunt	-4390
▁considerable	-4391
mt	-4392
:"}	-4393
ken	-4394
aign	-4395
ilty	-4396
work	-4397
▁bew	-4398
▁ren	-4399
acher	-4400
asons	-4401
▁bert	-4402
▁fame	-4403
▁inex	-4404
▁pour	-4405
▁reck	-4406
▁wake	-4407
atures	-4408
▁cabin	-4409
▁credit	-4410
▁gained	-4411
▁steeds	-4412
▁stones	-4413
▁inhabit	-4414
▁accident	-4415
▁mistress	-4416
▁personal	-4417
▁mountains	-4418
▁destruction	-4419
▁imagination	-4420
iam	-4421
▁hun	-4422
▁lan	-4423
▁lot	-4424
▁nay	-4425
▁benef	-4426
▁falls	-4427
▁pause	-4428
▁buried	-4429
▁calcul	-4430
▁fourth	-4431
▁interp	-4432
▁played	-4433
▁prayer	-4434
▁wretch	-4435
▁council	-4436
▁measure	-4437
▁emperors	-4438
▁lightning	-4439
lock	-4440
ores	-4441
▁nin	-4442
vious	-4443
▁mort	-4444
▁fetch	-4445
▁weeks	-4446
▁batter	-4447
▁nights	-4448
▁desired	-4449
▁raising	-4450
▁powerful	-4451
▁altogether	-4452
▁christopher	-4453
bel	-4454
▁ga	-4455
▁ly	-4456
wind	-4457
order	-4458
▁fulf	-4459
▁murder	-4460
▁poetry	-4461
▁render	-4462
▁savage	-4463
▁fantine	-4464
▁keeping	-4465
▁require	-4466
▁kindness	-4467
▁brilliant	-4468
▁naturally	-4469
▁political	-4470
▁conception	-4471
ithe	-4472
osen	-4473
ource	-4474
▁cher	-4475
▁flag	-4476
▁frag	-4477
▁sund	-4478
uments	-4479
▁absor	-4480
▁arose	-4481
▁bosom	-4482
▁bride	-4483
tending	-4484
▁enemys	-4485
▁refuse	-4486
▁mounted	-4487
▁observe	-4488
▁request	-4489
▁citizens	-4490
▁gradually	-4491
law	-4492
oul	-4493
chan	-4494
▁answ	-4495
▁eury	-4496
▁hurt	-4497
▁smol	-4498
idable	-4499
▁cases	-4500
▁moral	-4501
respond	-4502
thought	-4503
▁guilty	-4504
▁anxiety	-4505
▁compass	-4506
▁inspect	-4507
▁perform	-4508
▁revenge	-4509
▁dressing	-4510
▁thorough	-4511
▁confusion	-4512
▁precisely	-4513
▁apparently	-4514
▁concerning	-4515
▁impression	-4516
▁disposition	-4517
▁interesting	-4518
ih	-4519
alt	-4520
eur	-4521
tel	-4522
cast	-4523
ency	-4524
inder	-4525
▁glim	-4526
▁prot	-4527
▁flood	-4528
▁indul	-4529
▁paces	-4530
▁sheep	-4531
ception	-4532
▁afford	-4533
▁arthur	-4534
▁bertuc	-4535
▁bottle	-4536
▁dreams	-4537
▁gather	-4538
▁marked	-4539
▁needed	-4540
▁descend	-4541
▁hanging	-4542
▁becoming	-4543
▁pleasures	-4544
▁acquainted	-4545
dis	-4546
een	-4547
sed	-4548
arte	-4549
▁fol	-4550
▁pon	-4551
▁depr	-4552
anches	-4553
unning	-4554
▁coast	-4555
▁infer	-4556
▁serve	-4557
▁wrath	-4558
▁bodies	-4559
▁conven	-4560
▁cousin	-4561
▁fisher	-4562
▁secure	-4563
▁calling	-4564
▁pierres	-4565
▁prepare	-4566
▁warrior	-4567
▁wickham	-4568
▁original	-4569
▁relations	-4570
▁companions	-4571
▁explanation	-4572
sk	-4573
vo	-4574
▁cas	-4575
▁jun	-4576
▁sof	-4577
▁swim	-4578
▁lover	-4579
▁named	-4580
▁ridic	-4581
▁toler	-4582
▁compar	-4583
▁origin	-4584
▁blessed	-4585
▁capulet	-4586
▁details	-4587
▁leading	-4588
▁seeking	-4589
▁attached	-4590
▁cheerful	-4591
▁apartment	-4592
▁staircase	-4593
02	-4594
aunt	-4595
such	-4596
turn	-4597
▁jew	-4598
great	-4599
▁curt	-4600
▁diam	-4601
keeper	-4602
▁squad	-4603
▁wheel	-4604
▁worst	-4605
onsense	-4606
▁abrupt	-4607
▁capital	-4608
▁surface	-4609
▁actually	-4610
▁campaign	-4611
▁employed	-4612
▁frightful	-4613
hum	-4614
cont	-4615
thus	-4616
▁dun	-4617
▁liter	-4618
▁parad	-4619
▁revol	-4620
▁swall	-4621
▁wooden	-4622
▁enemies	-4623
▁fellows	-4624
▁masters	-4625
▁picture	-4626
▁artillery	-4627
▁jondrette	-4628
▁astonished	-4629
▁correspond	-4630
col	-4631
iven	-4632
udge	-4633
▁ate	-4634
▁vul	-4635
ograp	-4636
point	-4637
▁blaz	-4638
▁tale	-4639
renaud	-4640
▁angel	-4641
▁awful	-4642
▁plung	-4643
▁crying	-4644
▁enthus	-4645
▁capable	-4646
▁sailors	-4647
▁adjutant	-4648
▁instance	-4649
▁minister	-4650
▁trembled	-4651
▁alexander	-4652
▁contained	-4653
bus	-4654
nal	-4655
▁cy	-4656
▁yu	-4657
four	-4658
iner	-4659
know	-4660
quis	-4661
than	-4662
▁ice	-4663
▁fare	-4664
▁resp	-4665
▁shel	-4666
▁torn	-4667
▁cruel	-4668
▁fears	-4669
▁frame	-4670
▁tempt	-4671
▁bagrat	-4672
▁boulev	-4673
▁estate	-4674
▁flames	-4675
▁remind	-4676
kerchief	-4677
▁animals	-4678
▁assumed	-4679
▁desires	-4680
▁existed	-4681
▁forgive	-4682
▁hideous	-4683
▁composed	-4684
▁harpoone	-4685
▁ignorant	-4686
▁informed	-4687
▁innocent	-4688
▁slightly	-4689
▁bertuccio	-4690
▁possibility	-4691
des	-4692
ems	-4693
por	-4694
mind	-4695
udes	-4696
whel	-4697
▁rom	-4698
ptych	-4699
▁arts	-4700
▁flat	-4701
▁ital	-4702
▁toss	-4703
inging	-4704
▁bears	-4705
▁illum	-4706
▁knock	-4707
▁mourn	-4708
▁solid	-4709
▁spare	-4710
▁spark	-4711
▁winds	-4712
▁woods	-4713
ization	-4714
▁flower	-4715
▁peoples	-4716
▁pursued	-4717
▁thither	-4718
▁building	-4719
▁humanity	-4720
▁precious	-4721
▁concerned	-4722
▁vengeance	-4723
▁intelligence	-4724
ocr	-4725
rop	-4726
▁eh	-4727
icted	-4728
ology	-4729
pleas	-4730
▁pave	-4731
▁rank	-4732
▁daisy	-4733
▁value	-4734
▁weary	-4735
▁assass	-4736
▁beings	-4737
▁alptych	-4738
▁ashamed	-4739
▁cavalry	-4740
▁accepted	-4741
▁baroness	-4742
▁branches	-4743
▁glancing	-4744
▁connection	-4745
▁principles	-4746
▁handkerchief	-4747
nty	-4748
cour	-4749
five	-4750
▁mud	-4751
estic	-4752
▁jack	-4753
▁keen	-4754
▁ment	-4755
▁pace	-4756
▁plum	-4757
▁test	-4758
ashing	-4759
ateful	-4760
mother	-4761
▁arrive	-4762
▁couple	-4763
▁encoun	-4764
▁jumped	-4765
▁nobody	-4766
▁kitchen	-4767
▁pierced	-4768
▁procure	-4769
▁reasons	-4770
▁contempt	-4771
▁declared	-4772
▁midnight	-4773
▁presents	-4774
▁whenever	-4775
▁committed	-4776
▁chteaurenaud	-4777
5.	-4778
hic	-4779
nsk	-4780
▁11	-4781
aeus	-4782
down	-4783
ables	-4784
first	-4785
oring	-4786
otted	-4787
▁vale	-4788
isions	-4789
▁delay	-4790
▁mater	-4791
▁waist	-4792
itution	-4793
▁belief	-4794
▁chosen	-4795
▁painful	-4796
▁admitted	-4797
▁belonged	-4798
▁features	-4799
▁reproach	-4800
▁russians	-4801
▁stretched	-4802
▁satisfaction	-4803
:",	-4804
▁om	-4805
ilst	-4806
made	-4807
much	-4808
rier	-4809
took	-4810
▁ard	-4811
aries	-4812
▁inev	-4813
▁nerv	-4814
▁guide	-4815
▁hoped	-4816
▁mercy	-4817
▁poets	-4818
ication	-4819
itement	-4820
ulation	-4821
▁safety	-4822
▁eagerly	-4823
▁manners	-4824
▁refused	-4825
▁breathing	-4826
▁friendship	-4827
▁distinguished	-4828
lo	-4829
▁10	-4830
omen	-4831
step	-4832
ural	-4833
▁liv	-4834
▁rig	-4835
▁sob	-4836
agger	-4837
alous	-4838
heard	-4839
▁busy	-4840
▁badly	-4841
▁thinks	-4842
▁thread	-4843
▁throne	-4844
▁consult	-4845
▁comrades	-4846
▁constant	-4847
▁formerly	-4848
▁struggle	-4849
▁connected	-4850
▁exception	-4851
▁remaining	-4852
▁separated	-4853
▁ta	-4854
part	-4855
soci	-4856
▁exh	-4857
▁gas	-4858
ishes	-4859
▁chin	-4860
▁musk	-4861
pended	-4862
▁cease	-4863
▁fleet	-4864
▁frank	-4865
▁signs	-4866
▁stiff	-4867
▁swear	-4868
utation	-4869
▁corpse	-4870
▁forbid	-4871
▁leaned	-4872
▁stayed	-4873
▁vision	-4874
▁follows	-4875
▁foreign	-4876
▁galleys	-4877
▁gesture	-4878
▁weeping	-4879
▁nonsense	-4880
▁condemned	-4881
▁proceeded	-4882
▁represent	-4883
▁distinguish	-4884
▁magnificent	-4885
▁unconscious	-4886
pus	-4887
▁pu	-4888
▁wu	-4889
ford	-4890
icip	-4891
last	-4892
▁pil	-4893
ician	-4894
itate	-4895
▁lets	-4896
▁mant	-4897
▁nant	-4898
▁wept	-4899
asures	-4900
ivered	-4901
▁fired	-4902
▁flung	-4903
▁julie	-4904
▁penel	-4905
▁rocks	-4906
himself	-4907
▁obtain	-4908
▁summon	-4909
▁suspic	-4910
▁uneasy	-4911
▁figures	-4912
▁breaking	-4913
▁desperate	-4914
▁interests	-4915
▁excitement	-4916
▁frequently	-4917
nes	-4918
▁ec	-4919
▁tea	-4920
bable	-4921
▁crit	-4922
▁sank	-4923
▁agony	-4924
▁feels	-4925
▁maids	-4926
▁sport	-4927
nothing	-4928
▁encour	-4929
▁driving	-4930
▁furious	-4931
▁mystery	-4932
▁setting	-4933
▁younger	-4934
▁continue	-4935
▁striking	-4936
▁unfortunate	-4937
bes	-4938
hor	-4939
pet	-4940
▁ox	-4941
arsh	-4942
lier	-4943
▁coo	-4944
▁sup	-4945
▁wet	-4946
erves	-4947
▁craw	-4948
▁farm	-4949
▁skin	-4950
arrass	-4951
▁seren	-4952
▁stole	-4953
▁stuff	-4954
▁excess	-4955
▁recall	-4956
▁managed	-4957
▁plainly	-4958
▁quitted	-4959
▁trojans	-4960
▁affected	-4961
▁comprehe	-4962
▁examined	-4963
▁ignorance	-4964
▁nantucket	-4965
▁resolution	-4966
▁recollection	-4967
uge	-4968
went	-4969
▁dan	-4970
▁fro	-4971
▁irr	-4972
▁mik	-4973
▁rib	-4974
▁wid	-4975
pired	-4976
shall	-4977
▁anch	-4978
▁meat	-4979
▁seam	-4980
▁confl	-4981
▁ended	-4982
▁flank	-4983
▁plant	-4984
▁celebr	-4985
▁depend	-4986
▁manage	-4987
▁worked	-4988
▁comment	-4989
▁objects	-4990
▁daylight	-4991
▁overwhel	-4992
▁waterloo	-4993
▁execution	-4994
abe	-4995
kins	-4996
rien	-4997
▁haw	-4998
▁iss	-4999
▁ith	-5000
▁som	-5001
umber	-5002
▁hans	-5003
▁pipe	-5004
▁toil	-5005
▁armed	-5006
▁loves	-5007
▁lydia	-5008
▁mamma	-5009
▁rever	-5010
▁sorts	-5011
▁austri	-5012
▁branch	-5013
▁colour	-5014
▁fought	-5015
▁stared	-5016
▁whilst	-5017
▁alarmed	-5018
▁careful	-5019
▁correct	-5020
▁foolish	-5021
▁forever	-5022
▁happens	-5023
▁princes	-5024
▁usually	-5025
▁activity	-5026
▁attitude	-5027
▁description	-5028
bly	-5029
kin	-5030
ieve	-5031
khov	-5032
▁bay	-5033
▁dig	-5034
▁iii	-5035
▁tot	-5036
▁vex	-5037
ading	-5038
osure	-5039
▁deed	-5040
▁hlne	-5041
▁impl	-5042
▁offe	-5043
▁tele	-5044
▁vamp	-5045
tember	-5046
▁bench	-5047
▁blows	-5048
▁crack	-5049
▁desir	-5050
▁marse	-5051
▁armies	-5052
▁george	-5053
▁repeat	-5054
▁retire	-5055
▁chariot	-5056
▁rolling	-5057
▁treated	-5058
▁wearing	-5059
▁silently	-5060
▁upstairs	-5061
▁vanished	-5062
▁violence	-5063
▁frenchman	-5064
▁furniture	-5065
▁proportion	-5066
▁oil	-5067
▁vii	-5068
rigny	-5069
▁levi	-5070
▁oath	-5071
riages	-5072
▁clock	-5073
▁italy	-5074
▁ithac	-5075
▁javel	-5076
▁waste	-5077
certain	-5078
olation	-5079
▁absent	-5080
▁causes	-5081
▁finish	-5082
▁gallop	-5083
▁pequod	-5084
▁purple	-5085
▁horizon	-5086
▁produce	-5087
▁willing	-5088
▁principal	-5089
▁inhabitants	-5090
chn	-5091
hel	-5092
ste	-5093
ums	-5094
once	-5095
rief	-5096
▁dmt	-5097
▁lam	-5098
▁spl	-5099
asket	-5100
chair	-5101
enter	-5102
ulate	-5103
▁repl	-5104
▁tent	-5105
▁trap	-5106
ooping	-5107
▁final	-5108
▁mouse	-5109
▁works	-5110
looking	-5111
▁burned	-5112
▁convey	-5113
▁desert	-5114
▁failed	-5115
▁feeble	-5116
▁hunger	-5117
▁porter	-5118
▁rulers	-5119
▁taught	-5120
▁wheels	-5121
▁contrad	-5122
▁convict	-5123
▁remarks	-5124
▁commands	-5125
▁contract	-5126
▁perceive	-5127
▁weakness	-5128
▁announced	-5129
▁appointed	-5130
▁concluded	-5131
▁embarrass	-5132
▁napoleons	-5133
▁qualities	-5134
▁conclusion	-5135
▁conditions	-5136
▁formidable	-5137
▁remarkable	-5138
bec	-5139
lar	-5140
rya	-5141
▁dil	-5142
▁ric	-5143
olves	-5144
ugnie	-5145
▁cord	-5146
▁sofa	-5147
apping	-5148
▁awake	-5149
▁erect	-5150
▁mayor	-5151
▁mikhy	-5152
▁notes	-5153
▁recom	-5154
ributed	-5155
▁begins	-5156
▁bourge	-5157
▁firing	-5158
▁invent	-5159
▁wounds	-5160
▁collect	-5161
▁diamond	-5162
▁glaucon	-5163
▁italian	-5164
▁welcome	-5165
▁bagratin	-5166
▁bringing	-5167
▁abandoned	-5168
▁boulevard	-5169
▁preceding	-5170
▁previously	-5171
igs	-5172
occ	-5173
ette	-5174
gment	-5175
grace	-5176
▁braz	-5177
▁eleg	-5178
▁flee	-5179
▁hang	-5180
▁lack	-5181
▁quit	-5182
▁subl	-5183
▁wave	-5184
ailing	-5185
isible	-5186
▁guest	-5187
▁uncom	-5188
▁choice	-5189
▁duties	-5190
▁shouts	-5191
▁withdr	-5192
▁anguish	-5193
▁beloved	-5194
▁dragged	-5195
▁nervous	-5196
▁reflect	-5197
▁coachman	-5198
▁agreeable	-5199
▁reflected	-5200
▁universal	-5201
▁assistance	-5202
cip	-5203
ili	-5204
▁12	-5205
▁13	-5206
geon	-5207
▁adop	-5208
▁bald	-5209
▁clas	-5210
▁grim	-5211
▁prey	-5212
▁sear	-5213
▁span	-5214
▁writ	-5215
▁artic	-5216
▁fatig	-5217
▁porch	-5218
▁slave	-5219
▁smell	-5220
▁brains	-5221
▁amongst	-5222
▁consent	-5223
▁saintmr	-5224
▁expecting	-5225
▁movements	-5226
▁involuntarily	-5227
6.	-5228
elt	-5229
vna	-5230
▁yo	-5231
?...	-5232
must	-5233
eyore	-5234
▁mrya	-5235
▁odys	-5236
▁risk	-5237
▁size	-5238
▁sole	-5239
▁vers	-5240
▁brief	-5241
▁drank	-5242
▁limbs	-5243
▁manif	-5244
▁reign	-5245
uctions	-5246
▁hungry	-5247
▁labour	-5248
▁powder	-5249
▁praise	-5250
▁quiver	-5251
▁rostop	-5252
▁throng	-5253
▁prayers	-5254
▁unpleas	-5255
▁inclined	-5256
▁guardians	-5257
▁historians	-5258
▁considering	-5259
bu	-5260
fs	-5261
yn	-5262
ept	-5263
vol	-5264
away	-5265
eric	-5266
icks	-5267
plic	-5268
▁fox	-5269
blanc	-5270
icate	-5271
might	-5272
▁mach	-5273
▁mood	-5274
▁oars	-5275
▁sous	-5276
▁term	-5277
▁angle	-5278
▁beard	-5279
▁devel	-5280
▁finds	-5281
▁grasp	-5282
▁hayde	-5283
▁needs	-5284
▁sheet	-5285
▁magist	-5286
▁nodded	-5287
▁softly	-5288
▁sooner	-5289
piration	-5290
▁dignity	-5291
▁popular	-5292
▁related	-5293
▁whereas	-5294
▁absorbed	-5295
▁davrigny	-5296
▁faithful	-5297
▁fastened	-5298
▁glorious	-5299
▁receiving	-5300
pre	-5301
▁ze	-5302
agon	-5303
gent	-5304
rels	-5305
rous	-5306
▁awk	-5307
▁ens	-5308
▁env	-5309
being	-5310
bling	-5311
inlaw	-5312
piece	-5313
▁debt	-5314
▁gend	-5315
▁poly	-5316
▁shes	-5317
urance	-5318
▁apoll	-5319
▁corps	-5320
▁cours	-5321
▁flask	-5322
▁hunts	-5323
▁eugnie	-5324
▁utmost	-5325
▁awkward	-5326
▁fearful	-5327
▁quarrel	-5328
▁shaking	-5329
▁utterly	-5330
▁wishing	-5331
▁advancing	-5332
▁president	-5333
▁addressing	-5334
leys	-5335
▁ili	-5336
▁upr	-5337
apsed	-5338
rious	-5339
▁mead	-5340
▁sher	-5341
ferent	-5342
▁brown	-5343
▁envel	-5344
▁linen	-5345
▁loose	-5346
▁refer	-5347
▁renew	-5348
▁trace	-5349
▁trial	-5350
▁wrink	-5351
▁yards	-5352
▁attent	-5353
▁helped	-5354
▁loving	-5355
▁method	-5356
▁strict	-5357
▁cunning	-5358
▁dancing	-5359
▁goodbye	-5360
▁hostile	-5361
▁hussars	-5362
▁plunged	-5363
▁stretch	-5364
▁crossing	-5365
▁heavenly	-5366
▁bourgeois	-5367
▁inspector	-5368
▁september	-5369
▁marseilles	-5370
rog	-5371
▁alc	-5372
▁chu	-5373
▁hut	-5374
▁oct	-5375
▁won	-5376
agues	-5377
icing	-5378
istic	-5379
llect	-5380
three	-5381
▁obed	-5382
▁arise	-5383
▁eaten	-5384
▁landl	-5385
▁sadly	-5386
▁shone	-5387
▁shoot	-5388
▁stout	-5389
▁tramp	-5390
▁exceed	-5391
▁halted	-5392
▁loudly	-5393
▁precau	-5394
▁pursue	-5395
▁signal	-5396
▁division	-5397
▁goodness	-5398
▁hastened	-5399
▁visitors	-5400
▁adventure	-5401
▁strangers	-5402
▁occasionally	-5403
0.	-5404
box	-5405
nov	-5406
pin	-5407
▁14	-5408
ares	-5409
cons	-5410
even	-5411
pier	-5412
pres	-5413
▁bat	-5414
▁duc	-5415
▁glo	-5416
▁hit	-5417
ieved	-5418
inity	-5419
▁buck	-5420
▁cool	-5421
▁cors	-5422
▁gown	-5423
▁june	-5424
▁mild	-5425
▁ours	-5426
versed	-5427
▁chain	-5428
▁exped	-5429
▁flash	-5430
▁liber	-5431
itating	-5432
▁americ	-5433
▁dmtrie	-5434
▁eeyore	-5435
▁hatred	-5436
▁indign	-5437
▁ithaca	-5438
▁angrily	-5439
▁closely	-5440
▁dischar	-5441
▁rushing	-5442
▁shepher	-5443
▁stories	-5444
▁deceived	-5445
▁religion	-5446
▁bonaparte	-5447
▁exhausted	-5448
▁circumstance	-5449
ools	-5450
▁ram	-5451
▁sho	-5452
inate	-5453
overy	-5454
▁ages	-5455
▁aven	-5456
▁benn	-5457
▁boys	-5458
▁brig	-5459
▁dazz	-5460
▁dise	-5461
▁isnt	-5462
▁rang	-5463
▁rosy	-5464
▁sunk	-5465
▁virg	-5466
▁murde	-5467
▁stage	-5468
▁sweep	-5469
▁teach	-5470
▁tower	-5471
▁vehic	-5472
jection	-5473
▁bought	-5474
▁corrid	-5475
▁larger	-5476
▁prepar	-5477
▁thence	-5478
▁tyrant	-5479
▁bedroom	-5480
▁enchant	-5481
▁harmony	-5482
▁heavily	-5483
▁leblanc	-5484
▁obscure	-5485
▁whaling	-5486
▁quarters	-5487
▁subjects	-5488
▁warriors	-5489
▁traveller	-5490
▁admiration	-5491
▁mikhylovna	-5492
▁consciousness	-5493
got	-5494
enes	-5495
shas	-5496
▁spy	-5497
elaus	-5498
▁pole	-5499
▁sust	-5500
before	-5501
▁block	-5502
▁fifth	-5503
▁fires	-5504
▁ident	-5505
▁locked	-5506
▁mechan	-5507
▁nestor	-5508
▁parted	-5509
▁proble	-5510
▁bourien	-5511
▁chimney	-5512
▁efforts	-5513
▁radiant	-5514
▁showing	-5515
▁steward	-5516
▁contrast	-5517
▁pavement	-5518
▁distinctly	-5519
9.	-5520
pic	-5521
tic	-5522
uns	-5523
why	-5524
fall	-5525
irty	-5526
opes	-5527
ovel	-5528
▁unl	-5529
atory	-5530
uding	-5531
▁bade	-5532
▁narr	-5533
▁prud	-5534
▁unus	-5535
▁veil	-5536
ground	-5537
▁drops	-5538
▁heres	-5539
▁tells	-5540
fulness	-5541
▁empire	-5542
▁extent	-5543
▁lights	-5544
▁permit	-5545
▁rested	-5546
▁season	-5547
lessness	-5548
▁honours	-5549
▁kingdom	-5550
▁natures	-5551
▁portion	-5552
▁agitated	-5553
▁inferior	-5554
▁judgment	-5555
▁numerous	-5556
▁resolute	-5557
▁troubled	-5558
▁thoroughly	-5559
▁consequence	-5560
▁drawingroom	-5561
▁philosophers	-5562
eng	-5563
ids	-5564
lla	-5565
ski	-5566
spr	-5567
amem	-5568
ashv	-5569
line	-5570
past	-5571
▁apr	-5572
▁gor	-5573
ially	-5574
▁club	-5575
▁ends	-5576
▁knee	-5577
▁awoke	-5578
▁shake	-5579
▁incess	-5580
▁leader	-5581
▁partly	-5582
▁poured	-5583
▁element	-5584
▁addition	-5585
▁attacked	-5586
▁friendly	-5587
▁guardian	-5588
▁recalled	-5589
▁gratitude	-5590
▁conviction	-5591
▁throughout	-5592
▁sufficiently	-5593
ork	-5594
rup	-5595
▁da	-5596
▁ix	-5597
door	-5598
ints	-5599
poch	-5600
▁183	-5601
▁buy	-5602
▁etc	-5603
escri	-5604
ville	-5605
woman	-5606
▁aged	-5607
▁appr	-5608
▁flow	-5609
▁syst	-5610
▁tied	-5611
little	-5612
▁borne	-5613
▁diary	-5614
▁drown	-5615
▁inner	-5616
▁purse	-5617
▁steep	-5618
▁views	-5619
▁exists	-5620
▁prodig	-5621
▁riding	-5622
▁stroke	-5623
▁beating	-5624
▁deliber	-5625
▁destiny	-5626
▁devoted	-5627
▁divided	-5628
▁fancied	-5629
▁galloped	-5630
▁imagined	-5631
▁infantry	-5632
▁obtained	-5633
▁pictures	-5634
▁starting	-5635
▁christian	-5636
▁intellect	-5637
▁saintmran	-5638
▁thousands	-5639
▁providence	-5640
ipe	-5641
ymn	-5642
umes	-5643
▁odd	-5644
▁rav	-5645
still	-5646
think	-5647
uries	-5648
▁disd	-5649
▁rele	-5650
umbled	-5651
verted	-5652
▁brand	-5653
▁iliad	-5654
▁medic	-5655
▁serge	-5656
▁shows	-5657
▁urged	-5658
▁agamem	-5659
▁associ	-5660
▁breeze	-5661
▁defend	-5662
▁source	-5663
▁crowded	-5664
▁jealous	-5665
▁leather	-5666
▁pvlovna	-5667
▁sorrows	-5668
▁governor	-5669
▁sacrific	-5670
▁throwing	-5671
▁disturbed	-5672
▁intervals	-5673
▁suggested	-5674
▁introduced	-5675
ilb	-5676
urd	-5677
vet	-5678
▁hs	-5679
life	-5680
uten	-5681
▁hed	-5682
amped	-5683
enger	-5684
ernal	-5685
▁dick	-5686
▁heed	-5687
▁mock	-5688
▁pred	-5689
▁tore	-5690
▁ashes	-5691
▁peril	-5692
▁seize	-5693
▁sixty	-5694
▁thine	-5695
▁youve	-5696
▁armour	-5697
▁assemb	-5698
▁battal	-5699
▁column	-5700
▁deadly	-5701
▁temple	-5702
▁balashv	-5703
▁impress	-5704
▁knocked	-5705
▁staring	-5706
▁arrested	-5707
▁husbands	-5708
▁menelaus	-5709
▁overcome	-5710
▁leviathan	-5711
▁engagement	-5712
2.	-5713
boy	-5714
sec	-5715
▁15	-5716
apes	-5717
▁dip	-5718
▁han	-5719
▁sen	-5720
press	-5721
▁berg	-5722
▁bows	-5723
▁prow	-5724
▁sang	-5725
▁trif	-5726
▁vice	-5727
cribed	-5728
orable	-5729
▁ahead	-5730
▁boast	-5731
▁carts	-5732
▁chase	-5733
▁helen	-5734
▁lands	-5735
▁polic	-5736
▁swept	-5737
▁title	-5738
amation	-5739
▁endure	-5740
▁invest	-5741
▁loaded	-5742
▁penetr	-5743
▁plenty	-5744
standing	-5745
▁abandon	-5746
▁complet	-5747
▁protect	-5748
▁wouldnt	-5749
ification	-5750
▁abruptly	-5751
▁penelope	-5752
▁provided	-5753
▁solitary	-5754
▁sympathy	-5755
▁inquiries	-5756
▁pronounced	-5757
mor	-5758
omy	-5759
odin	-5760
oons	-5761
sthe	-5762
urre	-5763
▁chi	-5764
▁kar	-5765
▁owe	-5766
▁pel	-5767
aging	-5768
break	-5769
tyard	-5770
▁bapt	-5771
▁bond	-5772
▁corn	-5773
▁wars	-5774
ifying	-5775
▁cloth	-5776
▁fruit	-5777
▁roman	-5778
▁shrie	-5779
▁spend	-5780
▁trous	-5781
▁vault	-5782
▁apollo	-5783
▁energy	-5784
▁ruined	-5785
▁shades	-5786
▁undert	-5787
▁writer	-5788
▁anticip	-5789
▁dearest	-5790
▁invited	-5791
▁pursuit	-5792
▁whither	-5793
▁coursers	-5794
▁restored	-5795
▁agitation	-5796
▁terrified	-5797
▁permission	-5798
▁consideration	-5799
aon	-5800
bet	-5801
end	-5802
mas	-5803
met	-5804
oqu	-5805
ris	-5806
came	-5807
eyes	-5808
itty	-5809
otte	-5810
▁pip	-5811
never	-5812
▁base	-5813
▁clam	-5814
▁melt	-5815
▁pepp	-5816
▁trad	-5817
ilight	-5818
verend	-5819
▁baker	-5820
▁epoch	-5821
▁leads	-5822
▁plate	-5823
▁price	-5824
▁restr	-5825
▁sails	-5826
▁constr	-5827
▁dining	-5828
▁squire	-5829
▁theory	-5830
▁weapon	-5831
attering	-5832
fortunes	-5833
▁counter	-5834
▁funeral	-5835
▁quality	-5836
▁animated	-5837
▁compared	-5838
▁drinking	-5839
▁paradise	-5840
▁physical	-5841
▁probable	-5842
▁proposed	-5843
▁sentence	-5844
▁acknowled	-5845
▁carriages	-5846
▁invisible	-5847
▁seriously	-5848
▁slightest	-5849
▁unpleasant	-5850
▁py	-5851
frie	-5852
itor	-5853
omin	-5854
▁alt	-5855
▁fed	-5856
▁jaw	-5857
▁ske	-5858
cried	-5859
eling	-5860
oress	-5861
stial	-5862
▁cere	-5863
▁date	-5864
▁duke	-5865
▁encl	-5866
▁alike	-5867
▁craft	-5868
▁friar	-5869
▁gifts	-5870
▁honey	-5871
▁hotel	-5872
▁irres	-5873
▁outer	-5874
▁resem	-5875
▁spart	-5876
▁tight	-5877
▁valet	-5878
▁begged	-5879
▁masses	-5880
▁shakes	-5881
▁strain	-5882
▁victor	-5883
▁borodin	-5884
▁despite	-5885
▁natshas	-5886
▁sentine	-5887
▁sincere	-5888
▁slipped	-5889
▁supreme	-5890
▁delicate	-5891
▁disgrace	-5892
▁hitherto	-5893
▁bourienne	-5894
▁commanded	-5895
▁extremely	-5896
▁delightful	-5897
▁descending	-5898
▁interested	-5899
▁profession	-5900
▁misfortunes	-5901
▁accomplished	-5902
3.	-5903
7.	-5904
8.	-5905
ox	-5906
ads	-5907
bon	-5908
oft	-5909
ante	-5910
etto	-5911
ials	-5912
ishd	-5913
uals	-5914
uary	-5915
yard	-5916
▁bru	-5917
▁gam	-5918
▁hen	-5919
▁owl	-5920
▁row	-5921
▁san	-5922
▁vel	-5923
▁cock	-5924
▁fain	-5925
▁mich	-5926
▁ride	-5927
▁roar	-5928
▁sell	-5929
▁soil	-5930
▁text	-5931
▁unre	-5932
isting	-5933
▁disci	-5934
▁faria	-5935
▁pains	-5936
▁queer	-5937
▁recon	-5938
▁dishon	-5939
▁eldest	-5940
▁firmly	-5941
▁folded	-5942
▁handle	-5943
▁lament	-5944
▁prompt	-5945
▁relief	-5946
▁reward	-5947
▁sighed	-5948
▁telegr	-5949
▁anybody	-5950
▁applied	-5951
▁footstep	-5952
▁practice	-5953
▁courtyard	-5954
▁preserved	-5955
acc	-5956
ops	-5957
pol	-5958
foot	-5959
leus	-5960
whom	-5961
▁aby	-5962
abeuf	-5963
mbers	-5964
▁anti	-5965
▁clos	-5966
▁hath	-5967
▁lake	-5968
▁lane	-5969
▁tide	-5970
atched	-5971
▁amuse	-5972
▁balls	-5973
▁bands	-5974
▁marve	-5975
▁theat	-5976
▁vivid	-5977
oration	-5978
▁active	-5979
▁chines	-5980
▁contri	-5981
▁daring	-5982
▁highly	-5983
▁incomp	-5984
▁patron	-5985
▁repose	-5986
▁smooth	-5987
▁conquer	-5988
▁control	-5989
▁members	-5990
▁painted	-5991
▁redoubt	-5992
▁sublime	-5993
▁tremble	-5994
▁vessels	-5995
▁bestowed	-5996
▁corridor	-5997
▁definite	-5998
▁grateful	-5999
▁material	-6000
▁twilight	-6001
▁amazement	-6002
▁assembled	-6003
▁attracted	-6004
▁elsewhere	-6005
▁furnished	-6006
▁indicated	-6007
▁permitted	-6008
▁recovered	-6009
▁constantly	-6010
▁glittering	-6011
erl	-6012
jac	-6013
och	-6014
too	-6015
▁au	-6016
ethe	-6017
pooh	-6018
same	-6019
▁180	-6020
▁jim	-6021
▁pos	-6022
▁wip	-6023
atisf	-6024
aying	-6025
inger	-6026
rides	-6027
shire	-6028
ulars	-6029
▁hers	-6030
▁idle	-6031
▁july	-6032
▁milk	-6033
▁rays	-6034
▁soot	-6035
ocracy	-6036
▁cheek	-6037
▁dozen	-6038
▁dwell	-6039
▁image	-6040
▁labor	-6041
▁thras	-6042
▁xviii	-6043
inction	-6044
▁accent	-6045
▁barbar	-6046
▁commit	-6047
▁extrem	-6048
▁lovers	-6049
▁mabeuf	-6050
▁sombre	-6051
▁convuls	-6052
▁crushed	-6053
▁javelin	-6054
▁obvious	-6055
▁patient	-6056
▁readily	-6057
▁torment	-6058
▁virtues	-6059
▁visited	-6060
▁visitor	-6061
▁cosettes	-6062
▁faubourg	-6063
▁sensible	-6064
▁separate	-6065
▁sherlock	-6066
▁agamemnon	-6067
▁completed	-6068
▁dmtrievna	-6069
▁rostopchn	-6070
▁historical	-6071
▁indifferent	-6072
aks	-6073
inc	-6074
anim	-6075
cies	-6076
quar	-6077
ruct	-6078
▁fil	-6079
▁gig	-6080
▁libr	-6081
▁tend	-6082
seemed	-6083
▁chose	-6084
▁kinds	-6085
▁ninet	-6086
▁wasnt	-6087
▁series	-6088
▁unlike	-6089
▁cottage	-6090
▁letting	-6091
▁nearest	-6092
▁smolnsk	-6093
▁sounded	-6094
▁armchair	-6095
▁ascended	-6096
▁attended	-6097
▁independ	-6098
▁intimate	-6099
▁opinions	-6100
▁reaching	-6101
▁reverend	-6102
rehensible	-6103
▁celestial	-6104
▁consisted	-6105
▁disappear	-6106
▁scattered	-6107
▁shuddered	-6108
▁punishment	-6109
▁ridiculous	-6110
1.	-6111
put	-6112
okes	-6113
rant	-6114
▁egg	-6115
ashes	-6116
somet	-6117
uable	-6118
▁cult	-6119
▁rags	-6120
▁rail	-6121
▁sche	-6122
▁wils	-6123
00,000	-6124
▁ample	-6125
▁deeds	-6126
▁harsh	-6127
▁impro	-6128
▁naked	-6129
▁owing	-6130
▁scrut	-6131
▁shrug	-6132
▁steam	-6133
▁toils	-6134
natural	-6135
umbling	-6136
without	-6137
▁incred	-6138
▁inevit	-6139
▁prayed	-6140
▁senses	-6141
▁signed	-6142
▁steady	-6143
▁string	-6144
▁system	-6145
▁chinese	-6146
▁complex	-6147
▁madness	-6148
▁million	-6149
▁anywhere	-6150
▁describe	-6151
▁disorder	-6152
▁disposed	-6153
▁executed	-6154
▁prospect	-6155
▁summoned	-6156
▁discovery	-6157
▁encounter	-6158
▁household	-6159
▁hurriedly	-6160
phe	-6161
aper	-6162
edly	-6163
iate	-6164
ople	-6165
orse	-6166
▁cyl	-6167
▁ped	-6168
▁wif	-6169
ember	-6170
guard	-6171
stone	-6172
those	-6173
▁boss	-6174
▁brav	-6175
▁ecst	-6176
▁eyeb	-6177
▁fest	-6178
▁gore	-6179
▁pear	-6180
erlitz	-6181
ounted	-6182
uously	-6183
▁dimin	-6184
▁heaps	-6185
▁quant	-6186
▁spout	-6187
▁wives	-6188
achment	-6189
▁admire	-6190
▁anchor	-6191
▁basket	-6192
▁fairly	-6193
▁harker	-6194
▁losing	-6195
▁notary	-6196
▁sailed	-6197
▁shiver	-6198
▁united	-6199
▁unwill	-6200
▁volume	-6201
▁womans	-6202
▁yonder	-6203
▁atrides	-6204
▁audible	-6205
▁disturb	-6206
▁doctors	-6207
▁lightly	-6208
▁martial	-6209
▁respons	-6210
▁suspect	-6211
▁indescri	-6212
▁solitude	-6213
▁trousers	-6214
▁established	-6215
bur	-6216
hot	-6217
▁16	-6218
▁az	-6219
rane	-6220
uing	-6221
▁...	-6222
▁eum	-6223
▁hyp	-6224
▁nav	-6225
inent	-6226
uming	-6227
volio	-6228
▁baby	-6229
▁cave	-6230
▁doom	-6231
▁perf	-6232
▁tsao	-6233
ential	-6234
▁bened	-6235
▁error	-6236
▁fiery	-6237
▁incap	-6238
▁jonah	-6239
▁lodge	-6240
▁miser	-6241
▁attain	-6242
▁banker	-6243
▁hiding	-6244
▁marble	-6245
▁talent	-6246
▁breathe	-6247
▁concent	-6248
▁glimpse	-6249
▁results	-6250
▁captured	-6251
▁district	-6252
▁imperial	-6253
▁inspired	-6254
▁politics	-6255
▁favourite	-6256
▁performed	-6257
▁slaughter	-6258
▁thoughtful	-6259
▁individuals	-6260
▁observation	-6261
▁indifference	-6262
asc	-6263
vre	-6264
zzy	-6265
hern	-6266
vole	-6267
▁ray	-6268
▁tip	-6269
allen	-6270
itual	-6271
mercy	-6272
▁hind	-6273
▁kung	-6274
▁nept	-6275
▁toto	-6276
▁beasts	-6277
▁bestow	-6278
▁eleven	-6279
▁enable	-6280
▁habits	-6281
▁monstr	-6282
▁serene	-6283
▁settle	-6284
▁chiefly	-6285
▁inquire	-6286
▁odyssey	-6287
▁acquired	-6288
▁captains	-6289
▁conflict	-6290
▁destined	-6291
▁headlong	-6292
▁national	-6293
▁pressing	-6294
▁contented	-6295
▁celebrated	-6296
sc	-6297
avi	-6298
lor	-6299
pel	-6300
▁cu	-6301
grat	-6302
maid	-6303
reet	-6304
▁fem	-6305
ipped	-6306
sters	-6307
verty	-6308
zkhov	-6309
▁damp	-6310
▁dece	-6311
▁este	-6312
▁puzz	-6313
▁subm	-6314
▁summ	-6315
▁wash	-6316
curity	-6317
headed	-6318
looked	-6319
manuel	-6320
ructed	-6321
▁apply	-6322
▁brass	-6323
▁dirty	-6324
▁disag	-6325
▁flour	-6326
▁lizzy	-6327
▁mixed	-6328
▁trick	-6329
utenant	-6330
▁abroad	-6331
▁assume	-6332
▁cellar	-6333
▁dashed	-6334
▁disple	-6335
▁thresh	-6336
▁ceremon	-6337
▁cleared	-6338
▁disdain	-6339
▁lantern	-6340
▁library	-6341
▁parties	-6342
▁seconds	-6343
▁likewise	-6344
▁maintain	-6345
▁mournful	-6346
▁patience	-6347
▁situated	-6348
▁somebody	-6349
▁wherever	-6350
▁traversed	-6351
▁violently	-6352
▁englishman	-6353
▁magistrate	-6354
▁tenderness	-6355
▁civilization	-6356
oop	-6357
ober	-6358
olet	-6359
osal	-6360
sole	-6361
ulse	-6362
▁ade	-6363
forth	-6364
omach	-6365
ribly	-6366
white	-6367
▁brid	-6368
▁germ	-6369
▁grav	-6370
master	-6371
ograph	-6372
ptions	-6373
rences	-6374
▁colle	-6375
▁disgu	-6376
▁elbow	-6377
▁greet	-6378
▁inher	-6379
▁intim	-6380
▁jaile	-6381
▁risen	-6382
▁stret	-6383
▁track	-6384
▁wifes	-6385
▁bewild	-6386
▁brazen	-6387
▁detail	-6388
▁grapes	-6389
▁mercut	-6390
▁refuge	-6391
▁skelet	-6392
▁sprung	-6393
▁sunday	-6394
appeared	-6395
▁bending	-6396
▁couldnt	-6397
▁created	-6398
▁cutting	-6399
▁gregors	-6400
▁restore	-6401
▁unusual	-6402
▁farewell	-6403
▁insisted	-6404
▁learning	-6405
▁sentiment	-6406
▁reasonable	-6407
▁spectacles	-6408
▁sufferings	-6409
▁particulars	-6410
▁instructions	-6411
4.	-6412
sw	-6413
wa	-6414
aux	-6415
pan	-6416
chap	-6417
name	-6418
otes	-6419
▁oly	-6420
▁tun	-6421
cript	-6422
▁bind	-6423
▁dram	-6424
▁glow	-6425
▁obli	-6426
▁rout	-6427
itudes	-6428
otions	-6429
▁abstr	-6430
▁agent	-6431
▁flock	-6432
▁folly	-6433
another	-6434
▁amidst	-6435
▁brings	-6436
▁burden	-6437
▁calmly	-6438
▁coarse	-6439
▁crimes	-6440
▁haught	-6441
▁polite	-6442
▁amiable	-6443
▁battery	-6444
▁current	-6445
▁embrace	-6446
▁flushed	-6447
▁illness	-6448
▁pockets	-6449
▁poverty	-6450
▁spanish	-6451
▁valiant	-6452
▁creation	-6453
▁gardiner	-6454
▁landlord	-6455
▁sounding	-6456
▁strongly	-6457
▁ventured	-6458
▁collected	-6459
▁resembled	-6460
▁threshold	-6461
▁compassion	-6462
▁comfortable	-6463
▁intelligent	-6464
▁translation	-6465
add	-6466
ael	-6467
isk	-6468
itch	-6469
meil	-6470
▁bah	-6471
▁cru	-6472
▁pir	-6473
▁sam	-6474
befer	-6475
human	-6476
occup	-6477
seign	-6478
▁aint	-6479
▁blew	-6480
▁deny	-6481
▁dwar	-6482
▁lone	-6483
▁mens	-6484
▁prol	-6485
▁ratt	-6486
▁resc	-6487
▁silk	-6488
▁vest	-6489
pierre	-6490
▁abyss	-6491
▁clerk	-6492
▁daily	-6493
▁ingen	-6494
▁organ	-6495
▁phant	-6496
▁propr	-6497
▁whirl	-6498
ceiving	-6499
ciences	-6500
▁absurd	-6501
▁actual	-6502
▁danced	-6503
▁gretel	-6504
▁hussar	-6505
▁obeyed	-6506
▁passes	-6507
▁ponine	-6508
▁speaks	-6509
▁bezkhov	-6510
▁contain	-6511
▁defence	-6512
▁panting	-6513
▁recover	-6514
▁smoking	-6515
▁wanting	-6516
urrection	-6517
▁awaiting	-6518
▁devotion	-6519
▁gigantic	-6520
▁interior	-6521
▁persuade	-6522
▁realized	-6523
▁compelled	-6524
▁hesitated	-6525
▁impatient	-6526
▁messenger	-6527
▁monstrous	-6528
▁moonlight	-6529
▁strangely	-6530
▁commission	-6531
ady	-6532
asy	-6533
jud	-6534
lom	-6535
rin	-6536
yet	-6537
cles	-6538
dist	-6539
mber	-6540
plex	-6541
text	-6542
▁ine	-6543
▁jer	-6544
▁unm	-6545
eenth	-6546
going	-6547
iated	-6548
pinay	-6549
▁gets	-6550
▁gymn	-6551
▁kang	-6552
▁onto	-6553
▁runs	-6554
▁stag	-6555
ighted	-6556
necess	-6557
spring	-6558
▁appar	-6559
▁cares	-6560
▁charl	-6561
▁condu	-6562
▁couch	-6563
▁stuck	-6564
▁suite	-6565
▁surre	-6566
▁vampa	-6567
ymachus	-6568
▁harmon	-6569
▁market	-6570
▁reckon	-6571
▁specul	-6572
▁tables	-6573
ceptible	-6574
ountered	-6575
▁belongs	-6576
▁comrade	-6577
▁conject	-6578
▁cossack	-6579
▁dismiss	-6580
▁leaders	-6581
▁leagues	-6582
▁neptune	-6583
▁pulling	-6584
▁remorse	-6585
▁reverie	-6586
▁somehow	-6587
▁combefer	-6588
▁departed	-6589
▁evidence	-6590
▁families	-6591
▁passions	-6592
▁squadron	-6593
▁childhood	-6594
▁enthusias	-6595
▁establish	-6596
▁footsteps	-6597
▁fortunate	-6598
▁multitude	-6599
▁pontmercy	-6600
▁prevented	-6601
▁uncertain	-6602
▁austerlitz	-6603
▁encountered	-6604
▁ug	-6605
alog	-6606
▁ink	-6607
▁vac	-6608
awing	-6609
bourn	-6610
ilful	-6611
power	-6612
▁bath	-6613
▁doll	-6614
▁foes	-6615
▁olym	-6616
▁pile	-6617
▁pine	-6618
▁salt	-6619
▁slee	-6620
▁tact	-6621
▁whip	-6622
akened	-6623
aviour	-6624
having	-6625
idents	-6626
ranean	-6627
▁appet	-6628
▁boxes	-6629
▁crest	-6630
▁godal	-6631
▁grows	-6632
▁hears	-6633
▁marks	-6634
▁reass	-6635
▁slang	-6636
▁tales	-6637
▁venus	-6638
▁applic	-6639
▁beaten	-6640
▁bloody	-6641
▁darted	-6642
▁doesnt	-6643
▁freely	-6644
▁hoarse	-6645
▁lively	-6646
▁member	-6647
▁notion	-6648
▁perish	-6649
▁portra	-6650
▁record	-6651
▁smiles	-6652
▁wolves	-6653
▁godlike	-6654
▁journal	-6655
▁message	-6656
▁montpar	-6657
▁october	-6658
▁peppino	-6659
▁shelter	-6660
▁studied	-6661
▁benvolio	-6662
▁deprived	-6663
▁embraced	-6664
▁floating	-6665
▁mercutio	-6666
▁quantity	-6667
▁sergeant	-6668
▁preparing	-6669
▁sensation	-6670
▁suspicion	-6671
▁tolerably	-6672
▁travelling	-6673
▁represented	-6674
▁significance	-6675
ez	-6676
ho	-6677
rd	-6678
cks	-6679
edy	-6680
rah	-6681
gest	-6682
mean	-6683
poor	-6684
reci	-6685
▁ech	-6686
▁lur	-6687
▁sar	-6688
▁sul	-6689
▁vap	-6690
▁wax	-6691
aller	-6692
liest	-6693
▁hipp	-6694
▁mile	-6695
▁moby	-6696
▁puff	-6697
▁trag	-6698
▁warn	-6699
astrop	-6700
ensity	-6701
ington	-6702
▁kanga	-6703
▁ruler	-6704
eration	-6705
▁bodily	-6706
▁diplom	-6707
▁dpinay	-6708
▁lasted	-6709
▁nether	-6710
▁produc	-6711
▁repuls	-6712
▁tailor	-6713
seigneur	-6714
▁andrews	-6715
▁deliver	-6716
▁emerged	-6717
▁fatigue	-6718
▁feather	-6719
▁prolong	-6720
▁reports	-6721
▁resting	-6722
▁emmanuel	-6723
▁external	-6724
▁graceful	-6725
▁admirable	-6726
▁carpenter	-6727
▁catastrop	-6728
▁supposing	-6729
▁wondering	-6730
▁comparison	-6731
▁harpooneer	-6732
▁thrasymachus	-6733
rm	-6734
bol	-6735
cor	-6736
god	-6737
lay	-6738
▁25	-6739
▁xi	-6740
drew	-6741
ldom	-6742
post	-6743
▁cof	-6744
▁deb	-6745
▁lav	-6746
▁non	-6747
akers	-6748
rated	-6749
▁astr	-6750
▁bend	-6751
▁bone	-6752
▁cham	-6753
▁irre	-6754
▁poem	-6755
ension	-6756
iation	-6757
usions	-6758
▁joves	-6759
▁merit	-6760
▁peter	-6761
▁store	-6762
chamber	-6763
fermeil	-6764
▁chairs	-6765
▁decide	-6766
▁ladder	-6767
▁lately	-6768
▁seldom	-6769
▁virgin	-6770
▁awaited	-6771
▁candles	-6772
▁discipl	-6773
▁guessed	-6774
▁harness	-6775
▁martian	-6776
▁missing	-6777
▁replies	-6778
▁decision	-6779
▁medicine	-6780
▁murderer	-6781
▁treacher	-6782
▁substance	-6783
▁enthusiasm	-6784
▁villeforts	-6785
▁acknowledge	-6786
▁overwhelmed	-6787
ai	-6788
lld	-6789
boat	-6790
keys	-6791
onic	-6792
rase	-6793
rers	-6794
tell	-6795
▁ily	-6796
▁tyb	-6797
▁wre	-6798
child	-6799
iring	-6800
▁elev	-6801
▁hare	-6802
▁lawn	-6803
worthy	-6804
▁acted	-6805
▁blank	-6806
▁eleph	-6807
actions	-6808
chapter	-6809
ilities	-6810
ounding	-6811
plicity	-6812
▁adored	-6813
▁charms	-6814
▁musket	-6815
▁pillow	-6816
▁safely	-6817
▁summit	-6818
▁watson	-6819
▁curtain	-6820
▁perplex	-6821
▁sinking	-6822
▁species	-6823
▁assembly	-6824
▁breathed	-6825
▁changing	-6826
▁confined	-6827
▁contents	-6828
▁cossacks	-6829
▁preserve	-6830
▁revealed	-6831
▁anxiously	-6832
▁godalming	-6833
▁religious	-6834
▁breathless	-6835
▁combeferre	-6836
▁directions	-6837
▁hesitation	-6838
▁thnardiers	-6839
bow	-6840
cus	-6841
fee	-6842
isp	-6843
also	-6844
arth	-6845
open	-6846
▁apt	-6847
▁ded	-6848
▁les	-6849
▁pra	-6850
▁roo	-6851
0,000	-6852
icken	-6853
inter	-6854
nasse	-6855
▁olig	-6856
▁ruff	-6857
▁sobs	-6858
▁ugly	-6859
always	-6860
stones	-6861
turned	-6862
▁aloft	-6863
▁arrow	-6864
▁bloom	-6865
▁crept	-6866
▁depos	-6867
▁gover	-6868
▁ivory	-6869
▁limit	-6870
▁lucky	-6871
▁newsp	-6872
▁petit	-6873
▁pitch	-6874
▁rules	-6875
▁seats	-6876
▁serfs	-6877
▁swarm	-6878
through	-6879
▁ashore	-6880
▁autumn	-6881
▁closer	-6882
▁collar	-6883
▁horrid	-6884
▁humble	-6885
▁joyful	-6886
▁mirror	-6887
▁missed	-6888
▁motive	-6889
▁virgil	-6890
ulations	-6891
▁baptist	-6892
▁battles	-6893
▁constit	-6894
▁disease	-6895
▁emerald	-6896
▁grasped	-6897
▁harpoon	-6898
▁killing	-6899
▁sadness	-6900
▁springs	-6901
▁stomach	-6902
▁superst	-6903
▁swiftly	-6904
▁upright	-6905
▁wealthy	-6906
▁whoever	-6907
▁exchange	-6908
▁favorite	-6909
▁incident	-6910
▁marrying	-6911
▁offering	-6912
▁oligarch	-6913
▁restrain	-6914
▁transfer	-6915
▁examining	-6916
▁incapable	-6917
▁obscurity	-6918
▁procureur	-6919
▁repeating	-6920
▁tranquill	-6921
▁unwilling	-6922
▁reputation	-6923
▁illuminated	-6924
▁unexpectedly	-6925
ols	-6926
rom	-6927
sub	-6928
▁cs	-6929
▁tk	-6930
ands	-6931
emet	-6932
rons	-6933
supp	-6934
tons	-6935
▁cig	-6936
▁fow	-6937
▁gri	-6938
▁jac	-6939
▁nic	-6940
▁pub	-6941
▁tig	-6942
lance	-6943
olded	-6944
▁lawy	-6945
▁meal	-6946
▁mode	-6947
▁noon	-6948
▁trip	-6949
moment	-6950
▁accur	-6951
▁arist	-6952
▁banks	-6953
▁beach	-6954
▁cemet	-6955
▁giant	-6956
▁gleam	-6957
▁hated	-6958
▁ruins	-6959
▁scept	-6960
▁torch	-6961
▁unity	-6962
against	-6963
iveness	-6964
▁borrow	-6965
▁deeper	-6966
▁insist	-6967
▁inward	-6968
▁mathem	-6969
▁perpet	-6970
▁valley	-6971
▁wilson	-6972
▁balloon	-6973
▁bennigs	-6974
▁ceiling	-6975
▁degrees	-6976
▁earlier	-6977
▁endless	-6978
▁michael	-6979
▁criminal	-6980
▁exercise	-6981
▁gracious	-6982
▁increase	-6983
▁tranquil	-6984
▁youthful	-6985
▁accompany	-6986
▁community	-6987
▁longbourn	-6988
▁reasoning	-6989
▁suspended	-6990
▁proceeding	-6991
▁threatening	-6992
▁montparnasse	-6993
▁neighborhood	-6994
▁indescribable	-6995
adv	-6996
oni	-6997
rec	-6998
comm	-6999
done	-7000
many	-7001
rois	-7002
▁orn	-7003
apers	-7004
▁arab	-7005
▁bull	-7006
▁diff	-7007
▁gulf	-7008
▁lust	-7009
▁mond	-7010
▁shih	-7011
▁slip	-7012
angled	-7013
▁altar	-7014
▁apple	-7015
▁chari	-7016
▁exhib	-7017
▁pruss	-7018
▁exting	-7019
▁havent	-7020
▁quince	-7021
▁resign	-7022
▁supply	-7023
▁swords	-7024
▁thrice	-7025
interest	-7026
▁admired	-7027
▁charged	-7028
▁congrat	-7029
▁haughty	-7030
▁hunting	-7031
▁inquiry	-7032
▁intense	-7033
▁problem	-7034
▁seizing	-7035
necessary	-7036
▁announce	-7037
▁benevole	-7038
▁elements	-7039
▁intently	-7040
▁merchant	-7041
▁offended	-7042
▁replaced	-7043
▁sinister	-7044
▁answering	-7045
▁behaviour	-7046
▁recollect	-7047
▁retreated	-7048
▁characters	-7049
▁discussion	-7050
▁invitation	-7051
▁lieutenant	-7052
▁simplicity	-7053
▁contemplation	-7054
bys	-7055
hop	-7056
rov	-7057
▁19	-7058
olom	-7059
▁bee	-7060
▁cir	-7061
▁fab	-7062
▁stu	-7063
▁tsh	-7064
▁xiv	-7065
heads	-7066
thats	-7067
young	-7068
▁pool	-7069
▁spin	-7070
▁depth	-7071
▁fount	-7072
▁frost	-7073
▁goods	-7074
▁manly	-7075
▁skull	-7076
▁veins	-7077
welling	-7078
▁boldly	-7079
▁fitted	-7080
▁income	-7081
▁reject	-7082
▁theyre	-7083
aneously	-7084
▁adopted	-7085
▁barrier	-7086
▁barrois	-7087
▁discern	-7088
▁drunken	-7089
▁elegant	-7090
▁lowered	-7091
▁scrutin	-7092
▁slender	-7093
▁tempest	-7094
▁tremend	-7095
▁bleeding	-7096
▁disagree	-7097
▁mischief	-7098
▁piercing	-7099
▁pleasing	-7100
▁screamed	-7101
▁confident	-7102
▁fortnight	-7103
▁grantaire	-7104
▁narrative	-7105
▁disappoint	-7106
▁authorities	-7107
▁examination	-7108
▁monseigneur	-7109
azy	-7110
lon	-7111
uet	-7112
▁ku	-7113
felt	-7114
happ	-7115
reen	-7116
▁nes	-7117
▁sem	-7118
▁sne	-7119
▁xii	-7120
▁yon	-7121
isure	-7122
▁chem	-7123
▁foul	-7124
▁jest	-7125
▁park	-7126
▁rent	-7127
▁rude	-7128
▁woes	-7129
asions	-7130
▁mates	-7131
▁owner	-7132
▁prost	-7133
▁scrap	-7134
▁slope	-7135
▁snuff	-7136
▁thief	-7137
▁thund	-7138
▁tkhon	-7139
ulating	-7140
▁chains	-7141
▁lesson	-7142
▁scenes	-7143
▁seward	-7144
▁stolen	-7145
▁survey	-7146
▁tragic	-7147
▁waking	-7148
▁answers	-7149
▁complic	-7150
▁demands	-7151
▁hectors	-7152
▁improve	-7153
▁impulse	-7154
▁respond	-7155
▁sixteen	-7156
▁thanked	-7157
▁wrapped	-7158
▁bonapart	-7159
▁interrog	-7160
▁official	-7161
▁skeleton	-7162
▁swallowed	-7163
▁waistcoat	-7164
▁tremendous	-7165
▁uneasiness	-7166
▁yourselves	-7167
▁netherfield	-7168
▁introduction	-7169
fo	-7170
kh	-7171
kv	-7172
alk	-7173
amme	-7174
bell	-7175
give	-7176
ouch	-7177
▁axe	-7178
▁flu	-7179
▁jan	-7180
▁oak	-7181
▁xvi	-7182
ifted	-7183
urred	-7184
▁amph	-7185
▁boul	-7186
▁bulw	-7187
▁deaf	-7188
▁dine	-7189
▁enqu	-7190
▁fixd	-7191
▁foam	-7192
▁joke	-7193
▁peep	-7194
▁sque	-7195
▁type	-7196
▁woke	-7197
itious	-7198
liness	-7199
prince	-7200
▁brisk	-7201
▁cards	-7202
▁funny	-7203
▁indef	-7204
▁lucys	-7205
▁patri	-7206
▁screw	-7207
▁skirt	-7208
▁wines	-7209
because	-7210
▁ascend	-7211
▁doubts	-7212
▁facing	-7213
▁herald	-7214
▁jailer	-7215
▁mental	-7216
▁morris	-7217
▁region	-7218
▁relate	-7219
▁winged	-7220
▁costume	-7221
▁declare	-7222
▁draught	-7223
▁eumaeus	-7224
▁flaming	-7225
▁footman	-7226
▁glasses	-7227
▁gravely	-7228
▁marshal	-7229
▁marvell	-7230
▁refrain	-7231
▁variety	-7232
▁venture	-7233
▁william	-7234
▁bitterly	-7235
▁conquest	-7236
▁cylinder	-7237
▁emotions	-7238
▁investig	-7239
▁irresist	-7240
▁memories	-7241
▁stopping	-7242
▁conducted	-7243
▁democracy	-7244
▁extremity	-7245
▁immediate	-7246
▁suspected	-7247
▁apartments	-7248
▁comprehend	-7249
▁probability	-7250
▁constitution	-7251
▁difficulties	-7252
ada	-7253
bro	-7254
cat	-7255
dam	-7256
gir	-7257
tis	-7258
vts	-7259
asty	-7260
fire	-7261
gian	-7262
lest	-7263
mast	-7264
umps	-7265
▁bea	-7266
▁eag	-7267
▁err	-7268
▁map	-7269
anded	-7270
asked	-7271
nders	-7272
orney	-7273
shine	-7274
ubber	-7275
uting	-7276
▁beds	-7277
▁carn	-7278
▁flut	-7279
▁jord	-7280
▁ling	-7281
▁page	-7282
▁pink	-7283
▁prim	-7284
▁sage	-7285
▁thom	-7286
▁viii	-7287
olomys	-7288
people	-7289
▁abode	-7290
▁adieu	-7291
▁ahabs	-7292
▁color	-7293
▁hosts	-7294
▁kitty	-7295
▁scorn	-7296
▁scrat	-7297
▁tones	-7298
▁using	-7299
hearted	-7300
pointed	-7301
▁chapel	-7302
▁driver	-7303
▁elbows	-7304
▁graved	-7305
▁murmur	-7306
▁punish	-7307
▁traces	-7308
▁changes	-7309
▁harbour	-7310
▁kutzovs	-7311
▁labours	-7312
▁leisure	-7313
▁partner	-7314
▁arriving	-7315
▁cemetery	-7316
▁frequent	-7317
▁helpless	-7318
▁interval	-7319
▁reserved	-7320
▁youngest	-7321
▁ascertain	-7322
▁assurance	-7323
▁exchanged	-7324
▁innocence	-7325
▁obedience	-7326
▁reference	-7327
▁reflections	-7328
▁consequently	-7329
▁tranquillity	-7330
2,	-7331
bad	-7332
iol	-7333
mos	-7334
uts	-7335
azed	-7336
eled	-7337
▁ori	-7338
▁rou	-7339
glass	-7340
irmed	-7341
▁jaws	-7342
▁load	-7343
▁male	-7344
▁nigh	-7345
▁phar	-7346
▁proc	-7347
▁surm	-7348
friend	-7349
▁analy	-7350
▁guilt	-7351
▁jewel	-7352
▁scale	-7353
▁waved	-7354
vention	-7355
▁altern	-7356
▁cities	-7357
▁extend	-7358
▁rights	-7359
▁signor	-7360
▁velvet	-7361
▁vulgar	-7362
inations	-7363
▁closing	-7364
▁corners	-7365
▁display	-7366
▁examine	-7367
▁grieved	-7368
▁opposed	-7369
▁returns	-7370
▁washing	-7371
▁attained	-7372
▁domestic	-7373
▁halfpast	-7374
▁peaceful	-7375
▁purchase	-7376
▁relative	-7377
▁reported	-7378
▁sciences	-7379
▁whalemen	-7380
▁essential	-7381
▁reception	-7382
▁commanders	-7383
▁montfermeil	-7384
.1	-7385
wo	-7386
fig	-7387
ica	-7388
imp	-7389
mad	-7390
uil	-7391
fish	-7392
left	-7393
make	-7394
▁182	-7395
▁dew	-7396
▁lip	-7397
▁sex	-7398
▁unp	-7399
erate	-7400
water	-7401
▁bust	-7402
▁heir	-7403
▁bayon	-7404
▁belly	-7405
▁check	-7406
▁decor	-7407
▁dried	-7408
▁eloqu	-7409
▁fiend	-7410
▁goats	-7411
▁heels	-7412
▁hovel	-7413
▁indic	-7414
▁intox	-7415
▁older	-7416
▁scrup	-7417
▁simon	-7418
ruption	-7419
▁career	-7420
▁female	-7421
▁hurrah	-7422
▁indian	-7423
▁laying	-7424
▁orient	-7425
▁profit	-7426
▁recent	-7427
▁shared	-7428
▁subtle	-7429
▁sunset	-7430
▁towers	-7431
▁tybalt	-7432
▁vanity	-7433
quarters	-7434
▁bossuet	-7435
▁capture	-7436
▁darling	-7437
▁dispers	-7438
▁elapsed	-7439
▁forming	-7440
▁gallant	-7441
▁happily	-7442
▁pistols	-7443
▁privile	-7444
▁quincey	-7445
something	-7446
▁benefact	-7447
▁cloister	-7448
▁dwelling	-7449
▁frowning	-7450
▁hospital	-7451
▁noticing	-7452
▁passages	-7453
▁secondly	-7454
▁startled	-7455
▁valuable	-7456
▁certainty	-7457
▁happening	-7458
▁practical	-7459
▁statement	-7460
▁advantages	-7461
▁attributed	-7462
▁discipline	-7463
▁exclamation	-7464
▁incessantly	-7465
▁insurrection	-7466
▁characteristic	-7467
5,	-7468
ari	-7469
elf	-7470
hom	-7471
igi	-7472
oir	-7473
arts	-7474
hole	-7475
othe	-7476
phew	-7477
prop	-7478
▁hem	-7479
▁ult	-7480
▁unw	-7481
armes	-7482
ieves	-7483
iller	-7484
imant	-7485
ships	-7486
▁bark	-7487
▁bowl	-7488
▁clut	-7489
▁echo	-7490
▁jump	-7491
▁mask	-7492
▁wool	-7493
atical	-7494
olated	-7495
ources	-7496
ouring	-7497
return	-7498
▁achae	-7499
▁brows	-7500
▁demon	-7501
▁etern	-7502
▁fates	-7503
▁holds	-7504
▁milit	-7505
▁procl	-7506
▁sends	-7507
▁sixth	-7508
▁spies	-7509
▁trade	-7510
▁trump	-7511
▁trunk	-7512
entered	-7513
general	-7514
henomen	-7515
regular	-7516
▁amazed	-7517
▁appeal	-7518
▁artist	-7519
▁crownd	-7520
▁geomet	-7521
▁heroic	-7522
▁hunter	-7523
▁mouths	-7524
▁nephew	-7525
▁nesvts	-7526
▁pallas	-7527
▁raging	-7528
▁review	-7529
▁spears	-7530
▁tossed	-7531
▁accused	-7532
▁aroused	-7533
▁counted	-7534
▁energet	-7535
▁exposed	-7536
▁prosper	-7537
▁sharply	-7538
▁smaller	-7539
▁temples	-7540
▁timidly	-7541
▁upwards	-7542
▁warning	-7543
▁whereon	-7544
▁accounts	-7545
▁austrian	-7546
▁commence	-7547
▁daybreak	-7548
▁feverish	-7549
▁gravedig	-7550
▁hurrying	-7551
▁perished	-7552
▁rapidity	-7553
▁solemnly	-7554
▁swimming	-7555
▁belonging	-7556
▁persuaded	-7557
▁transport	-7558
▁downstairs	-7559
▁marvellous	-7560
▁precaution	-7561
▁attentively	-7562
▁distinction	-7563
▁exceedingly	-7564
gs	-7565
ban	-7566
dev	-7567
ula	-7568
conf	-7569
gypt	-7570
inde	-7571
oard	-7572
phon	-7573
resa	-7574
▁esc	-7575
▁haz	-7576
▁pac	-7577
▁pup	-7578
▁wag	-7579
cians	-7580
faced	-7581
othed	-7582
saint	-7583
throw	-7584
▁bars	-7585
▁dies	-7586
▁dish	-7587
▁drug	-7588
▁hush	-7589
▁push	-7590
▁sung	-7591
▁tops	-7592
acians	-7593
alling	-7594
asured	-7595
istocr	-7596
passed	-7597
racted	-7598
things	-7599
ydides	-7600
▁china	-7601
▁chuan	-7602
▁crush	-7603
▁dense	-7604
▁dilig	-7605
▁dwarf	-7606
▁incon	-7607
▁infam	-7608
▁marsh	-7609
▁roads	-7610
▁satur	-7611
▁spern	-7612
▁tread	-7613
▁union	-7614
▁upset	-7615
imantus	-7616
mblance	-7617
▁maiden	-7618
▁paying	-7619
▁ponder	-7620
▁prejud	-7621
▁roused	-7622
▁simult	-7623
▁sleepy	-7624
▁washed	-7625
▁blushed	-7626
▁chances	-7627
▁compare	-7628
▁develop	-7629
▁howling	-7630
▁injured	-7631
▁prefect	-7632
▁pretend	-7633
▁pushing	-7634
▁rightly	-7635
▁sailing	-7636
▁suggest	-7637
▁combined	-7638
▁conceive	-7639
▁gardener	-7640
▁portrait	-7641
▁relieved	-7642
▁shepherd	-7643
▁wondrous	-7644
▁bennigsen	-7645
▁falsehood	-7646
▁adventures	-7647
▁protection	-7648
▁affectionate	-7649
▁unconsciously	-7650
,1	-7651
bb	-7652
cys	-7653
iac	-7654
umm	-7655
bors	-7656
find	-7657
herd	-7658
idel	-7659
olve	-7660
orus	-7661
usal	-7662
▁ath	-7663
▁lac	-7664
▁tid	-7665
▁vra	-7666
alect	-7667
unted	-7668
▁brut	-7669
▁cann	-7670
▁crou	-7671
▁goss	-7672
▁grin	-7673
▁hull	-7674
▁lads	-7675
▁oxen	-7676
▁rows	-7677
▁spar	-7678
▁upro	-7679
▁yawn	-7680
called	-7681
coming	-7682
▁darts	-7683
▁impet	-7684
▁luigi	-7685
▁magic	-7686
▁sympt	-7687
▁uncon	-7688
ordered	-7689
▁aboard	-7690
▁beggar	-7691
▁button	-7692
▁denied	-7693
▁issued	-7694
▁judges	-7695
▁leaped	-7696
▁classes	-7697
▁discour	-7698
▁gallery	-7699
▁hawkins	-7700
▁marquis	-7701
▁partial	-7702
▁placing	-7703
▁thicket	-7704
▁twisted	-7705
▁undoubt	-7706
▁vaguely	-7707
▁vehicle	-7708
▁foremost	-7709
▁lawrence	-7710
▁mourning	-7711
▁phenomen	-7712
▁services	-7713
▁delivered	-7714
▁earnestly	-7715
▁gendarmes	-7716
▁interpret	-7717
▁interview	-7718
▁physician	-7719
▁intentions	-7720
▁acknowledged	-7721
bac	-7722
bey	-7723
saw	-7724
sir	-7725
▁ae	-7726
aped	-7727
atev	-7728
gone	-7729
gust	-7730
rise	-7731
told	-7732
uits	-7733
▁cul	-7734
▁dus	-7735
▁lap	-7736
▁lun	-7737
icism	-7738
iners	-7739
loire	-7740
nings	-7741
▁bild	-7742
▁dial	-7743
▁gild	-7744
▁hamm	-7745
▁hint	-7746
▁neas	-7747
▁papa	-7748
▁plot	-7749
▁pope	-7750
▁slew	-7751
▁spec	-7752
▁subs	-7753
▁succ	-7754
▁vile	-7755
▁wink	-7756
igning	-7757
teenth	-7758
▁aided	-7759
▁burnt	-7760
▁delir	-7761
▁elect	-7762
▁goose	-7763
▁keeps	-7764
▁livid	-7765
▁prose	-7766
▁swung	-7767
▁defeat	-7768
▁eighty	-7769
▁helmet	-7770
▁insurg	-7771
▁mutual	-7772
▁phrase	-7773
▁remote	-7774
▁riches	-7775
▁scheme	-7776
▁slaves	-7777
▁submit	-7778
▁warmth	-7779
▁appreci	-7780
▁dungeon	-7781
▁effects	-7782
▁enjoyed	-7783
▁exagger	-7784
▁extract	-7785
▁gatsbys	-7786
▁glances	-7787
▁grating	-7788
▁secrets	-7789
▁selfish	-7790
▁sending	-7791
▁sternly	-7792
▁terrors	-7793
▁torture	-7794
▁writers	-7795
▁audience	-7796
▁awakened	-7797
▁murdered	-7798
▁properly	-7799
▁sunshine	-7800
▁supplied	-7801
▁tholomys	-7802
▁uttering	-7803
▁centuries	-7804
▁displayed	-7805
▁gathering	-7806
▁imitation	-7807
▁offspring	-7808
▁quivering	-7809
▁spectacle	-7810
▁perfection	-7811
▁struggling	-7812
▁expectation	-7813
▁disagreeable	-7814
▁perspiration	-7815
▁respectfully	-7816
▁communication	-7817
7,	-7818
sl	-7819
abs	-7820
hip	-7821
jon	-7822
nel	-7823
nor	-7824
omb	-7825
inth	-7826
live	-7827
word	-7828
▁bri	-7829
jeans	-7830
olate	-7831
pends	-7832
▁asks	-7833
▁bees	-7834
▁caut	-7835
▁csar	-7836
▁empt	-7837
▁fits	-7838
▁gale	-7839
▁imit	-7840
▁phae	-7841
▁serp	-7842
▁stif	-7843
▁tort	-7844
▁vien	-7845
course	-7846
icular	-7847
ulties	-7848
vering	-7849
▁admin	-7850
▁atmos	-7851
▁drift	-7852
▁folds	-7853
▁henry	-7854
▁oppon	-7855
▁pilot	-7856
▁revel	-7857
▁veget	-7858
▁bowing	-7859
▁cavern	-7860
▁defect	-7861
▁impert	-7862
▁landed	-7863
▁lonely	-7864
▁mantle	-7865
▁metaph	-7866
▁planks	-7867
▁rarely	-7868
▁subter	-7869
▁teresa	-7870
▁unseen	-7871
▁amusing	-7872
▁artific	-7873
▁attacks	-7874
▁augment	-7875
▁benefit	-7876
▁citizen	-7877
▁commiss	-7878
▁consist	-7879
▁deserve	-7880
▁dialect	-7881
▁karatev	-7882
▁policem	-7883
▁ringing	-7884
▁whistle	-7885
▁complain	-7886
▁recently	-7887
▁reminded	-7888
▁apprehens	-7889
▁benedetto	-7890
▁gymnastic	-7891
▁treasures	-7892
▁accomplish	-7893
▁foundation	-7894
▁generation	-7895
▁wellington	-7896
▁consolation	-7897
▁entertained	-7898
aul	-7899
isl	-7900
lix	-7901
cial	-7902
gain	-7903
iday	-7904
lles	-7905
oval	-7906
umns	-7907
▁dol	-7908
▁dyn	-7909
▁jet	-7910
▁lee	-7911
▁rhy	-7912
▁rud	-7913
death	-7914
iving	-7915
ocrat	-7916
stood	-7917
words	-7918
▁bast	-7919
▁cape	-7920
▁copy	-7921
▁dete	-7922
▁dict	-7923
▁scor	-7924
resses	-7925
twenty	-7926
▁alter	-7927
▁avail	-7928
▁coron	-7929
▁ilion	-7930
▁mould	-7931
▁paced	-7932
▁physi	-7933
▁range	-7934
▁rolls	-7935
▁score	-7936
▁towns	-7937
▁widow	-7938
▁acting	-7939
▁angels	-7940
▁arrows	-7941
▁bushes	-7942
▁cattle	-7943
▁cursed	-7944
▁indust	-7945
▁insign	-7946
▁jacket	-7947
▁meadow	-7948
▁occupy	-7949
▁saddle	-7950
▁transp	-7951
▁worlds	-7952
▁aristot	-7953
▁clasped	-7954
▁columns	-7955
▁dispute	-7956
▁faculty	-7957
▁furnish	-7958
▁gardens	-7959
▁gravity	-7960
▁pharaon	-7961
▁prophet	-7962
▁realize	-7963
▁seventh	-7964
▁shortly	-7965
▁staying	-7966
▁betrayed	-7967
▁counsels	-7968
▁eyebrows	-7969
▁hundreds	-7970
▁huntsman	-7971
▁magloire	-7972
▁majestic	-7973
▁nesvtski	-7974
▁suitable	-7975
▁uncommon	-7976
▁valjeans	-7977
▁wandered	-7978
▁arguments	-7979
▁attempted	-7980
▁observing	-7981
▁preferred	-7982
▁respected	-7983
▁searching	-7984
▁travelled	-7985
▁willingly	-7986
▁adeimantus	-7987
▁bewildered	-7988
▁compliment	-7989
▁describing	-7990
▁instrument	-7991
▁opposition	-7992
▁passionate	-7993
▁catastrophe	-7994
▁arrangements	-7995
▁dispositions	-7996
▁neighbourhood	-7997
far	-7998
ims	-7999
ubs	-8000
▁21	-8001
anny	-8002
bear	-8003
hour	-8004
inks	-8005
oked	-8006
outs	-8007
▁awe	-8008
▁dug	-8009
▁lik	-8010
▁shy	-8011
▁tap	-8012
avery	-8013
stead	-8014
▁bulk	-8015
▁bund	-8016
▁conj	-8017
▁cruc	-8018
▁dorm	-8019
▁juno	-8020
▁kurg	-8021
▁lung	-8022
▁matt	-8023
▁rein	-8024
▁soph	-8025
▁spid	-8026
▁tash	-8027
▁trop	-8028
▁turk	-8029
ocious	-8030
▁await	-8031
▁azure	-8032
▁cliff	-8033
▁egypt	-8034
▁embro	-8035
▁exter	-8036
▁grain	-8037
▁lucas	-8038
▁panic	-8039
▁phbus	-8040
▁salon	-8041
▁scent	-8042
▁smart	-8043
▁swine	-8044
atively	-8045
ouncing	-8046
quisite	-8047
▁advise	-8048
▁bounds	-8049
▁butter	-8050
▁childs	-8051
▁coldly	-8052
▁dialog	-8053
▁divide	-8054
▁groups	-8055
▁knight	-8056
▁remove	-8057
▁rubles	-8058
▁snatch	-8059
▁sphere	-8060
▁tempor	-8061
▁waving	-8062
umerable	-8063
▁climbed	-8064
▁derived	-8065
▁doorway	-8066
▁mortals	-8067
▁villain	-8068
▁weapons	-8069
▁backward	-8070
▁fourteen	-8071
▁lowering	-8072
▁parisian	-8073
▁preoccup	-8074
▁prioress	-8075
▁punished	-8076
▁sentinel	-8077
▁withdrew	-8078
▁customary	-8079
▁faculties	-8080
▁introduce	-8081
▁occasions	-8082
▁senseless	-8083
▁containing	-8084
▁convention	-8085
▁henceforth	-8086
▁occupation	-8087
▁resistance	-8088
▁respectful	-8089
▁triumphant	-8090
▁accordingly	-8091
▁intellectual	-8092
▁establishment	-8093
03	-8094
cut	-8095
eer	-8096
hat	-8097
rim	-8098
six	-8099
van	-8100
▁"1	-8101
hear	-8102
near	-8103
▁cam	-8104
▁enr	-8105
▁gal	-8106
▁jes	-8107
▁nob	-8108
▁tar	-8109
force	-8110
isive	-8111
lying	-8112
ooked	-8113
ushes	-8114
whale	-8115
whole	-8116
▁boot	-8117
▁horn	-8118
▁outl	-8119
▁prel	-8120
▁subd	-8121
▁tiny	-8122
▁xiii	-8123
castle	-8124
ptuous	-8125
▁hadnt	-8126
▁luxem	-8127
▁mason	-8128
▁nostr	-8129
▁reins	-8130
▁slipp	-8131
▁unite	-8132
▁vexed	-8133
natured	-8134
▁bathed	-8135
▁copper	-8136
▁cultiv	-8137
▁humili	-8138
▁jordan	-8139
▁plumet	-8140
▁pounds	-8141
▁precip	-8142
▁scound	-8143
▁shores	-8144
▁theirs	-8145
▁trench	-8146
▁verses	-8147
▁vulcan	-8148
▁watery	-8149
jections	-8150
▁appoint	-8151
▁bullets	-8152
▁landing	-8153
▁pretext	-8154
▁shields	-8155
▁theatre	-8156
▁thereby	-8157
▁alcinous	-8158
▁contains	-8159
▁conveyed	-8160
▁descends	-8161
▁desirous	-8162
▁educated	-8163
▁joyfully	-8164
▁assuredly	-8165
▁ferocious	-8166
▁grapeshot	-8167
▁supported	-8168
▁venerable	-8169
▁wandering	-8170
▁forgetting	-8171
▁increasing	-8172
▁luxembourg	-8173
▁threatened	-8174
▁complicated	-8175
▁fortunately	-8176
▁harpooneers	-8177
▁undoubtedly	-8178
ano	-8179
awl	-8180
gon	-8181
inv	-8182
wed	-8183
▁gn	-8184
bler	-8185
born	-8186
both	-8187
dear	-8188
ieth	-8189
lini	-8190
prin	-8191
sels	-8192
▁cau	-8193
▁doc	-8194
▁ecc	-8195
▁gry	-8196
▁jup	-8197
▁mun	-8198
▁pyl	-8199
▁tut	-8200
▁wiz	-8201
arden	-8202
ersby	-8203
isons	-8204
▁acts	-8205
▁adjo	-8206
▁bisc	-8207
▁dame	-8208
▁dess	-8209
▁econ	-8210
▁feed	-8211
▁goal	-8212
▁knot	-8213
▁liqu	-8214
▁nove	-8215
▁nuns	-8216
▁puts	-8217
▁repr	-8218
▁sout	-8219
▁tsar	-8220
french	-8221
▁barri	-8222
▁dined	-8223
▁faire	-8224
▁issue	-8225
▁nails	-8226
▁newly	-8227
▁songs	-8228
▁surve	-8229
▁vanqu	-8230
replied	-8231
▁carpet	-8232
▁cheese	-8233
▁divers	-8234
▁hammer	-8235
▁immort	-8236
▁infall	-8237
▁league	-8238
▁oppose	-8239
▁provin	-8240
▁saving	-8241
▁select	-8242
▁shower	-8243
▁termed	-8244
▁volunt	-8245
▁altered	-8246
▁chanced	-8247
▁dislike	-8248
▁dreamed	-8249
▁enthusi	-8250
▁fancies	-8251
▁fishery	-8252
▁flashed	-8253
▁grounds	-8254
▁lifting	-8255
▁machine	-8256
▁neglect	-8257
▁propose	-8258
▁reverse	-8259
▁slumber	-8260
▁thirsty	-8261
▁tydides	-8262
▁achaeans	-8263
▁american	-8264
▁assassin	-8265
▁chariots	-8266
▁highness	-8267
▁manifest	-8268
▁retorted	-8269
▁saturday	-8270
▁enveloped	-8271
▁exquisite	-8272
▁philosoph	-8273
▁stationed	-8274
▁unnatural	-8275
▁politeness	-8276
▁retreating	-8277
▁successful	-8278
▁temperance	-8279
▁application	-8280
▁illustrious	-8281
▁innumerable	-8282
▁unnecessary	-8283
▁wretchedness	-8284
beh	-8285
fle	-8286
ird	-8287
mod	-8288
rol	-8289
cien	-8290
ignd	-8291
love	-8292
shot	-8293
ulch	-8294
wart	-8295
▁fog	-8296
▁fug	-8297
▁rat	-8298
▁sed	-8299
chers	-8300
itors	-8301
large	-8302
opped	-8303
oving	-8304
pires	-8305
▁bilb	-8306
▁buzz	-8307
▁coup	-8308
▁dost	-8309
▁doth	-8310
▁duck	-8311
▁exit	-8312
▁fist	-8313
▁genu	-8314
▁impe	-8315
▁neat	-8316
▁sack	-8317
▁sket	-8318
▁terr	-8319
athieu	-8320
matter	-8321
spread	-8322
▁alley	-8323
▁anter	-8324
▁backs	-8325
▁chill	-8326
▁cudge	-8327
▁eagle	-8328
▁local	-8329
▁moist	-8330
▁opera	-8331
▁penet	-8332
▁priam	-8333
▁roofs	-8334
▁shine	-8335
▁silly	-8336
▁theft	-8337
▁tshin	-8338
▁vicom	-8339
ammered	-8340
▁affirm	-8341
▁avenue	-8342
▁awaken	-8343
▁bullet	-8344
▁deemed	-8345
▁devils	-8346
▁enters	-8347
▁esteem	-8348
▁groans	-8349
▁hasten	-8350
▁intend	-8351
▁joyous	-8352
▁legisl	-8353
▁philip	-8354
▁resent	-8355
▁seamen	-8356
▁traged	-8357
▁turtle	-8358
atisfied	-8359
▁bandits	-8360
▁charity	-8361
▁circles	-8362
▁deceive	-8363
▁doubted	-8364
▁enlight	-8365
▁fearing	-8366
▁forests	-8367
▁gryphon	-8368
▁harkers	-8369
▁olympus	-8370
▁skilful	-8371
▁yielded	-8372
▁ambition	-8373
▁antinous	-8374
▁converse	-8375
▁delicacy	-8376
▁doubtful	-8377
▁dreaming	-8378
▁drooping	-8379
▁measures	-8380
▁released	-8381
▁standard	-8382
▁viscount	-8383
▁battalion	-8384
▁betrothed	-8385
▁charlotte	-8386
▁decidedly	-8387
▁horseback	-8388
▁passersby	-8389
▁uncomfort	-8390
▁apparition	-8391
▁expressing	-8392
▁maintained	-8393
▁pocketbook	-8394
▁provisions	-8395
▁questioned	-8396
▁respecting	-8397
▁sentiments	-8398
▁surprising	-8399
▁suspicious	-8400
▁battlefield	-8401
▁impatiently	-8402
▁unfortunately	-8403
lie	-8404
obs	-8405
▁dw	-8406
bons	-8407
fell	-8408
hall	-8409
otto	-8410
riel	-8411
yton	-8412
▁cha	-8413
▁cli	-8414
▁exe	-8415
▁job	-8416
▁ras	-8417
▁xxx	-8418
bacco	-8419
ensed	-8420
irect	-8421
mates	-8422
phere	-8423
quiet	-8424
taken	-8425
trees	-8426
urity	-8427
vaire	-8428
▁capr	-8429
▁cats	-8430
▁duel	-8431
▁jury	-8432
▁scul	-8433
▁symb	-8434
▁trib	-8435
atives	-8436
brance	-8437
ifully	-8438
indeed	-8439
proach	-8440
ribute	-8441
uesday	-8442
▁abund	-8443
▁blade	-8444
▁brist	-8445
▁climb	-8446
▁debts	-8447
▁discl	-8448
▁dutch	-8449
▁fence	-8450
▁fools	-8451
▁groom	-8452
▁laert	-8453
▁lions	-8454
▁locks	-8455
▁raven	-8456
▁redou	-8457
▁rises	-8458
▁scand	-8459
▁solic	-8460
▁walks	-8461
▁weigh	-8462
▁basque	-8463
▁bildad	-8464
▁coffee	-8465
▁edward	-8466
▁flowed	-8467
▁hoping	-8468
▁images	-8469
▁longed	-8470
▁louder	-8471
▁newcom	-8472
▁plains	-8473
▁revolt	-8474
▁sharks	-8475
▁sheets	-8476
▁smalle	-8477
▁vienna	-8478
▁carries	-8479
▁dazzled	-8480
▁endured	-8481
▁extingu	-8482
▁largest	-8483
▁lessons	-8484
▁oppress	-8485
▁priests	-8486
▁reduced	-8487
▁serving	-8488
▁afforded	-8489
▁appetite	-8490
▁attempts	-8491
▁bulwarks	-8492
▁covering	-8493
▁dragging	-8494
▁grandeur	-8495
▁referred	-8496
▁sunlight	-8497
▁withdraw	-8498
▁encourage	-8499
▁literally	-8500
▁objection	-8501
▁pretended	-8502
▁purchased	-8503
▁regiments	-8504
▁impatience	-8505
▁insignific	-8506
▁literature	-8507
▁phaeacians	-8508
▁transferred	-8509
3,	-8510
zh	-8511
gue	-8512
ogs	-8513
pen	-8514
vas	-8515
cest	-8516
ilet	-8517
▁lif	-8518
▁yan	-8519
black	-8520
ilion	-8521
inals	-8522
ooped	-8523
othes	-8524
▁borz	-8525
▁chan	-8526
▁clad	-8527
▁muse	-8528
▁mute	-8529
▁myst	-8530
▁nail	-8531
▁nois	-8532
▁nort	-8533
▁tart	-8534
▁verd	-8535
▁winn	-8536
▁york	-8537
affold	-8538
estern	-8539
herent	-8540
natsha	-8541
others	-8542
ssaint	-8543
▁abhor	-8544
▁atten	-8545
▁blaze	-8546
▁clung	-8547
▁defin	-8548
▁dusty	-8549
▁globe	-8550
▁ivnov	-8551
▁ornam	-8552
▁roses	-8553
▁schol	-8554
▁seeks	-8555
▁spell	-8556
▁stove	-8557
▁thumb	-8558
itively	-8559
ressing	-8560
▁advers	-8561
▁amused	-8562
▁bucket	-8563
▁busoni	-8564
▁center	-8565
▁champs	-8566
▁coloss	-8567
▁dismay	-8568
▁easter	-8569
▁faster	-8570
▁hounds	-8571
▁intent	-8572
▁lawyer	-8573
▁morrow	-8574
▁multip	-8575
▁nerves	-8576
▁pember	-8577
▁reluct	-8578
▁repent	-8579
▁robbed	-8580
▁stable	-8581
▁stated	-8582
▁strife	-8583
▁tasted	-8584
▁uproar	-8585
▁woking	-8586
▁banquet	-8587
▁condemn	-8588
▁essence	-8589
▁glowing	-8590
▁jupiter	-8591
▁marched	-8592
▁orderly	-8593
▁pastrin	-8594
▁phantom	-8595
▁protest	-8596
▁recomme	-8597
▁regards	-8598
▁satisfy	-8599
▁secured	-8600
▁seeming	-8601
▁sepulch	-8602
▁victims	-8603
▁aristocr	-8604
▁bingleys	-8605
▁bursting	-8606
▁dropping	-8607
▁included	-8608
▁petitpic	-8609
▁vicinity	-8610
▁converted	-8611
▁forbidden	-8612
▁hereafter	-8613
▁irregular	-8614
▁pemberley	-8615
▁possesses	-8616
▁tormented	-8617
▁tradition	-8618
▁atmosphere	-8619
▁discharged	-8620
▁perceiving	-8621
▁procession	-8622
▁gravedigger	-8623
▁preparation	-8624
▁respectable	-8625
▁instinctively	-8626
▁simultaneously	-8627
ga	-8628
la	-8629
ta	-8630
zy	-8631
▁24	-8632
cier	-8633
clay	-8634
half	-8635
ifix	-8636
iola	-8637
mont	-8638
soon	-8639
▁cob	-8640
▁viv	-8641
▁wil	-8642
asper	-8643
bound	-8644
cipit	-8645
lyses	-8646
notes	-8647
table	-8648
ucked	-8649
works	-8650
▁alle	-8651
▁ante	-8652
▁aute	-8653
▁beam	-8654
▁belt	-8655
▁bron	-8656
▁dron	-8657
▁fasc	-8658
▁hing	-8659
▁owed	-8660
▁suck	-8661
▁swam	-8662
chance	-8663
illing	-8664
lifted	-8665
▁accus	-8666
▁annoy	-8667
▁bells	-8668
▁dimly	-8669
▁ladys	-8670
▁punct	-8671
▁strip	-8672
▁tenth	-8673
▁thigh	-8674
▁wiped	-8675
paniola	-8676
▁adding	-8677
▁condes	-8678
▁deaths	-8679
▁gladly	-8680
▁hatter	-8681
▁inches	-8682
▁induce	-8683
▁pallor	-8684
▁statue	-8685
▁tashte	-8686
▁welcom	-8687
▁auteuil	-8688
▁begging	-8689
▁bravest	-8690
▁dangers	-8691
▁densovs	-8692
▁descent	-8693
▁ecstasy	-8694
▁handful	-8695
▁inspire	-8696
▁islands	-8697
▁meryton	-8698
▁paralle	-8699
▁persist	-8700
▁planted	-8701
▁readers	-8702
▁reigned	-8703
▁stamped	-8704
▁stirred	-8705
▁thieves	-8706
▁tobacco	-8707
▁trained	-8708
▁alarming	-8709
▁alliance	-8710
▁calmness	-8711
▁crucifix	-8712
▁elephant	-8713
▁frontier	-8714
▁groaning	-8715
▁inconven	-8716
▁invented	-8717
▁respects	-8718
▁retained	-8719
▁smallest	-8720
▁spernski	-8721
▁stirring	-8722
▁troubles	-8723
▁wondered	-8724
▁wrinkled	-8725
▁attendant	-8726
▁baptistin	-8727
▁conceived	-8728
▁countries	-8729
▁divisions	-8730
▁eagerness	-8731
▁extending	-8732
▁galloping	-8733
▁neglected	-8734
▁resembles	-8735
▁sorrowful	-8736
▁sparkling	-8737
▁spreading	-8738
▁stammered	-8739
▁stockings	-8740
▁telegraph	-8741
▁whiteness	-8742
▁hispaniola	-8743
▁insurgents	-8744
▁personally	-8745
▁victorious	-8746
▁necessarily	-8747
▁petitpicpus	-8748
▁superiority	-8749
▁acquaintances	-8750
▁disappointment	-8751
9,	-8752
cad	-8753
cel	-8754
iel	-8755
noe	-8756
pur	-8757
sim	-8758
sun	-8759
tur	-8760
▁cf	-8761
▁vl	-8762
arme	-8763
does	-8764
each	-8765
gage	-8766
kers	-8767
olic	-8768
real	-8769
uity	-8770
▁omn	-8771
▁shu	-8772
▁tru	-8773
ansas	-8774
voice	-8775
▁agon	-8776
▁cycl	-8777
▁fath	-8778
▁fund	-8779
▁limb	-8780
▁usur	-8781
▁xvii	-8782
alking	-8783
almost	-8784
haired	-8785
minded	-8786
uteous	-8787
▁bliss	-8788
▁draws	-8789
▁felix	-8790
▁meets	-8791
▁rigid	-8792
▁ropes	-8793
▁spain	-8794
▁sweat	-8795
▁total	-8796
▁abomin	-8797
▁ambush	-8798
▁grotto	-8799
▁growth	-8800
▁guided	-8801
▁insens	-8802
▁justly	-8803
▁merion	-8804
▁paraly	-8805
▁ration	-8806
▁rubbed	-8807
▁avoided	-8808
▁cracked	-8809
▁granted	-8810
▁guarded	-8811
▁methods	-8812
▁nowhere	-8813
▁praying	-8814
▁prudent	-8815
▁smollet	-8816
▁spartan	-8817
▁torrent	-8818
▁weighed	-8819
▁catching	-8820
▁ceremony	-8821
▁cowardly	-8822
▁festival	-8823
▁fortunes	-8824
▁overhead	-8825
▁preceded	-8826
▁rejoiced	-8827
▁shutters	-8828
▁speedily	-8829
▁steadily	-8830
▁arranging	-8831
▁assistant	-8832
▁attacking	-8833
▁confirmed	-8834
▁determine	-8835
▁dispersed	-8836
▁fantastic	-8837
▁instances	-8838
▁swineherd	-8839
▁toussaint	-8840
▁calculated	-8841
▁complexion	-8842
▁contradict	-8843
▁favourable	-8844
▁travellers	-8845
▁tumultuous	-8846
▁twentyfour	-8847
▁champslyses	-8848
▁constructed	-8849
▁significant	-8850
▁irresistible	-8851
▁uncomfortable	-8852
0,	-8853
oup	-8854
pat	-8855
pef	-8856
▁22	-8857
▁ay	-8858
▁rh	-8859
cend	-8860
dang	-8861
ican	-8862
ills	-8863
lass	-8864
mart	-8865
odes	-8866
outh	-8867
prof	-8868
shka	-8869
want	-8870
▁alb	-8871
▁rot	-8872
alone	-8873
astly	-8874
iethe	-8875
itute	-8876
smith	-8877
▁bids	-8878
▁bite	-8879
▁bolt	-8880
▁carb	-8881
▁cash	-8882
▁cens	-8883
▁dand	-8884
▁dumb	-8885
▁ejac	-8886
▁hood	-8887
▁init	-8888
▁pomp	-8889
▁ramp	-8890
▁reco	-8891
▁surv	-8892
▁vine	-8893
▁zeal	-8894
appear	-8895
bruary	-8896
erving	-8897
follow	-8898
myself	-8899
reason	-8900
retion	-8901
▁bache	-8902
▁blast	-8903
▁catal	-8904
▁entry	-8905
▁hasty	-8906
▁knoll	-8907
▁novel	-8908
▁outst	-8909
▁petty	-8910
▁poems	-8911
▁posts	-8912
▁rhyth	-8913
▁rings	-8914
▁spoil	-8915
▁tipto	-8916
▁alarms	-8917
▁attach	-8918
▁brujon	-8919
▁create	-8920
▁ghosts	-8921
▁hearth	-8922
▁hunted	-8923
▁learnt	-8924
▁livres	-8925
▁lucien	-8926
▁midday	-8927
▁overfl	-8928
▁pearls	-8929
▁pressd	-8930
▁ribbon	-8931
▁robber	-8932
▁spared	-8933
▁tavern	-8934
▁thetis	-8935
olutions	-8936
▁approve	-8937
▁baggage	-8938
▁barclay	-8939
▁blazing	-8940
▁blowing	-8941
▁charles	-8942
▁clerval	-8943
▁disgust	-8944
▁drowned	-8945
▁healthy	-8946
▁horrors	-8947
▁lacking	-8948
▁mixture	-8949
▁motives	-8950
▁outward	-8951
▁patriot	-8952
▁rewards	-8953
▁scatter	-8954
▁spectre	-8955
▁sunrise	-8956
▁swaying	-8957
▁vicomte	-8958
iethepooh	-8959
▁approved	-8960
▁capacity	-8961
▁childish	-8962
▁countrys	-8963
▁deserved	-8964
▁effected	-8965
▁monument	-8966
▁nobility	-8967
▁rattling	-8968
▁relating	-8969
▁security	-8970
▁selected	-8971
▁shrugged	-8972
▁stooping	-8973
▁tenderly	-8974
▁wineshop	-8975
▁aristotle	-8976
▁civilized	-8977
▁discussed	-8978
▁enclosure	-8979
▁frenchmen	-8980
▁fulfilled	-8981
▁innkeeper	-8982
▁intending	-8983
▁regarding	-8984
▁responded	-8985
▁spiritual	-8986
▁diningroom	-8987
▁expressive	-8988
▁forecastle	-8989
▁penetrated	-8990
▁recognizing	-8991
▁concentrated	-8992
▁embarrassment	-8993
pd	-8994
ti	-8995
arn	-8996
axe	-8997
inn	-8998
nut	-8999
rus	-9000
sum	-9001
vis	-9002
zed	-9003
alty	-9004
dled	-9005
fare	-9006
greg	-9007
hung	-9008
mate	-9009
▁gap	-9010
▁lum	-9011
▁sly	-9012
▁vag	-9013
▁vow	-9014
adays	-9015
aning	-9016
athed	-9017
dress	-9018
ieces	-9019
iless	-9020
itect	-9021
lings	-9022
ridge	-9023
terns	-9024
world	-9025
▁appl	-9026
▁clay	-9027
▁cure	-9028
▁emph	-9029
▁navy	-9030
▁riot	-9031
▁scot	-9032
actory	-9033
fallen	-9034
istrat	-9035
iverse	-9036
mighty	-9037
pelled	-9038
urable	-9039
▁based	-9040
▁beams	-9041
▁freem	-9042
▁humor	-9043
▁idiot	-9044
▁marqu	-9045
▁maybe	-9046
▁peleg	-9047
▁sable	-9048
▁stake	-9049
▁verge	-9050
▁verse	-9051
ictions	-9052
viously	-9053
▁apples	-9054
▁assert	-9055
▁crowds	-9056
▁diomed	-9057
▁easier	-9058
▁fulfil	-9059
▁hearty	-9060
▁intrig	-9061
▁judged	-9062
▁melted	-9063
▁patter	-9064
▁paving	-9065
▁rescue	-9066
▁rivers	-9067
▁assault	-9068
▁contact	-9069
▁crowned	-9070
▁defined	-9071
▁elderly	-9072
▁frantic	-9073
▁frowned	-9074
▁genuine	-9075
▁halfway	-9076
▁laertes	-9077
▁pequods	-9078
▁puzzled	-9079
▁railway	-9080
▁renewed	-9081
▁reserve	-9082
▁studies	-9083
▁tyranny	-9084
▁warlike	-9085
▁winding	-9086
▁anteroom	-9087
▁articles	-9088
▁blushing	-9089
▁grecians	-9090
▁involved	-9091
▁marching	-9092
▁measured	-9093
▁mustache	-9094
▁nostrils	-9095
▁nowadays	-9096
▁pastrini	-9097
▁polished	-9098
▁proposal	-9099
▁propriet	-9100
▁replying	-9101
▁scaffold	-9102
▁shooting	-9103
▁symptoms	-9104
▁tashtego	-9105
▁terribly	-9106
▁training	-9107
▁villages	-9108
▁continual	-9109
▁fragments	-9110
▁greatness	-9111
▁personage	-9112
▁prevailed	-9113
▁benefactor	-9114
▁churchyard	-9115
▁detachment	-9116
▁newspapers	-9117
▁objections	-9118
▁regimental	-9119
▁resembling	-9120
▁embarrassed	-9121
▁goodnatured	-9122
▁hospitality	-9123
▁inclination	-9124
▁neighboring	-9125
▁subterranean	-9126
6,	-9127
94	-9128
cu	-9129
adm	-9130
bod	-9131
dem	-9132
kov	-9133
oit	-9134
▁27	-9135
aind	-9136
atru	-9137
avat	-9138
dont	-9139
neys	-9140
oofs	-9141
ront	-9142
vict	-9143
ylus	-9144
ymph	-9145
▁ful	-9146
▁hsi	-9147
▁lem	-9148
▁lid	-9149
▁nun	-9150
▁pad	-9151
▁woo	-9152
ammed	-9153
armed	-9154
atted	-9155
conte	-9156
hands	-9157
icide	-9158
monte	-9159
offic	-9160
sever	-9161
uling	-9162
▁buff	-9163
▁cage	-9164
▁clen	-9165
▁inse	-9166
▁joys	-9167
▁lege	-9168
▁manu	-9169
▁myth	-9170
▁orph	-9171
▁pite	-9172
▁raft	-9173
▁rash	-9174
▁recl	-9175
▁wang	-9176
behind	-9177
ertion	-9178
heaven	-9179
inkled	-9180
lovnas	-9181
opened	-9182
ridges	-9183
urious	-9184
▁clums	-9185
▁coinc	-9186
▁estim	-9187
▁evils	-9188
▁exile	-9189
▁fairy	-9190
▁folks	-9191
▁hedge	-9192
▁holes	-9193
▁pages	-9194
▁pious	-9195
▁rival	-9196
▁slack	-9197
between	-9198
renched	-9199
▁barely	-9200
▁brandy	-9201
▁compet	-9202
▁discon	-9203
▁drives	-9204
▁escort	-9205
▁faults	-9206
▁finest	-9207
▁gloves	-9208
▁impass	-9209
▁limits	-9210
▁madman	-9211
▁observ	-9212
▁owners	-9213
▁polish	-9214
▁retain	-9215
▁shirts	-9216
▁sleigh	-9217
▁vainly	-9218
▁visits	-9219
▁weaker	-9220
cription	-9221
daughter	-9222
▁casting	-9223
▁confirm	-9224
▁crawled	-9225
▁crimson	-9226
▁delayed	-9227
▁feature	-9228
▁floated	-9229
▁germans	-9230
▁ghastly	-9231
▁heading	-9232
▁inherit	-9233
▁mission	-9234
▁monkeys	-9235
▁refresh	-9236
▁refusal	-9237
▁serpent	-9238
▁strides	-9239
▁strikes	-9240
▁sweetly	-9241
▁tuesday	-9242
▁allusion	-9243
▁anothers	-9244
▁dazzling	-9245
▁decisive	-9246
▁dragoons	-9247
▁equality	-9248
▁february	-9249
▁gendarme	-9250
▁precipit	-9251
▁proceeds	-9252
▁severity	-9253
▁softened	-9254
▁strained	-9255
▁stretchd	-9256
▁sufficed	-9257
▁unworthy	-9258
▁vigorous	-9259
▁wrinkles	-9260
▁adjoining	-9261
▁architect	-9262
▁believing	-9263
▁fireplace	-9264
▁matchless	-9265
▁noirtiers	-9266
▁operation	-9267
▁ponderous	-9268
▁prolonged	-9269
▁readiness	-9270
▁recommend	-9271
▁shivering	-9272
▁struggled	-9273
▁wellknown	-9274
▁accordance	-9275
▁confession	-9276
▁displeased	-9277
▁expedition	-9278
▁explaining	-9279
▁incredible	-9280
▁resolutely	-9281
▁sensations	-9282
withstanding	-9283
▁appearances	-9284
▁resemblance	-9285
▁communicated	-9286
▁enthusiastic	-9287
▁corresponding	-9288
▁inevitability	-9289
gd	-9290
ait	-9291
alf	-9292
ran	-9293
ser	-9294
try	-9295
▁ig	-9296
agne	-9297
fact	-9298
gree	-9299
hess	-9300
true	-9301
▁eve	-9302
▁hue	-9303
arian	-9304
ecamp	-9305
gered	-9306
irass	-9307
noble	-9308
ochus	-9309
osity	-9310
prise	-9311
uated	-9312
▁cane	-9313
▁chao	-9314
▁enig	-9315
▁hail	-9316
▁keel	-9317
▁loaf	-9318
▁mice	-9319
▁sits	-9320
▁soup	-9321
▁unac	-9322
▁whos	-9323
contin	-9324
regard	-9325
▁attic	-9326
▁brush	-9327
▁burns	-9328
▁ditch	-9329
▁equiv	-9330
▁jesus	-9331
▁jolly	-9332
▁moves	-9333
▁passd	-9334
▁pilgr	-9335
▁plump	-9336
▁pylos	-9337
▁roast	-9338
▁shaft	-9339
▁shell	-9340
▁shots	-9341
▁sober	-9342
▁swore	-9343
▁token	-9344
▁twent	-9345
herself	-9346
mathieu	-9347
▁bilbin	-9348
▁crowns	-9349
▁drawer	-9350
▁impart	-9351
▁indisp	-9352
▁injury	-9353
▁kurgin	-9354
▁needle	-9355
▁offers	-9356
▁proofs	-9357
▁prover	-9358
▁rascal	-9359
▁roared	-9360
▁spoils	-9361
▁traced	-9362
▁trades	-9363
▁yanina	-9364
itutions	-9365
▁antique	-9366
▁balance	-9367
▁bargain	-9368
▁billows	-9369
▁depends	-9370
▁intoler	-9371
▁kissing	-9372
▁liberal	-9373
▁livesey	-9374
▁parting	-9375
▁rosings	-9376
▁sewards	-9377
▁stature	-9378
▁subsequ	-9379
▁abstract	-9380
▁allowing	-9381
▁almighty	-9382
▁blessing	-9383
▁boulatru	-9384
▁careless	-9385
▁counting	-9386
▁democrat	-9387
▁firmness	-9388
▁fountain	-9389
▁fragment	-9390
▁likeness	-9391
▁produces	-9392
▁pursuing	-9393
▁receives	-9394
▁searched	-9395
▁tattered	-9396
▁universe	-9397
▁welcomed	-9398
understand	-9399
▁appearing	-9400
▁attentive	-9401
▁clearness	-9402
▁complaint	-9403
▁contempor	-9404
▁governors	-9405
▁inhabited	-9406
▁irritated	-9407
▁ministers	-9408
▁staggered	-9409
▁sweetness	-9410
▁whistling	-9411
▁witnesses	-9412
▁aidedecamp	-9413
▁artificial	-9414
▁attentions	-9415
▁battalions	-9416
▁carelessly	-9417
▁commanding	-9418
▁peculiarly	-9419
▁positively	-9420
▁prodigious	-9421
▁spectators	-9422
▁whispering	-9423
▁endeavoured	-9424
▁impressions	-9425
▁restoration	-9426
▁surrounding	-9427
▁extinguished	-9428
▁mechanically	-9429
▁winniethepooh	-9430
,2	-9431
bal	-9432
few	-9433
lou	-9434
mur	-9435
ram	-9436
▁pf	-9437
aggy	-9438
beau	-9439
cond	-9440
dead	-9441
drop	-9442
eded	-9443
eyed	-9444
▁pha	-9445
found	-9446
groom	-9447
homme	-9448
oting	-9449
taire	-9450
▁cove	-9451
▁dash	-9452
▁desk	-9453
▁dome	-9454
▁font	-9455
▁idol	-9456
▁lend	-9457
▁phry	-9458
▁scan	-9459
▁seal	-9460
▁shun	-9461
▁tack	-9462
▁twit	-9463
▁unav	-9464
▁ungr	-9465
▁urge	-9466
▁vult	-9467
▁weve	-9468
▁wilt	-9469
▁youd	-9470
bridge	-9471
icking	-9472
licity	-9473
llable	-9474
marius	-9475
soever	-9476
▁argos	-9477
▁blond	-9478
▁creep	-9479
▁frock	-9480
▁gamin	-9481
▁inval	-9482
▁irony	-9483
▁maire	-9484
▁niece	-9485
▁relax	-9486
▁seine	-9487
▁shops	-9488
▁tiger	-9489
however	-9490
ilochus	-9491
▁analog	-9492
▁ancest	-9493
▁anyhow	-9494
▁cudgel	-9495
▁gossip	-9496
▁hinges	-9497
▁kansas	-9498
▁medium	-9499
▁pacing	-9500
▁rattle	-9501
▁recomp	-9502
▁stupef	-9503
▁tyrann	-9504
▁warned	-9505
▁whitby	-9506
▁wizard	-9507
▁america	-9508
▁beaming	-9509
▁buttons	-9510
▁corpses	-9511
▁corrupt	-9512
▁decline	-9513
▁flatter	-9514
▁judging	-9515
▁jumping	-9516
▁leaping	-9517
▁modesty	-9518
▁muskets	-9519
▁provide	-9520
▁sleeves	-9521
▁stuffed	-9522
▁assigned	-9523
▁brightly	-9524
▁curtains	-9525
▁diamonds	-9526
▁eighteen	-9527
▁electric	-9528
▁eternity	-9529
▁oriental	-9530
▁procured	-9531
▁resemble	-9532
▁restless	-9533
▁smollett	-9534
▁stepping	-9535
▁vehicles	-9536
▁yielding	-9537
▁backwards	-9538
▁energetic	-9539
▁impressed	-9540
▁inquiring	-9541
▁policeman	-9542
▁signature	-9543
▁sincerely	-9544
▁undertake	-9545
▁encouraged	-9546
▁honourable	-9547
▁indignation	-9548
▁precautions	-9549
▁commentators	-9550
▁preparations	-9551
▁determination	-9552
▁notwithstanding	-9553
.;	-9554
ape	-9555
olo	-9556
ray	-9557
rue	-9558
sis	-9559
▁28	-9560
▁gy	-9561
dish	-9562
eous	-9563
erer	-9564
gers	-9565
knew	-9566
lips	-9567
rial	-9568
sign	-9569
▁ich	-9570
▁loc	-9571
▁mak	-9572
▁mei	-9573
▁mes	-9574
▁pyr	-9575
▁vit	-9576
ardan	-9577
itory	-9578
odule	-9579
oping	-9580
sight	-9581
stein	-9582
utter	-9583
▁ador	-9584
▁beer	-9585
▁brit	-9586
▁bury	-9587
▁capn	-9588
▁dagg	-9589
▁envy	-9590
▁eyel	-9591
▁gran	-9592
▁nave	-9593
▁nick	-9594
▁quad	-9595
▁root	-9596
▁sore	-9597
▁tast	-9598
▁trod	-9599
longer	-9600
taking	-9601
vrerie	-9602
▁april	-9603
▁brick	-9604
▁brood	-9605
▁brute	-9606
▁clust	-9607
▁crawl	-9608
▁flint	-9609
▁games	-9610
▁herds	-9611
▁heros	-9612
▁lungs	-9613
▁marys	-9614
▁tools	-9615
▁tries	-9616
forward	-9617
ortions	-9618
uscript	-9619
written	-9620
▁antiqu	-9621
▁behalf	-9622
▁cravat	-9623
▁curate	-9624
▁ensued	-9625
▁heaved	-9626
▁imprud	-9627
▁insuff	-9628
▁lesser	-9629
▁luxury	-9630
▁peleus	-9631
▁proves	-9632
▁salute	-9633
▁shaken	-9634
▁shroud	-9635
▁stormy	-9636
▁strate	-9637
▁toilet	-9638
▁viewed	-9639
▁confine	-9640
▁courtes	-9641
▁cuirass	-9642
▁dresses	-9643
▁dynasty	-9644
▁enabled	-9645
▁exasper	-9646
▁exclaim	-9647
▁flowing	-9648
▁founded	-9649
▁frankly	-9650
▁groaned	-9651
▁hippoly	-9652
▁homeric	-9653
▁merrily	-9654
▁nodding	-9655
▁plaster	-9656
▁seventy	-9657
▁swallow	-9658
▁teacher	-9659
▁trusted	-9660
▁western	-9661
▁attorney	-9662
▁civility	-9663
▁consists	-9664
▁disguise	-9665
▁escaping	-9666
▁garments	-9667
▁huntsmen	-9668
▁knocking	-9669
▁nineteen	-9670
▁november	-9671
▁politely	-9672
▁pressure	-9673
▁swinging	-9674
everything	-9675
▁deposited	-9676
▁excessive	-9677
▁honorable	-9678
▁ingenious	-9679
▁pronounce	-9680
▁thrusting	-9681
▁whirlwind	-9682
▁witnessed	-9683
▁gentleness	-9684
▁inevitably	-9685
▁neighbours	-9686
▁originally	-9687
▁reappeared	-9688
▁succession	-9689
▁arrangement	-9690
▁independent	-9691
▁champmathieu	-9692
.2	-9693
ca	-9694
sa	-9695
ux	-9696
vy	-9697
abb	-9698
ago	-9699
dor	-9700
dri	-9701
joy	-9702
ora	-9703
ref	-9704
sur	-9705
tee	-9706
▁2.	-9707
acon	-9708
anto	-9709
aret	-9710
chev	-9711
idly	-9712
imag	-9713
sold	-9714
soul	-9715
unge	-9716
▁dur	-9717
▁dye	-9718
▁mob	-9719
▁ree	-9720
▁ruc	-9721
agged	-9722
eight	-9723
enses	-9724
ients	-9725
lence	-9726
neath	-9727
ooner	-9728
rific	-9729
since	-9730
years	-9731
▁bred	-9732
▁caly	-9733
▁doct	-9734
▁epic	-9735
▁file	-9736
▁goat	-9737
▁gren	-9738
▁harv	-9739
▁herd	-9740
▁hook	-9741
▁keys	-9742
▁lent	-9743
▁muff	-9744
▁pigs	-9745
▁plut	-9746
▁rely	-9747
▁ripp	-9748
▁shor	-9749
▁vibr	-9750
▁viol	-9751
▁wits	-9752
ainted	-9753
anders	-9754
anting	-9755
bishop	-9756
cannot	-9757
encing	-9758
inking	-9759
ossess	-9760
saying	-9761
window	-9762
▁chart	-9763
▁corse	-9764
▁exper	-9765
▁hairs	-9766
▁lamps	-9767
▁latin	-9768
▁likes	-9769
▁logic	-9770
▁lunch	-9771
▁owned	-9772
▁polem	-9773
▁robes	-9774
▁wield	-9775
▁wills	-9776
▁worry	-9777
▁adjust	-9778
▁arises	-9779
▁assail	-9780
▁astron	-9781
▁betray	-9782
▁blouse	-9783
▁breaks	-9784
▁cathed	-9785
▁courts	-9786
▁excite	-9787
▁hearse	-9788
▁hellen	-9789
▁modest	-9790
▁monkey	-9791
▁openly	-9792
▁plants	-9793
▁purity	-9794
▁reform	-9795
▁saints	-9796
▁strove	-9797
▁struct	-9798
▁subord	-9799
▁toulon	-9800
▁uncles	-9801
isistrat	-9802
▁article	-9803
▁briskly	-9804
▁college	-9805
▁colours	-9806
▁concier	-9807
▁dreaded	-9808
▁duchess	-9809
▁estates	-9810
▁expense	-9811
▁glories	-9812
▁imitate	-9813
▁induced	-9814
▁joining	-9815
▁oneself	-9816
▁pacific	-9817
▁pattern	-9818
▁pensive	-9819
▁sobbing	-9820
▁stately	-9821
▁student	-9822
▁therein	-9823
▁thodule	-9824
▁workman	-9825
andtwenty	-9826
▁assuming	-9827
▁ballroom	-9828
▁carconte	-9829
▁concerns	-9830
▁cupboard	-9831
▁detached	-9832
▁honoured	-9833
▁internal	-9834
▁isolated	-9835
▁jealousy	-9836
▁lanterns	-9837
▁monarchs	-9838
▁northern	-9839
▁parallel	-9840
▁promises	-9841
▁radiance	-9842
▁requires	-9843
▁sideways	-9844
▁striving	-9845
▁supplies	-9846
▁sweeping	-9847
▁uniforms	-9848
▁virtuous	-9849
▁beauteous	-9850
▁dismissed	-9851
▁indignant	-9852
▁nightfall	-9853
▁penetrate	-9854
▁privilege	-9855
▁salvation	-9856
▁screaming	-9857
▁stillness	-9858
▁treatment	-9859
▁attendants	-9860
▁convenient	-9861
▁courageous	-9862
▁ejaculated	-9863
▁meditation	-9864
▁perplexity	-9865
▁thundering	-9866
▁underneath	-9867
▁appointment	-9868
▁executioner	-9869
▁remembrance	-9870
▁boulatruelle	-9871
▁contradiction	-9872
hl	-9873
hs	-9874
aze	-9875
don	-9876
mid	-9877
sac	-9878
sal	-9879
bish	-9880
bury	-9881
dark	-9882
dens	-9883
ders	-9884
dles	-9885
ener	-9886
fold	-9887
gged	-9888
lead	-9889
obey	-9890
ombs	-9891
pool	-9892
prit	-9893
shop	-9894
utch	-9895
wife	-9896
▁caf	-9897
▁jar	-9898
▁lug	-9899
▁pag	-9900
▁pic	-9901
among	-9902
atics	-9903
burst	-9904
oughs	-9905
ucing	-9906
ulace	-9907
ursed	-9908
usive	-9909
▁athe	-9910
▁bern	-9911
▁cake	-9912
▁coin	-9913
▁dieu	-9914
▁elba	-9915
▁fors	-9916
▁lace	-9917
▁mane	-9918
▁nour	-9919
▁palm	-9920
▁pars	-9921
aneous	-9922
horses	-9923
inence	-9924
ipping	-9925
jected	-9926
minine	-9927
▁athen	-9928
▁fills	-9929
▁glist	-9930
▁merch	-9931
▁saber	-9932
▁seals	-9933
▁smugg	-9934
▁snowy	-9935
▁spurs	-9936
▁unequ	-9937
▁vigor	-9938
aration	-9939
country	-9940
inkling	-9941
lasting	-9942
stained	-9943
umption	-9944
▁ardent	-9945
▁bandit	-9946
▁barrel	-9947
▁	-9948
e	-9949
t	-9950
o	-9951
a	-9952
n	-9953
i	-9954
h	-9955
s	-9956
r	-9957
d	-9958
l	-9959
m	-9960
u	-9961
c	-9962
"	-9963
p	-9964
w	-9965
,	-9966
f	-9967
g	-9968
y	-9969
b	-9970
.	-9971
v	-9972
:	-9973
k	-9974
{	-9975
}	-9976
;	-9977
x	-9978
j	-9979
?	-9980
!	-9981
q	-9982
z	-9983
\	-9984
1	-9985
0	-9986
2	-9987
3	-9988
8	-9989
5	-9990
4	-9991
7	-9992
6	-9993
9	-9994
'	-9995
